<unk>	0
<s>	0
</s>	0
ශ්‍රී	0
කෝවිඩ්-19	0
.	0
(	0
)	0
න්	-0
▁ප	-1
▁ස	-2
▁ක	-3
▁ව	-4
ත්	-5
▁අ	-6
▁ම	-7
ිය	-8
ක්	-9
ති	-10
▁ද	-11
ුව	-12
▁බ	-13
▁න	-14
්ර	-15
ාර	-16
ීම	-17
▁ග	-18
▁ල	-19
ස්	-20
▁හ	-21
ාව	-22
ිර	-23
ම්	-24
ින්	-25
▁ර	-26
ෙන	-27
▁ත	-28
▁වි	-29
▁ඇ	-30
ෙන්	-31
ල්	-32
▁බව	-33
වා	-34
▁එ	-35
්ය	-36
යේ	-37
▁සි	-38
▁කර	-39
යි	-40
▁ප්ර	-41
තු	-42
ික	-43
▁ජ	-44
වර	-45
▁ය	-46
දු	-47
නා	-48
▁ඉ	-49
▁ආ	-50
නය	-51
▁ති	-52
මා	-53
ක්ෂ	-54
ුණ	-55
තා	-56
▁තිබ	-57
▁මෙ	-58
▁කළ	-59
දී	-60
▁මහ	-61
ලි	-62
ර්	-63
▁ඇති	-64
ාර්	-65
තර	-66
ාල	-67
▁සඳ	-68
යා	-69
▁සඳහ	-70
▁සහ	-71
▁පැ	-72
ීමට	-73
ුද	-74
▁සිට	-75
▁නි	-76
▁වැ	-77
▁අද	-78
කර	-79
මි	-80
ිප	-81
ුර	-82
▁කිර	-83
ාන	-84
ත්ර	-85
ණය	-86
ත්ව	-87
ින	-88
▁වන	-89
ේශ	-90
කා	-91
▁පො	-92
කු	-93
වස	-94
වි	-95
▁අන	-96
ැන	-97
ෙස	-98
ගේ	-99
න්න	-100
▁අතර	-101
ියා	-102
▁කො	-103
හි	-104
▁ලබ	-105
▁මේ	-106
ංග	-107
යෙන්	-108
▁උ	-109
▁ශ	-110
ල්ල	-111
▁ඒ	-112
දේශ	-113
▁ඔ	-114
ුන්	-115
▁පි	-116
යක	-117
යක්	-118
ැක	-119
න්ත	-120
▁මෙම	-121
ෙකු	-122
මින්	-123
▁අව	-124
ත්ය	-125
න්ධ	-126
ෙනවා	-127
දි	-128
ෙර	-129
තුර	-130
▁සං	-131
යට	-132
▁1	-133
▁එම	-134
්ඩ	-135
▁සම්	-136
ධ්ය	-137
▁ලබා	-138
ණ්ඩ	-139
ුතු	-140
වරයා	-141
මේ	-142
▁බවයි	-143
ළි	-144
▁2	-145
▁සම	-146
▁දෙ	-147
▁සඳහා	-148
ාප	-149
▁වෙ	-150
ත්ත	-151
්රී	-152
▁කරන	-153
ිරි	-154
▁මහතා	-155
සි	-156
▁සඳහන්	-157
▁අමා	-158
සිය	-159
▁නො	-160
සු	-161
▁තිබෙනවා	-162
දා	-163
වල	-164
ඩි	-165
▁මා	-166
ියේ	-167
▁කිරීම	-168
▁ලෙස	-169
▁ප්රදේශ	-170
්ධ	-171
▁නිය	-172
▁අප	-173
▁කට	-174
▁සිදු	-175
ගල	-176
න්ද	-177
▁කළේ	-178
▁ලං	-179
▁පොලි	-180
තාව	-181
▁පර	-182
▁සම්බ	-183
ුවේ	-184
යින්	-185
▁රා	-186
▁විස	-187
සා	-188
▁ශ්රී	-189
හු	-190
ුවට	-191
ස්ථ	-192
▁සම්බන්ධ	-193
නි	-194
▁දි	-195
ැබ	-196
ුවන්	-197
▁වාර්	-198
▁හි	-199
▁දී	-200
▁අමාත්ය	-201
▁බල	-202
▁ක්ර	-203
▁පවස	-204
රට	-205
▁වී	-206
ධිප	-207
වැ	-208
▁ජන	-209
ධිපති	-210
ට්	-211
ිත	-212
▁එක්	-213
ුම	-214
රණය	-215
▁කටය	-216
ධාර	-217
කාශ	-218
ධික	-219
ාවේ	-220
▁අත්	-221
ුණු	-222
්ගල	-223
▁පළ	-224
▁හා	-225
▁පිළි	-226
ුළ	-227
▁විශ	-228
▁ඉද	-229
▁සිද	-230
▁ගැන	-231
කට	-232
ීන්	-233
▁විසින්	-234
▁සා	-235
රා	-236
▁ප්රකාශ	-237
නාධිපති	-238
තික	-239
▁කටයුතු	-240
▁හම	-241
තුව	-242
▁ජා	-243
ංශ	-244
ුම්	-245
සේ	-246
▁ඊ	-247
▁ආර	-248
ැති	-249
ද්ය	-250
▁කිරීමට	-251
▁කි	-252
▁ජනාධිපති	-253
▁දැ	-254
▁සම්බන්ධයෙන්	-255
වත්	-256
▁තිබේ	-257
ුප	-258
ගෙන	-259
00	-260
▁රාජ	-261
▁ගෙන	-262
▁ඔහු	-263
▁දින	-264
▁පුද	-265
ගම	-266
මු	-267
ලා	-268
▁ස්	-269
වති	-270
වන	-271
▁භ	-272
▁පුද්ගල	-273
▁වූ	-274
න්නේ	-275
ඩංග	-276
▁වාර්තා	-277
▁පිළිබ	-278
▁රෝ	-279
ුණා	-280
▁ච	-281
▁සිය	-282
▁අධික	-283
ානය	-284
▁ප්රදේශයේ	-285
▁සේ	-286
මිණ	-287
▁වැඩි	-288
▁පසු	-289
යන්	-290
ඩංගුවට	-291
ොර	-292
▁ලැබ	-293
▁දෙන	-294
ාර්ය	-295
ීය	-296
▁වෙත	-297
▁ගො	-298
▁අත්අ	-299
▁සභ	-300
වේ	-301
▁පොලිස්	-302
▁පෙර	-303
▁අත්අඩංගුවට	-304
ේෂ	-305
ත්රී	-306
▁ඉදිර	-307
▁පැමිණ	-308
ෝජ	-309
▁තර	-310
ාය	-311
▁මාධ්ය	-312
දහ	-313
▁නැ	-314
ාළ	-315
මන්	-316
▁හේ	-317
▁නිල	-318
▁රැ	-319
▁අනුව	-320
▁ඇතු	-321
▁එහි	-322
▁දක්	-323
▁අදාළ	-324
▁ලංකා	-325
▁බැ	-326
ාග	-327
දෙන	-328
ාත්	-329
▁ඇත	-330
▁පිළිබඳ	-331
ත්තේ	-332
කාර	-333
▁මි	-334
වීම	-335
සර	-336
කම්	-337
ධාන	-338
ළඹ	-339
▁බවත්	-340
▁බවට	-341
▁සැක	-342
▁හැක	-343
රණ	-344
ච්	-345
▁ක්රියා	-346
▁සිදුව	-347
▁කාල	-348
▁සැ	-349
ලී	-350
වුන්	-351
ගිය	-352
▁කියා	-353
▁පාර්	-354
▁රට	-355
▁ක්	-356
මේන්ත	-357
▁හැ	-358
ෝධ	-359
ුරු	-360
ීක්ෂ	-361
▁ජාතික	-362
තිය	-363
▁හේතුව	-364
▁තුළ	-365
▁3	-366
▁මුද	-367
▁පැවැ	-368
ලිය	-369
ාම	-370
▁අනතුර	-371
▁පිරි	-372
ාර්ග	-373
▁නිලධාර	-374
ලේ	-375
ත්ම	-376
▁ඇතුළ	-377
▁ඊයේ	-378
▁අය	-379
නවා	-380
මණ	-381
ඛ්ය	-382
▁වෙන	-383
▁රජ	-384
▁පා	-385
▁කළා	-386
▁0	-387
▁මු	-388
නේ	-389
▁ධ	-390
පා	-391
ෝග	-392
▁විම	-393
▁ගැ	-394
▁ඇත්තේ	-395
▁ඉදිරිප	-396
▁කාර්ය	-397
▁කොළඹ	-398
▁නී	-399
ස්ත්ර	-400
▁සිටියේ	-401
▁පමණ	-402
▁පක්ෂ	-403
ටි	-404
▁පහ	-405
▁නිර	-406
මිත	-407
▁හෙ	-408
▁ව්ය	-409
▁පොලී	-410
ඩු	-411
▁අවස්ථ	-412
▁රෝහ	-413
▁සිටින	-414
ාවට	-415
▁ලංක	-416
▁පාර්ලි	-417
▁ස්ථ	-418
▁දක්වා	-419
ායක	-420
ලු	-421
▁පොලීසිය	-422
හැ	-423
▁හේතුවෙන්	-424
වෙ	-425
යෙකු	-426
▁නියමිත	-427
වී	-428
කරු	-429
▁වැඩ	-430
▁රථ	-431
▁පරීක්ෂ	-432
ීමේ	-433
ෙන්ම	-434
ංච	-435
▁උප	-436
▁මන්	-437
▁ඔවුන්	-438
▁දැන	-439
▁වසර	-440
▁කැ	-441
▁විට	-442
▁යුතු	-443
පක්ෂ	-444
▁තී	-445
හන	-446
සක්	-447
▁20	-448
▁කරමින්	-449
ෙක්	-450
▁පසුගිය	-451
▁ට	-452
▁යන	-453
තුරු	-454
▁පැවැත්ව	-455
රම	-456
▁කළේය	-457
▁විශේෂ	-458
▁ප්රධාන	-459
▁වෛ	-460
▁ඉදිරිපත්	-461
▁ඉල්ල	-462
ාවක්	-463
▁පොලිසිය	-464
කරුවන්	-465
▁සිටි	-466
▁දෙනෙකු	-467
පු	-468
ර්ශ	-469
▁පරි	-470
▁මන්ත්රී	-471
▁අධ්ය	-472
ෂ්	-473
▁දෙප	-474
▁පවසයි	-475
▁ජනතාව	-476
▁ප්රති	-477
ම්භ	-478
ගො	-479
▁පත්	-480
▁සමා	-481
▁මාර්ග	-482
▁හැකි	-483
ුත්	-484
▁සේව	-485
▁කා	-486
ැයි	-487
▁විර	-488
වර්ධ	-489
▁යො	-490
ත්මක	-491
හාර	-492
දෙ	-493
▁ආරම්භ	-494
නු	-495
▁ආය	-496
රටත්	-497
▁කිය	-498
▁5	-499
ලට	-500
කින්	-501
▁දෙපාර්	-502
ව්	-503
▁ගත්	-504
දුරටත්	-505
▁ලේ	-506
▁4	-507
සුව	-508
▁කණ්ඩ	-509
▁පවති	-510
භාග	-511
ුපිය	-512
ත්ත්ව	-513
ිට	-514
▁එක	-515
නායක	-516
▁කණ්ඩාය	-517
පාල	-518
▁කෙර	-519
▁රුපිය	-520
▁දෙපාර්ත	-521
ාත	-522
යේදී	-523
වරුන්	-524
▁අග	-525
ඩා	-526
කච්	-527
▁සමග	-528
ංක	-529
▁නව	-530
▁පැවති	-531
ශ්ය	-532
▁තත්ත්ව	-533
ක්ක	-534
▁රුපියල්	-535
▁සාකච්	-536
ුවෙන්	-537
▁සදහ	-538
▁ඩ	-539
ංශය	-540
▁දෙපාර්තමේන්ත	-541
▁මෙරට	-542
ගත	-543
▁අවස	-544
▁ඉන්	-545
ෝද	-546
▁දේශ	-547
▁රාජ්ය	-548
▁වර්	-549
වූ	-550
ත්යා	-551
▁ආරක්ෂ	-552
▁සාකච්ඡ	-553
▁පැවස	-554
පති	-555
▁සො	-556
▁මිය	-557
කි	-558
දුර	-559
▁නියෝජ	-560
මැති	-561
▁ආණ්ඩ	-562
ටුව	-563
මට	-564
▁ගැනීමට	-565
▁ක්රියාත්මක	-566
ීම්	-567
ණ්ඩල	-568
ගත්	-569
▁සෞ	-570
වාස	-571
▁නීති	-572
ාරි	-573
චාර	-574
වේද	-575
▁ගැට	-576
ම්බ	-577
▁පත්ව	-578
ුවර	-579
ගින්	-580
ප්	-581
▁හමුද	-582
▁නික	-583
▁පෙන්	-584
▁විදු	-585
▁ඉහ	-586
▁ජය	-587
හිප	-588
කුණු	-589
▁ලේකම්	-590
▁වෛද්ය	-591
විධ	-592
▁පෙ	-593
ියාව	-594
ගෙන්	-595
ෙහි	-596
වර්ධන	-597
කළ	-598
▁පවතින	-599
▁විද්ය	-600
▁සමඟ	-601
▁කිරීමේ	-602
▁අම	-603
ංහ	-604
▁මණ්ඩල	-605
▁විරෝධ	-606
ීට	-607
▁තීරණය	-608
වු	-609
▁පැමිණි	-610
▁නිලධාරීන්	-611
හා	-612
වලට	-613
▁සිද්ධ	-614
▁හෝ	-615
▁මත	-616
න්තු	-617
▁අධිකරණය	-618
▁සෞඛ්ය	-619
▁ඇතුළු	-620
මේන්තු	-621
▁එය	-622
ඩ්	-623
මක්	-624
ානු	-625
හස්	-626
▁තොර	-627
▁හිට	-628
▁කිහිප	-629
දිංච	-630
ශ්	-631
ෙසේ	-632
ංගම	-633
තේ	-634
▁අවශ්ය	-635
▁අමාත්යවරයා	-636
▁මධ්ය	-637
▁විය	-638
▁නිකුත්	-639
▁ලබන	-640
▁තරග	-641
▁යට	-642
▁නායක	-643
▁විමර්ශ	-644
▁ගත	-645
▁පවසනවා	-646
▁ජී	-647
▁ඉහළ	-648
ියට	-649
▁සිදුකර	-650
▁ව්යාප	-651
පත්	-652
න්නා	-653
▁මැති	-654
▁රාජපක්ෂ	-655
ාපති	-656
▁ගොස්	-657
හෙ	-658
▁අමාත්යා	-659
නයක්	-660
▁පිය	-661
රි	-662
ුරා	-663
ද්	-664
▁හිටපු	-665
▁ආයත	-666
ුණේ	-667
▁පු	-668
සත්	-669
▁පෙන්වා	-670
ියන්	-671
ලෙස	-672
▁පාර්ලිමේන්තු	-673
▁6	-674
▁නිසා	-675
▁සු	-676
▁එහිදී	-677
ත්ස	-678
▁මිල	-679
ීමෙන්	-680
▁බි	-681
ෙන්නේ	-682
▁මො	-683
▁ලබාද	-684
▁මුදල්	-685
▁මූ	-686
▁වේ	-687
▁වෙනුවෙන්	-688
්රා	-689
▁මැ	-690
▁තවත්	-691
▁පාල	-692
▁කාර්යාල	-693
▁භාර	-694
▁පළාත්	-695
විට	-696
ද්ධ	-697
ොට	-698
▁කෙසේ	-699
▁පසුව	-700
▁දිස්ත්ර	-701
▁වැට	-702
සිංහ	-703
නයේ	-704
▁දෙදෙන	-705
▁ජනාධිපතිවරයා	-706
▁දිස්ත්රි	-707
▁සොයා	-708
▁ලක්	-709
▁නොමැති	-710
ගැන	-711
▁විශ්	-712
▁එක්සත්	-713
▁වා	-714
▁පිරිසක්	-715
▁බස්	-716
▁වැනි	-717
ම්ප	-718
▁දර	-719
▁පිළිබඳව	-720
▁හිම	-721
▁නිදහ	-722
▁පදිංච	-723
▁පුද්ගලයින්	-724
ක්රම	-725
▁ඡ	-726
ිකර	-727
▁මහා	-728
▁පස්	-729
ින්ද	-730
ත්න	-731
▁තමන්	-732
▁හමුව	-733
්රිය	-734
දෙස්	-735
▁ඇම	-736
▁අදහස්	-737
ගර	-738
▁තම	-739
▁තිබූ	-740
▁දෙපාර්තමේන්තුව	-741
ුවා	-742
නයට	-743
▁පරීක්ෂණ	-744
හිර	-745
වෘ	-746
▁සභාපති	-747
▁අපේ	-748
▁පිට	-749
▁ගුවන්	-750
▁දිව	-751
▁විදේශ	-752
▁මැතිවර	-753
▁අනතුරුව	-754
▁කොර	-755
▁පියවර	-756
▁කු	-757
▁ගැනීම	-758
පාද	-759
▁වැඩිදුරටත්	-760
සල්	-761
▁චෝද	-762
▁අවසන්	-763
ඨා	-764
▁ආර්	-765
යකට	-766
▁ඊට	-767
හන්	-768
ජන	-769
▁දෙක	-770
▁දුම	-771
▁වසරේ	-772
ානයේ	-773
▁ලද	-774
රාධ	-775
▁කොමි	-776
▁ජල	-777
▁ගි	-778
▁කිසි	-779
▁නිවේද	-780
▁මහේ	-781
ියක්	-782
විත	-783
▁තව	-784
▁විදුලි	-785
▁සංගම	-786
වීමට	-787
න්තර	-788
මාත්ය	-789
▁මෙලෙස	-790
ණි	-791
▁නිදහස්	-792
ිනි	-793
ගාර	-794
▁7	-795
▁කොට	-796
▁එල්ල	-797
▁නම්	-798
පත	-799
විරි	-800
▁මගින්	-801
විරිදි	-802
▁එර	-803
▁බවද	-804
▁ක්රී	-805
▁හැවිරිදි	-806
▁සංචාර	-807
▁සංඛ්ය	-808
▁විමර්ශන	-809
▁ඉල්ලා	-810
ස්ත්රාත්	-811
▁මස	-812
▁එමෙන්ම	-813
▁වග	-814
▁වාර්තාව	-815
▁සාමා	-816
ස්ත	-817
දීය	-818
▁දුම්රිය	-819
▁ගා	-820
▁අංශ	-821
▁ආසා	-822
වරුවේ	-823
▁යටතේ	-824
▁පහර	-825
▁කරයි	-826
ඩුව	-827
▁මහින්ද	-828
▁මෙහි	-829
▁කල	-830
▁දැක්	-831
ට්ට	-832
▁එරෙහි	-833
▁දේශපාල	-834
▁වෙළ	-835
හො	-836
▁කාන්ත	-837
▁දැනුම්	-838
▁මීට	-839
්රාමාත්ය	-840
▁මහේස්ත්රාත්	-841
බා	-842
▁රෝග	-843
▁මාස	-844
▁වනවිට	-845
ෝක	-846
▁අස	-847
▁ඉන්ද	-848
▁අග්රාමාත්ය	-849
▁ගමන්	-850
▁නිවස	-851
▁යු	-852
▁නියෝග	-853
ෙල්	-854
▁වෙතත්	-855
▁රජය	-856
▁සිටිය	-857
▁නගර	-858
පුර	-859
▁සැල	-860
▁අවස්ථාවේ	-861
▁රජයේ	-862
▁සේවා	-863
ෝනා	-864
ථික	-865
ාවක	-866
ීමක්	-867
▁අල	-868
▁වල	-869
▁අභ	-870
මත්	-871
නාගාර	-872
▁තුව	-873
න්දු	-874
ැනි	-875
▁10	-876
▁හර	-877
▁පිහි	-878
▁යොමු	-879
▁කොරෝනා	-880
▁නිරත	-881
▁යෝජ	-882
ජි	-883
▁තා	-884
▁දු	-885
▁ඡන්ද	-886
▁පාර්ලිමේන්ත	-887
සට	-888
ණයක්	-889
▁ඉන්දීය	-890
▁සැකකරුවන්	-891
සුන්	-892
▁සිදුකළ	-893
▁සැකකරු	-894
▁සිර	-895
▁සදහා	-896
▁සංවිධ	-897
කිර	-898
▁ප්රමා	-899
▁ගන්නා	-900
▁ලක්ෂ	-901
ගොස්	-902
▁ආර්ථික	-903
▁තරුණ	-904
▁වන්නේ	-905
▁අපරාධ	-906
ශයෙන්	-907
▁වුණා	-908
▁තුවාල	-909
▁අධ්යාප	-910
▁කරනවා	-911
දිත	-912
▁8	-913
▁ඝ	-914
ගොඩ	-915
▁අනාව	-916
ඳු	-917
බල	-918
▁19	-919
▁බලප	-920
ත්වය	-921
▁රැස්	-922
▁දිස්ත්රික්ක	-923
▁වශයෙන්	-924
▁පී	-925
වත	-926
▁චෝදනා	-927
▁දිවයි	-928
▁සහභාග	-929
▁බන්ධ	-930
▁විභාග	-931
▁වනදා	-932
▁ලංකාව	-933
වල්	-934
▁ලකුණු	-935
▁හිමි	-936
▁හමුවේ	-937
▁ගොඩ	-938
▁ලංකාවේ	-939
ව්ය	-940
▁වය	-941
▁උද	-942
▁සිද්ධිය	-943
ිටිය	-944
ක්ති	-945
ූර	-946
▁බන්ධනාගාර	-947
▁කණ්ඩායම	-948
ස්ස	-949
▁ළ	-950
▁ගිය	-951
ත්ති	-952
▁දේ	-953
▁එරෙහිව	-954
▁201	-955
▁ආරක්ෂක	-956
▁දේශපාලන	-957
විය	-958
▁ඒක	-959
▁හිර	-960
▁ත්ර	-961
ලියන	-962
වාද	-963
▁අධ්යක්ෂ	-964
වැනි	-965
▁පුද්ගලයෙකු	-966
ලක්	-967
▁යා	-968
▁ඝාත	-969
▁තත්ත්වය	-970
පි	-971
▁මෙන්ම	-972
▁තු	-973
▁ඇය	-974
▁දිනයේ	-975
්මා	-976
ාවන්	-977
▁ප්රශ්	-978
▁විශ්ව	-979
▁දැඩි	-980
▁ආස	-981
▁ගෙ	-982
▁ප්රහාර	-983
හැර	-984
දාන	-985
▁අපි	-986
▁දිය	-987
ුද්ධ	-988
ීන	-989
ැන්	-990
▁පදිංචි	-991
ත්යන්තර	-992
▁ප්රකාශක	-993
▁නාව	-994
▁9	-995
මය	-996
▁ජාත්යන්තර	-997
▁යාම	-998
▁ඇතුළත්	-999
ලික	-1000
▁සදහන්	-1001
▁ලෝක	-1002
කරණ	-1003
▁කුම	-1004
▁ශ්ර	-1005
කයින්	-1006
ේර	-1007
න්ය	-1008
▁කරනු	-1009
ෑම	-1010
වරු	-1011
ගුණ	-1012
▁කොමිස	-1013
ොල	-1014
▁රිය	-1015
දිය	-1016
▁පාසල්	-1017
▁සංඛ්යාව	-1018
ුවත්	-1019
▁12	-1020
▁හිරු	-1021
ස්ට	-1022
▁අමාත්යාංශය	-1023
▁මෙහෙ	-1024
▁ගණ	-1025
▁තො	-1026
▁අරම	-1027
ෑම්	-1028
▁පැවසුවේ	-1029
▁වික්රම	-1030
ීවර	-1031
▁ප්රා	-1032
ක්ෂිත	-1033
▁රු	-1034
▁මැතිවරණ	-1035
▁ඉවත්	-1036
▁ආසාදිත	-1037
ුරුදු	-1038
▁උත්ස	-1039
▁මත්	-1040
▁15	-1041
ස්ථානය	-1042
කදී	-1043
▁වැසි	-1044
▁තොරතුරු	-1045
▁දුර	-1046
▁පන	-1047
▁හමුදා	-1048
▁සාකච්ඡා	-1049
චාර්ය	-1050
▁ඕ	-1051
▁අධිකාර	-1052
▁ලා	-1053
වින්	-1054
▁අර්	-1055
▁තිබුණා	-1056
▁කඩ	-1057
▁මියගොස්	-1058
▁කමි	-1059
▁එසේ	-1060
▁සහිත	-1061
▁නැහැ	-1062
▁ජීවිත	-1063
▁ධීවර	-1064
ක්ර	-1065
▁භාව	-1066
▁මුහ	-1067
▁පූ	-1068
නට	-1069
සුම්	-1070
▁රටේ	-1071
▁තොග	-1072
්රව්ය	-1073
මනා	-1074
▁වීම	-1075
▁විපක්ෂ	-1076
▁මෙහිදී	-1077
න්ධන	-1078
හැක	-1079
▁කිරි	-1080
▁පළමු	-1081
▁ඉන්ධන	-1082
නිමින්	-1083
ළු	-1084
නිල්	-1085
▁ව්යාපාර	-1086
ුවක්	-1087
▁ඇතැයි	-1088
වත්ව	-1089
▁අවුරුදු	-1090
▁වැඩසට	-1091
බ්	-1092
▁නිෂ්	-1093
▁යළි	-1094
ජිත්	-1095
ුළු	-1096
වලින්	-1097
මුත්	-1098
යකින්	-1099
▁සංවර්ධන	-1100
▁එක්වෙ	-1101
තිකාර	-1102
▁තවදුරටත්	-1103
▁ප්රවෘ	-1104
ක්ෂණ	-1105
ටු	-1106
▁සිරි	-1107
▁නොවන	-1108
විධාන	-1109
▁හෙට	-1110
▁නාවික	-1111
▁විද්යාල	-1112
▁කරුණු	-1113
ච්ච	-1114
▁දුන්	-1115
සේන	-1116
▁නියෝජ්ය	-1117
නාව	-1118
▁පමණක්	-1119
▁පෞ	-1120
▁සියලු	-1121
▁සිටියා	-1122
න්ත්ර	-1123
වීමේ	-1124
▁සමාජ	-1125
▁කරන්න	-1126
ල්ය	-1127
▁නොහැක	-1128
▁එක්ව	-1129
▁පෙරම	-1130
▁ස්ථානය	-1131
▁පවත්	-1132
▁අපේක්ෂ	-1133
▁ශි	-1134
▁ප්රවෘත්ති	-1135
ද්ගල	-1136
▁ෆ	-1137
▁අධ්යාපන	-1138
▁ඉඩ	-1139
▁මෙහෙය	-1140
ිකට්	-1141
▁දෙදෙනෙකු	-1142
න්ද්ර	-1143
▁ලැබූ	-1144
ලෝ	-1145
▁වික්රමසිංහ	-1146
▁පෞද්ගල	-1147
▁සංවිධානය	-1148
▁කෝ	-1149
රු	-1150
▁අධිකරණයට	-1151
ශ්ර	-1152
▁11	-1153
▁රෝහල්	-1154
▁ප්රතිකාර	-1155
පය	-1156
දුන්	-1157
සන	-1158
ටර්	-1159
000	-1160
▁බෙ	-1161
▁කැඳ	-1162
▁වෘ	-1163
▁වැඩිදුර	-1164
▁පෞද්ගලික	-1165
▁ස්ථාන	-1166
▁මරණ	-1167
▁සහය	-1168
▁නමුත්	-1169
▁කරන්නේ	-1170
▁වාර්තාකරු	-1171
▁විශාල	-1172
ධානය	-1173
▁විද්යා	-1174
▁පිරිස	-1175
▁නොහැකි	-1176
▁අයි	-1177
▁සිටියේය	-1178
ධි	-1179
▁වර	-1180
▁බර	-1181
▁විදෙස්	-1182
▁ගුණ	-1183
▁පක්ෂයේ	-1184
▁සභා	-1185
▁ග්ර	-1186
▁සංවිධාන	-1187
▁සභාව	-1188
▁ක්රිකට්	-1189
▁තිය	-1190
▁ගෝ	-1191
▁එක්වෙමින්	-1192
▁තිබෙන	-1193
ේෂ්	-1194
රාල්	-1195
▁උත්සව	-1196
ත්වයෙන්	-1197
▁කාලගුණ	-1198
ෙම	-1199
▁භා	-1200
▁රනිල්	-1201
ජික	-1202
▁මණ්ඩලය	-1203
▁වනවා	-1204
▁ආයතන	-1205
▁සමාගම	-1206
▁තැබ	-1207
▁පරිදි	-1208
▁වස	-1209
ජා	-1210
▁අමාත්යාංශ	-1211
▁රැගෙන	-1212
මාර්ග	-1213
ිකා	-1214
▁විනි	-1215
▁කාර්යාලය	-1216
▁හරහා	-1217
▁අනු	-1218
▁බදු	-1219
ශෝධ	-1220
▁අලු	-1221
දින	-1222
▁රැක	-1223
▁පවත්වා	-1224
▁මෛ	-1225
▁සාමාජික	-1226
▁සිසුන්	-1227
▁පුද්ගලයා	-1228
▁සී	-1229
▁බො	-1230
▁අවධානය	-1231
▁කිහිපයක්	-1232
▁කාලය	-1233
න්තොට	-1234
▁මහජන	-1235
▁සංගමය	-1236
▁පෙන	-1237
▁සීම	-1238
මන	-1239
දීම	-1240
▁රෝහලට	-1241
▁ක්රීඩා	-1242
ග්ර	-1243
▁නිෂ්පාද	-1244
▁අධිකරණ	-1245
▁කිරීමෙන්	-1246
▁ආණ්ඩුව	-1247
▁අති	-1248
ලින්	-1249
▁පොදු	-1250
▁ආකාර	-1251
▁වෘත්ත	-1252
▁කිසිදු	-1253
▁පැවැත්වෙන	-1254
▁අර	-1255
▁මාර්ගයේ	-1256
▁හැර	-1257
▁නිවේදනය	-1258
▁ඉදිරි	-1259
▁නැවත	-1260
▁වු	-1261
▁ප්රදේශවල	-1262
හෝ	-1263
▁සංශෝධ	-1264
ෝෂ	-1265
▁උපදෙස්	-1266
▁නියෝජිත	-1267
ෙන්න	-1268
වමින්	-1269
▁කෙ	-1270
▁සභාවේ	-1271
▁සියල	-1272
▁සිරිසේන	-1273
▁ලබාදීමට	-1274
සීම	-1275
▁ප්රවා	-1276
▁සට	-1277
ොළ	-1278
▁මිලියන	-1279
වස්ථ	-1280
▁ජනතා	-1281
▁රෝහලේ	-1282
ොන්	-1283
නැ	-1284
▁මධ්යම	-1285
▁වෙඩි	-1286
▁මෝ	-1287
▁වැනිදා	-1288
▁හාන	-1289
▁ප්රශ්න	-1290
▁ධාව	-1291
විද්ය	-1292
▁අනාවරණය	-1293
▁ඉතා	-1294
▁වෙළඳ	-1295
▁උත්	-1296
▁සඳහන්ය	-1297
▁පිහිටි	-1298
▁පිළිබද	-1299
▁පුරා	-1300
▁කාර	-1301
▁25	-1302
▁ප්රදේශයේදී	-1303
▁කාලයක්	-1304
▁මහතාගේ	-1305
▁පස්වරුවේ	-1306
සය	-1307
▁ඇතැ	-1308
▁ඒකක	-1309
▁නියමිතයි	-1310
▁විජ	-1311
මස	-1312
▁ආසන්න	-1313
▁අවස්ථාව	-1314
▁යි	-1315
බි	-1316
▁දෙර	-1317
▁පැවැත්වීමට	-1318
▁ජනතාවට	-1319
ිකම්	-1320
්රේ	-1321
▁සූ	-1322
▁අයත්	-1323
ුණි	-1324
දෙනෙකු	-1325
ේරා	-1326
▁ඝාතනය	-1327
ාජ	-1328
ගමුව	-1329
▁යාප	-1330
▁දහ	-1331
නුවර	-1332
▁යොදා	-1333
දන	-1334
▁මාන	-1335
ලන්ත	-1336
▁බෝ	-1337
සල	-1338
▁202	-1339
▁යුද	-1340
කාරී	-1341
ස්සේ	-1342
විද්යාල	-1343
▁ඉන්දිය	-1344
▁ප්රාදේශ	-1345
▁කෘ	-1346
▁අමතර	-1347
▁13	-1348
ෂ්ඨ	-1349
▁අඩු	-1350
▁රක්ෂිත	-1351
ූප	-1352
▁නා	-1353
▁මුහුණ	-1354
සන්	-1355
ට්ඨා	-1356
▁විවිධ	-1357
▁කියලා	-1358
▁කොට්ඨා	-1359
▁සිදුවූ	-1360
ණිය	-1361
▁දා	-1362
▁30	-1363
▁විශ්වවිද්යාල	-1364
▁දැනට	-1365
▁ගාල්ල	-1366
▁14	-1367
ොත්	-1368
කරන	-1369
▁අලෙ	-1370
ුවෙකු	-1371
▁සේවය	-1372
▁ණය	-1373
▁ලබාදෙන	-1374
▁එන්න	-1375
ධාරණය	-1376
▁ලිප	-1377
වුරු	-1378
හන්සේ	-1379
▁සන්ධ	-1380
මක	-1381
ිතා	-1382
▁පවසා	-1383
▁සහභාගී	-1384
▁මුහු	-1385
▁සිදුකරන	-1386
ෙයි	-1387
▁සබ	-1388
▁ව්යවස්ථ	-1389
පිටිය	-1390
තෙක්	-1391
▁ආහාර	-1392
ම්බර්	-1393
පැ	-1394
ල්වා	-1395
ෂික	-1396
කම	-1397
ීර්	-1398
▁භූ	-1399
පතිවරයා	-1400
▁මුහුදු	-1401
▁ක්රම	-1402
▁යන්න	-1403
▁උස	-1404
▁ව්යාපෘ	-1405
▁ඇතැම්	-1406
ක්ෂයට	-1407
ණ්ඩාර	-1408
ණු	-1409
ස්ථාන	-1410
▁වරා	-1411
▁දැම	-1412
▁කල්	-1413
▁පක්ෂය	-1414
▁පැවසීය	-1415
ිකානු	-1416
▁කැබ	-1417
▁දරුවන්	-1418
ඹු	-1419
▁ඩොල	-1420
▁ඉදිරියේ	-1421
▁16	-1422
▁කර්මා	-1423
ාරිස්	-1424
ලාව	-1425
ේම	-1426
▁ඔහුගේ	-1427
ගැනීමට	-1428
▁18	-1429
▁ආණ්ඩු	-1430
▁බැවින්	-1431
▁ගිනි	-1432
▁කර්මාන්ත	-1433
▁දකුණු	-1434
▁දැර	-1435
ලීම	-1436
▁පෙත්ස	-1437
▁ලබාදී	-1438
▁හඳු	-1439
සුකම්	-1440
▁සක	-1441
ජී	-1442
▁මූල්ය	-1443
න්ට	-1444
▁වෛර	-1445
මසාරිස්	-1446
▁වැඩසටහන	-1447
▁හිමියන්	-1448
ළිය	-1449
▁ක්ෂ	-1450
▁තෙල්	-1451
▁භාවිත	-1452
▁පුර	-1453
රව	-1454
▁ලාංක	-1455
▁සිල්වා	-1456
▁තමා	-1457
▁වීමට	-1458
ද්රව්ය	-1459
▁පවසන්නේ	-1460
▁ක්රියාමාර්ග	-1461
▁තබා	-1462
▁බරපත	-1463
▁24	-1464
▁නිවාස	-1465
▁තරඟ	-1466
▁අවධාරණය	-1467
▁පෙනී	-1468
▁ප්රාදේශීය	-1469
දර	-1470
▁උතුරු	-1471
ෂ්ය	-1472
▁කෙරෙන	-1473
▁දිනය	-1474
▁අංශය	-1475
▁සංගමයේ	-1476
▁මෛත්රී	-1477
▁පාලන	-1478
රත්	-1479
▁මූලික	-1480
▁පවු	-1481
▁තහ	-1482
▁පෙළ	-1483
▁කියන	-1484
▁බා	-1485
▁ලංකාවට	-1486
▁තිබී	-1487
▁මහනුවර	-1488
ීන්ගේ	-1489
ෆ්	-1490
▁ලො	-1491
▁බණ්ඩාර	-1492
සී	-1493
▁නුවර	-1494
▁පෙරවරුවේ	-1495
▁නියමිතය	-1496
තුමා	-1497
▁වාහන	-1498
▁බලා	-1499
▁අන්ත	-1500
▁විනිස	-1501
තී	-1502
ින්න	-1503
වෘත	-1504
▁ක්රීඩ	-1505
▁හඳුනා	-1506
ර්ම	-1507
▁දූ	-1508
ටී	-1509
▁භාණ්ඩ	-1510
▁අමතරව	-1511
යන	-1512
යම	-1513
▁ඇමති	-1514
▁දෙස	-1515
▁හැකිය	-1516
▁ජ්ය	-1517
▁විරෝධතාව	-1518
▁රාත්රී	-1519
▁රාත්ර	-1520
▁මෙතෙක්	-1521
පිළි	-1522
▁දෙම	-1523
▁විවෘත	-1524
ස්තු	-1525
▁පාර්ලිමේන්තුවේ	-1526
ත්තල	-1527
හල්	-1528
▁කලාප	-1529
වන්	-1530
▁පන්ද	-1531
▁සෙ	-1532
▁මම	-1533
▁වුව	-1534
▁රණ	-1535
▁සමාග	-1536
▁අලෙවි	-1537
ප්ප	-1538
▁සල	-1539
▁ඩොලර්	-1540
▁බ්ර	-1541
▁17	-1542
▁මෛත්රීපාල	-1543
▁වයස	-1544
▁ගනිමින්	-1545
කරණය	-1546
▁අනුම	-1547
ධිකරණය	-1548
▁සමස්ත	-1549
▁වෘත්තීය	-1550
▁පිර	-1551
▁ලැබී	-1552
වාදී	-1553
▁මුදලක්	-1554
▁ජනරාල්	-1555
▁මෙවර	-1556
▁ධුර	-1557
▁ජීවිතක්ෂයට	-1558
ෑසන	-1559
ගැනීම	-1560
▁මී	-1561
බද්ධ	-1562
▁හමුදාව	-1563
▁ධාවනය	-1564
▁කළමනා	-1565
▁අර්බ	-1566
▁මහත්ම	-1567
▁දෙදෙනා	-1568
▁ආප	-1569
වුම්	-1570
▁තුන්	-1571
▁දෙවන	-1572
▁බලකා	-1573
▁උදෑසන	-1574
▁නීතිය	-1575
මුව	-1576
▁අංක	-1577
▁දෙකක්	-1578
▁21	-1579
30	-1580
පිළිවෙ	-1581
බැ	-1582
ග්රහ	-1583
ාවල	-1584
▁අතුර	-1585
▁මානව	-1586
▁විසඳ	-1587
▁මන්ත්රීවරුන්	-1588
▁රියදුර	-1589
▁පළාත	-1590
නාහිර	-1591
ූර්	-1592
▁සිදුවන	-1593
▁ගොඩනැ	-1594
▁දුරක	-1595
▁මෙරටට	-1596
▁යෝජනා	-1597
▁සූදාන	-1598
▁නැති	-1599
▁මෙය	-1600
▁තහවුරු	-1601
ුරුවර	-1602
▁වැඩපිළිවෙ	-1603
වරයෙකු	-1604
ාගාර	-1605
▁ඒකා	-1606
▁ලෙසයි	-1607
සැ	-1608
▁සකස්	-1609
▁22	-1610
▁එසේම	-1611
කයන්	-1612
▁වෙයි	-1613
▁තහන	-1614
▁සැපය	-1615
▁අර්බුද	-1616
▁බස්නාහිර	-1617
▁දක්වමින්	-1618
▁ඔස්සේ	-1619
▁ආයතනය	-1620
▁ලාංකික	-1621
▁ලැබුවා	-1622
ලය	-1623
▁මත්ද්රව්ය	-1624
▁යෙ	-1625
▁ලෙසට	-1626
▁ඇප	-1627
▁උසස්	-1628
▁පුද්ගලයන්	-1629
▁දැන්	-1630
▁හො	-1631
▁අවස්ථාවේදී	-1632
▁එරට	-1633
▁මට්ට	-1634
▁ආචාර්ය	-1635
▁විනා	-1636
ුරාධ	-1637
වේග	-1638
▁පත්ර	-1639
▁දෙරණ	-1640
▁සමි	-1641
ටන්	-1642
▁සම්ප	-1643
▁පැය	-1644
ධාරීන්	-1645
▁ශිෂ්ය	-1646
▁ගැනීමේ	-1647
▁තත්ත්වයක්	-1648
හොත්	-1649
▁වලට	-1650
▁රැසක්	-1651
▁කොමසාරිස්	-1652
▁වර්ෂ	-1653
ෂධ	-1654
▁බැංක	-1655
ජනය	-1656
ෙෂ්ඨ	-1657
ුරුම්	-1658
▁හිමිකම්	-1659
▁200	-1660
ජ්ය	-1661
▁විහාර	-1662
▁අදාළව	-1663
▁චී	-1664
▁මාතර	-1665
සාහ	-1666
▁බොහෝ	-1667
▁අනුරාධ	-1668
▁උත්සාහ	-1669
▁ලබාදීම	-1670
▁ඒවා	-1671
ේත්ර	-1672
▁රුසිය	-1673
▁ආනය	-1674
▁ජ්යෙෂ්ඨ	-1675
▁දිසා	-1676
▁පවත්ව	-1677
▁හට	-1678
ද්ද	-1679
ෑස්	-1680
▁මග	-1681
▁පැවැති	-1682
▁ක්ෂේත්ර	-1683
ඖෂධ	-1684
මාන	-1685
විඩ්	-1686
ිකව	-1687
▁ගල්	-1688
▁අස්	-1689
▁පාලනය	-1690
තින්	-1691
▁කළු	-1692
▁මාර	-1693
▁ඖෂධ	-1694
▁දීම	-1695
▁කුමාර	-1696
ෂා	-1697
▁ජාව	-1698
▁පසුගියදා	-1699
▁ගණන	-1700
මැ	-1701
▁අනුරාධපුර	-1702
▁පදිංචිකර	-1703
▁ඒකාබද්ධ	-1704
▁දිස්ත්රික්	-1705
මාර	-1706
▁තද	-1707
▁අරමුණ	-1708
▁කිලෝ	-1709
කිරීමට	-1710
▁එහෙ	-1711
ංගු	-1712
▁සිටියදී	-1713
▁යාමට	-1714
මික	-1715
▁අඩ	-1716
▁කෙරුණා	-1717
▁ගම්	-1718
ගු	-1719
▁ප්රධානත්වයෙන්	-1720
▁මැද	-1721
ිපාල	-1722
භය	-1723
▁ඉදික	-1724
▁සිටිනවා	-1725
ංකු	-1726
▁ජාවාර	-1727
දාස	-1728
විර	-1729
▁වත්	-1730
▁සහභාගි	-1731
▁රටවල්	-1732
▁කොමිසම	-1733
▁නෞ	-1734
▁තැ	-1735
▁රථයක්	-1736
▁තිබු	-1737
▁නියමිතව	-1738
තෙම	-1739
ටිනා	-1740
සේකර	-1741
▁දෙනා	-1742
▁ප්රේම	-1743
දුම්	-1744
▁හම්බ	-1745
▁හෙතෙම	-1746
▁ගෑස්	-1747
▁රි	-1748
ලත්	-1749
▁බලාප	-1750
යෙක්	-1751
▁ලක්ව	-1752
▁වගේ	-1753
▁කාන්තාව	-1754
▁නියම	-1755
▁තිබුණේ	-1756
▁ස්වා	-1757
▁පැවසුවේය	-1758
භාව	-1759
▁සුදු	-1760
ිනට්	-1761
▁බලාපොර	-1762
▁නීතිඥ	-1763
▁කඩින	-1764
▁පාරි	-1765
රේ	-1766
▁අග්රාමාත්යවරයා	-1767
ග්	-1768
භෝග	-1769
වත්ත	-1770
▁දෙමළ	-1771
▁මන්ත්රීවරයා	-1772
▁පළා	-1773
ැක්	-1774
▁23	-1775
▁ඔබ	-1776
▁රැඳ	-1777
▁වටිනා	-1778
▁මෙසේ	-1779
▁ලි	-1780
▁කේ	-1781
▁කැබිනට්	-1782
▁මධ්යස්ථානය	-1783
▁විරෝධතා	-1784
▁සුව	-1785
ිකාව	-1786
▁ආදා	-1787
▁කටයු	-1788
රී	-1789
▁දැනුවත්	-1790
▁වට	-1791
▁කතා	-1792
▁සියයට	-1793
▁කමිටුව	-1794
▁මැතිවරණය	-1795
▁තොරතුර	-1796
▁කඩු	-1797
රත්න	-1798
ස්ක	-1799
දිසි	-1800
▁දෙන්නේ	-1801
තන	-1802
ාර්ථ	-1803
▁වෙන්	-1804
▁සංචාරක	-1805
▁වෙනත්	-1806
▁සමිති	-1807
▁තුන	-1808
▁කරගෙන	-1809
ුපැ	-1810
▁විශ්වාස	-1811
▁බාධ	-1812
ටත්	-1813
▁පවත්වාගෙන	-1814
▁50	-1815
▁හැකියාව	-1816
▁පහසුකම්	-1817
ේන	-1818
ස්ථානයේ	-1819
▁ප්රජ	-1820
▁වැළ	-1821
▁චීන	-1822
▁සාමාන්ය	-1823
▁28	-1824
▁දැක්ව	-1825
▁වෙනවා	-1826
▁පැමිණිල්ල	-1827
▁දෙපාර්තමේන්තුවේ	-1828
තුරුපැ	-1829
▁ජාත	-1830
ෑන්	-1831
▁හම්බන්තොට	-1832
▁උද්	-1833
▁මියගිය	-1834
ල්ප	-1835
▁27	-1836
▁අවම	-1837
▁මෝටර්	-1838
▁ඛ	-1839
▁ශා	-1840
▁දමා	-1841
▁අතුරුද	-1842
▁කුර	-1843
▁වෙමින්	-1844
▁සිසුව	-1845
▁සූදානම්	-1846
▁නඩු	-1847
▁බැල	-1848
ශව	-1849
▁නිර්	-1850
▁ගිවි	-1851
හොර	-1852
▁ගොඩනැග	-1853
▁මහත්මිය	-1854
▁යතුරුපැ	-1855
▁රාත්රියේ	-1856
▁යාපනය	-1857
▁හෙළි	-1858
▁26	-1859
▁දීමට	-1860
▁නාම	-1861
▁සැලසුම්	-1862
වේදී	-1863
▁අන්තර්	-1864
දීමට	-1865
▁මාර්ගය	-1866
▁මව	-1867
▁පැන	-1868
▁පුහ	-1869
▁රැකියා	-1870
▁නඩුව	-1871
ෂන්	-1872
▁දිස්ත්රික්කයේ	-1873
▁පෙරමුණ	-1874
▁ගනු	-1875
ථා	-1876
ස්ට්රේ	-1877
▁සැම	-1878
▁යම්	-1879
▁වර්ග	-1880
▁සිරුර	-1881
▁උතුර	-1882
▁ප්රවාහන	-1883
▁පොහොර	-1884
▁විදුලිබල	-1885
▁සාක්ෂ	-1886
▁කොවිඩ්	-1887
▁නිර්මා	-1888
▁පාර	-1889
▁මර්	-1890
▁පනත	-1891
▁තානා	-1892
▁ඔවුන්ගේ	-1893
▁බෙදා	-1894
▁ඇමර	-1895
▁නැගෙන	-1896
කෝ	-1897
ක්ත	-1898
▁හානි	-1899
ගමන	-1900
▁ගෝඨා	-1901
▁නියෝජනය	-1902
▁මණ්ඩලයේ	-1903
▁සතු	-1904
▁යැයි	-1905
දය	-1906
▁ඩී	-1907
▁නිසි	-1908
▁ඉන්දියාව	-1909
▁සමුළ	-1910
▁වඩා	-1911
▁යුතුයි	-1912
▁තිබුණි	-1913
▁සෑම	-1914
▁ඉල්ලීමක්	-1915
වීම්	-1916
▁වගක	-1917
▁විනාශ	-1918
▁ගුණවර්ධන	-1919
හනය	-1920
▁සොයාගෙන	-1921
▁අත	-1922
වාදය	-1923
නී	-1924
▁නැගෙනහිර	-1925
ාවෙන්	-1926
▁දිවයිනේ	-1927
▁බවටයි	-1928
▁වසා	-1929
▁වැටුප	-1930
තම	-1931
▁ඕන	-1932
▁සංක	-1933
▁ගෝඨාභය	-1934
▁ආසාදිතයින්	-1935
▁අරමුද	-1936
▁අනාවරණ	-1937
▁පරිසර	-1938
▁අත්හි	-1939
▁බලපත්ර	-1940
▁නිවසේ	-1941
▁පැමිණිලි	-1942
▁කෘෂික	-1943
▁පෙරමුණේ	-1944
▁නිලධාරින්	-1945
ඵල	-1946
▁කාරක	-1947
▁දුරකථ	-1948
මුඛ	-1949
▁තමයි	-1950
▁යාත්ර	-1951
කො	-1952
▁පැමිණෙන	-1953
▁මාව	-1954
න්නට	-1955
▁සිටියි	-1956
▁දිවයින	-1957
ඳුන්	-1958
▁ව්යාපාරික	-1959
▁වංච	-1960
▁බුද්ධ	-1961
▁ගොව	-1962
▁ගැටල	-1963
ොත්තු	-1964
▁ලේකම්වරයා	-1965
▁05	-1966
භෝගික	-1967
ෂණ	-1968
▁විරෝධය	-1969
ක්ම	-1970
▁වරාය	-1971
▁වෙළෙ	-1972
දවා	-1973
▁ආරක්ෂාව	-1974
▁කඳ	-1975
▁මුල්	-1976
තියේ	-1977
ගා	-1978
ශ්රිත	-1979
ලක	-1980
▁විෂ	-1981
වනු	-1982
▁වර්ධ	-1983
▁ප්රමාණයක්	-1984
▁වැද	-1985
ප්ර	-1986
වීර	-1987
▁එකඟ	-1988
හර	-1989
▁සම්පූර්	-1990
▁ගින්න	-1991
දනය	-1992
ැතිය	-1993
කිරීම	-1994
ස්ට්රේලිය	-1995
ඟින්	-1996
▁වාර	-1997
▁සුර	-1998
▁පාරිභෝගික	-1999
0ක්	-2000
▁03	-2001
▁සංග	-2002
▁තැන	-2003
▁මුදා	-2004
▁අනුමැතිය	-2005
ධිකරණ	-2006
වුර	-2007
▁ඉල	-2008
▁කටු	-2009
▁නෞක	-2010
▁මොහො	-2011
▁අවසර	-2012
දිහ	-2013
▁හමුවකට	-2014
▁පැහැ	-2015
▁06	-2016
▁අනි	-2017
▁දුන්නේ	-2018
▁නගරයේ	-2019
▁පළාත්ව	-2020
▁ගං	-2021
▁කණ්ඩායම්	-2022
▁විරෝධී	-2023
න්ව	-2024
▁අමාත්යාංශයේ	-2025
▁ඉන්දියාවේ	-2026
ියෙකු	-2027
▁භාරයට	-2028
ෙක	-2029
▁කොමිෂන්	-2030
▁සංශෝධනය	-2031
▁ප්රකාශයට	-2032
▁තොට	-2033
ුමක්	-2034
▁සහයෝග	-2035
▁ඉති	-2036
▁කෙට	-2037
▁බැංකු	-2038
▁ටෙ	-2039
▁තහනම්	-2040
වර්ධනය	-2041
▁බලධාරීන්	-2042
▁රන්	-2043
ච්චි	-2044
වලදී	-2045
▁පිළිතුරු	-2046
ිලි	-2047
▁29	-2048
▁අපේක්ෂා	-2049
දර්ශ	-2050
▁පද්ධ	-2051
▁31	-2052
ත්වයක්	-2053
▁වත්මන්	-2054
▁අමාත්යංශය	-2055
▁වහන්සේ	-2056
▁ඉදිකිර	-2057
▁එවැනි	-2058
▁විමසීම	-2059
▁අයෙකු	-2060
ැම්බර්	-2061
▁ආශ්රිත	-2062
▁බලාපොරොත්තු	-2063
▁ක්රියාව	-2064
ශ්ච	-2065
ඩිය	-2066
ළක්	-2067
ඳවා	-2068
ාවකාල	-2069
▁තමන්ට	-2070
▁තාවකාල	-2071
▁නෑ	-2072
ට්ර	-2073
▁සේවකයින්	-2074
වර්	-2075
මීට	-2076
▁100	-2077
ෙනු	-2078
▁ජනතාවගේ	-2079
▁බොර	-2080
▁සමන්	-2081
▁ගොනු	-2082
▁ජයග්රහ	-2083
එම්	-2084
▁ප්රනා	-2085
වතු	-2086
ශක්ති	-2087
කරුවෙකු	-2088
▁අල්ල	-2089
▁ත්රස්ත	-2090
▁සීමා	-2091
පාදන	-2092
▁අමෙර	-2093
▁රෝගීන්	-2094
▁කාලයේ	-2095
හාස	-2096
▁යුක්ර	-2097
▁රථය	-2098
▁ප්රනාන්දු	-2099
▁අධිකාරිය	-2100
න්ගේ	-2101
▁මිනි	-2102
▁පොලීසියට	-2103
▁තුළින්	-2104
▁ජාතීන්ගේ	-2105
යන්ට	-2106
▁මහාචාර්ය	-2107
ගය	-2108
▁මෙවැනි	-2109
▁දේශීය	-2110
ූව	-2111
ොන්න	-2112
▁සමර	-2113
▁අනතුරු	-2114
▁අත්හිටුව	-2115
නො	-2116
මිය	-2117
▁කම්	-2118
▁රථයේ	-2119
▁බලය	-2120
මත	-2121
▁එන්නත්	-2122
▁රේ	-2123
▁දිසානායක	-2124
▁සටහන්	-2125
ර්ඝ	-2126
▁කරග	-2127
▁පර්ය	-2128
▁ගම්ප	-2129
නික	-2130
▁04	-2131
වරණය	-2132
▁සිද්ධියට	-2133
▁නිවේදනයක්	-2134
▁එස්	-2135
▁වෛරසය	-2136
▁අධි	-2137
▁විනිසුරු	-2138
▁සමත්	-2139
▁පෙරේරා	-2140
▁ග්රෑම්	-2141
▁ආධාර	-2142
▁මෙහෙයුම්	-2143
▁කී	-2144
▁හදිසි	-2145
▁තොටුප	-2146
▁සිව්	-2147
▁වෙනස්	-2148
▁ලබාදුන්	-2149
▁දීර්ඝ	-2150
▁සුළ	-2151
ටම	-2152
▁අමර	-2153
▁පැහැදි	-2154
▁කාර්යාලයේ	-2155
▁තානාපති	-2156
▁අබ	-2157
▁සියලුම	-2158
ත්තර	-2159
හිත	-2160
▁වලින්	-2161
▁කෙටුම්	-2162
▁මහතාට	-2163
මෙන්	-2164
▁පස්වරු	-2165
වරිය	-2166
▁සංස්ථ	-2167
▁විජේ	-2168
▁මළ	-2169
▁ව්යාපෘතිය	-2170
▁හෙර	-2171
▁ආයෝජ	-2172
▁ප්රමාණය	-2173
කෙර	-2174
පොළ	-2175
ංජ	-2176
ින්නේ	-2177
▁ඌ	-2178
▁01	-2179
▁පුත්තල	-2180
▁හිමිකර	-2181
ස්තා	-2182
▁කුඩා	-2183
පී	-2184
තුංග	-2185
▁දිනයේදී	-2186
▁කිහිපයක	-2187
▁කාන්තාවන්	-2188
වක	-2189
▁07	-2190
▁විමස	-2191
▁කිරීම්	-2192
▁නෙ	-2193
▁පොළ	-2194
▁ගැස	-2195
▁පොලිස්පති	-2196
▁බාර	-2197
▁වනු	-2198
▁කොල්ල	-2199
▁තාක්ෂණ	-2200
▁වීර	-2201
▁සංවිධානයේ	-2202
▁දැරිය	-2203
▁එල්	-2204
▁මූල	-2205
ිරිය	-2206
ොයින්	-2207
▁ලැබුණු	-2208
▁එළඹ	-2209
▁ඔවුන්ට	-2210
▁ශ්රේෂ්	-2211
▁ඉටු	-2212
▁මාල	-2213
▁ස්ථානයේ	-2214
▁මැයි	-2215
ගමැති	-2216
▁ඉදිරිපිට	-2217
ෝප	-2218
ල්ලේ	-2219
එම	-2220
▁වූයේ	-2221
▁විශේෂඥ	-2222
▁පීඩ	-2223
▁තිබිය	-2224
▁වහ	-2225
▁විද්යාලයේ	-2226
ස්ට්	-2227
ාවලිය	-2228
ූරිය	-2229
ණයේ	-2230
▁තොරව	-2231
▁අත්ය	-2232
▁අලුත්	-2233
▁සතුව	-2234
▁දැක්වූ	-2235
නතුර	-2236
▁ඩෙ	-2237
▁පරීක්ෂක	-2238
▁අංශයේ	-2239
▁අවදාන	-2240
▁අවස්ථාවට	-2241
රදි	-2242
ාවලියේ	-2243
▁ගන්න	-2244
▁හෙරොයින්	-2245
▁පුත්තලම	-2246
▁තොගයක්	-2247
▁පන්දු	-2248
▁දරුවා	-2249
▁ශ්රේෂ්ඨා	-2250
▁අගමැති	-2251
▁නිෂ්පාදන	-2252
▁ළම	-2253
▁සහන	-2254
▁පදන	-2255
▁හමුවට	-2256
▁කඩිනමින්	-2257
▁කඩුලු	-2258
▁නිලධාරී	-2259
ේප	-2260
▁වැලි	-2261
▁අසල	-2262
වාසීන්	-2263
විල්	-2264
▁ඉදිරියේදී	-2265
තාවක්	-2266
▁මහලේ	-2267
▁බිලියන	-2268
නයෙන්	-2269
▁සෝ	-2270
▁ළඟ	-2271
▁ස්ව	-2272
රුව	-2273
▁02	-2274
▁ලොව	-2275
ංගත	-2276
▁හිඟ	-2277
▁රත්න	-2278
▁පාර්ශව	-2279
▁තරගය	-2280
▁ඉදිරියට	-2281
▁දිවයිනට	-2282
▁පොලිසියට	-2283
▁ලදී	-2284
▁මාර්	-2285
ලිම්	-2286
▁එම්	-2287
විල	-2288
▁ඉඩම්	-2289
සක	-2290
▁එළ	-2291
පො	-2292
▁ගැටලු	-2293
▁පිළිබදව	-2294
▁කොටුව	-2295
▁අවි	-2296
ඝෝෂ	-2297
▁ආසාදිතයන්	-2298
▁ෂ	-2299
▁ඇතිවිය	-2300
ෑගල	-2301
▁එහෙත්	-2302
මල්	-2303
ාර්ථක	-2304
▁ප්රමුඛ	-2305
▁කඩා	-2306
ාරත්න	-2307
ගහ	-2308
▁ජනව	-2309
▁අලි	-2310
▁හතර	-2311
▁වෙළෙඳ	-2312
ීක්ෂණය	-2313
▁ජප	-2314
▁තුල	-2315
▁පළාතේ	-2316
▁අංශයට	-2317
▁ඥ	-2318
වාහ	-2319
▁බරපතළ	-2320
▁ලැබෙන	-2321
▁ප්රථ	-2322
▁මොවුන්	-2323
▁ඔහුට	-2324
▁හඳුන්	-2325
▁විධ	-2326
▁යෝජනාව	-2327
▁අදාල	-2328
▁ලැබුවේ	-2329
▁කරුණ	-2330
▁උද්ඝෝෂ	-2331
යකු	-2332
▁රියදුරු	-2333
ුණෑගල	-2334
▁වුවද	-2335
▁වැටලීම	-2336
▁ශාල	-2337
▁ගිවිසු	-2338
▁නොව	-2339
▁හොඳ	-2340
▁දුන්නා	-2341
්රාම	-2342
▁සභාපතිවරයා	-2343
▁ගත්තා	-2344
රඹ	-2345
▁08	-2346
▁සේවක	-2347
ක්ෂේප	-2348
ගන්නා	-2349
▁සහතික	-2350
හිමි	-2351
▁වගේම	-2352
▁පූජ්ය	-2353
▁නියෝජිතයින්	-2354
▁මාසයේ	-2355
▁ජලය	-2356
▁වසංගත	-2357
▁කෑ	-2358
▁නිර්දේශ	-2359
▁තැන්	-2360
▁වෙර	-2361
▁ප්රතික්ෂේප	-2362
ංචි	-2363
්ත	-2364
▁ගෙන්	-2365
▁පිටත්ව	-2366
▁මහලේකම්	-2367
▁විධායක	-2368
සං	-2369
ෙකුත්	-2370
▁කුරුණෑගල	-2371
▁ප්රකාශයක්	-2372
▁කණ්ඩායමක්	-2373
▁එන	-2374
වීමෙන්	-2375
▁කොට්ඨාශ	-2376
▁මිලදී	-2377
▁පාර්ලිමේන්තුවට	-2378
▁ජනප	-2379
▁මැදිහ	-2380
ලාභ	-2381
▁සාකච්ඡාව	-2382
▁ආසිය	-2383
▁09	-2384
▁අඛ	-2385
▁උපා	-2386
▁කටුනායක	-2387
▁තේර	-2388
▁අපට	-2389
▁තොගය	-2390
▁ප්රථම	-2391
තක	-2392
▁මුදල	-2393
▁කළුතර	-2394
▁පිවි	-2395
▁පවුල්	-2396
▁කෘෂිකර්ම	-2397
▁අවස්ථා	-2398
▁බලශක්ති	-2399
රය	-2400
▁ගමනා	-2401
යම්	-2402
▁පිරිස්	-2403
20	-2404
ෙමින්	-2405
▁තියෙනවා	-2406
▁ව්යවස්ථා	-2407
▁පිහිටුව	-2408
▁රෝහල	-2409
▁පියා	-2410
▁ප්රතිඵල	-2411
ිණි	-2412
▁ආපදා	-2413
▁මන්ද	-2414
▁සලකා	-2415
කුණ	-2416
ෙසු	-2417
▁කොටස්	-2418
▁දායක	-2419
▁ඒකකය	-2420
▁පූර්	-2421
වීමක්	-2422
▁ඉලක්ක	-2423
▁දැවී	-2424
▁හැකියි	-2425
ායාර	-2426
▁දුරකථන	-2427
▁වැදගත්	-2428
කල	-2429
▁කාර්යා	-2430
▁යැ	-2431
▁අත්සන්	-2432
▁සංවර්ධනය	-2433
▁නිර්මාණය	-2434
▁යහ	-2435
ංශයේ	-2436
ටා	-2437
▁තර්	-2438
▁ඡායාර	-2439
▁සරත්	-2440
▁අතරතුර	-2441
ියෝග	-2442
▁විශ්රාම	-2443
▁මඩ	-2444
▁පෙරවරු	-2445
▁ආගම	-2446
▁සාකච්ඡාවක්	-2447
▁ආයු	-2448
▁සෙසු	-2449
▁නුවරඑ	-2450
▁තේ	-2451
▁තෝ	-2452
▁මරණය	-2453
▁කටයුතුව	-2454
▁කිරීමේදී	-2455
▁ඩි	-2456
▁කියයි	-2457
▁දහවල්	-2458
ිතාන්ය	-2459
ියාච	-2460
▁වැඩිම	-2461
▁ඇමෙර	-2462
▁සම්පත්	-2463
▁ශක්ති	-2464
▁ධීවරයින්	-2465
▁නිලධාරීන්ගේ	-2466
▁වියද	-2467
▁සමාගමේ	-2468
▁වෙරළ	-2469
වශ්ය	-2470
▁සබර	-2471
00ක්	-2472
▁රං	-2473
▁කළමනාකරණ	-2474
▁පාර්ලිමේන්තුව	-2475
න්තා	-2476
▁ආනයනය	-2477
මී	-2478
ූල	-2479
▁බැංකුව	-2480
▁අභියාච	-2481
වරුන්ගේ	-2482
▁වර්ජනය	-2483
▁ගම්පහ	-2484
▁රජයට	-2485
▁යුත්	-2486
▁ආණ්ඩුවේ	-2487
▁පලා	-2488
▁පත්කර	-2489
▁මඟින්	-2490
සිට	-2491
▁කණ්ඩායමේ	-2492
▁පුවත්	-2493
න්ඩ	-2494
▁දිග	-2495
▁ජනවාරි	-2496
▁ලබාගත්	-2497
▁පසුවන	-2498
▁පන්දුව	-2499
ුණාම	-2500
▁කාන්තාවක්	-2501
▁සාමාජිකයින්	-2502
▁පහත	-2503
▁බට	-2504
▁බැඳ	-2505
▁බ්රිතාන්ය	-2506
▁බිරි	-2507
▁බරපතල	-2508
▁වැටුප්	-2509
▁විමු	-2510
▁ගොවීන්	-2511
▁මිලි	-2512
▁ආරක්ෂා	-2513
▁ස්ථානයට	-2514
▁ඩෙංගු	-2515
▁අයවැ	-2516
ොඩ	-2517
▁ක්රමවේද	-2518
▁පැහැර	-2519
▁ජෙන	-2520
ියෙන්	-2521
ෙකි	-2522
වෙල	-2523
▁සිටින්නේ	-2524
▁40	-2525
▁ශරී	-2526
▁සහල්	-2527
▁ඡන්දය	-2528
▁විමුක්ති	-2529
▁පද්ධතිය	-2530
▁කැප	-2531
5ක්	-2532
▁විභාගය	-2533
▁ලියා	-2534
▁කෙටුම්පත	-2535
ඬුව	-2536
▁සාක්ෂි	-2537
තිර	-2538
▁ආසාදනය	-2539
▁ගැසට්	-2540
▁ගුරුවර	-2541
▁කොමිසමේ	-2542
තලේ	-2543
වෙයි	-2544
නියාව	-2545
▁කිසිව	-2546
▁රටට	-2547
▁සැකකාර	-2548
මුල්ල	-2549
▁පනත්	-2550
▁අජිත්	-2551
▁ලබාගෙන	-2552
▁යුර	-2553
ාතන්ත්ර	-2554
පැල්	-2555
▁ස්ථාප	-2556
▁ජයග්රහණය	-2557
▁අධිකාරී	-2558
▁තීරණ	-2559
▁අබේ	-2560
▁ද්රව්ය	-2561
යෝජ	-2562
▁සිංහ	-2563
▁මහත්	-2564
▁ආකාරය	-2565
▁වගා	-2566
▁ඇඳ	-2567
▁මතුව	-2568
▁තැපැල්	-2569
ශා	-2570
▁ඡායාරූප	-2571
වාර	-2572
▁කෙරුණු	-2573
▁කැඳවා	-2574
▁ප්රජාතන්ත්ර	-2575
▁සන්ධානය	-2576
▁නිරෝධ	-2577
▁දැමීමට	-2578
▁ගුරු	-2579
පිට	-2580
▁ලොර	-2581
▁ප්රවාහනය	-2582
▁පැහැදිලි	-2583
කේ	-2584
▁ගිග	-2585
▁දෙනවා	-2586
▁සියලූ	-2587
▁තීන්ද	-2588
▁C	-2589
රේක	-2590
තාවය	-2591
▁කථා	-2592
▁බාධා	-2593
▁බලකාය	-2594
සිරි	-2595
▁විදුලිය	-2596
▁කරලා	-2597
▁දිනවල	-2598
▁මොහු	-2599
▁රො	-2600
පත්ති	-2601
▁නිලධාරීන්ට	-2602
▁අතිරේක	-2603
▁හෙළ	-2604
▁අනෙක්	-2605
an	-2606
▁වර්ධනය	-2607
▁මුල	-2608
▁පාකි	-2609
▁බී	-2610
▁ප්රහාරය	-2611
▁පරාජ	-2612
▁සිදුකෙර	-2613
▁දර්ශ	-2614
▁සිවිල්	-2615
▁ගියා	-2616
▁සමාගම්	-2617
ලයේ	-2618
බී	-2619
▁පෝ	-2620
▁පුළ	-2621
▁බහු	-2622
▁පුහුණු	-2623
▁මාධ්යවේදී	-2624
ගල්ල	-2625
▁අඛණ්ඩ	-2626
▁දෙනෙකුට	-2627
▁පන්දුවාර	-2628
▁කමිට	-2629
ේෂණ	-2630
▁ලේඛ	-2631
▁පොල්	-2632
▁සමත්ව	-2633
▁පවර	-2634
▁වතු	-2635
▁ඇතුලු	-2636
▁පරීක්ෂණය	-2637
ැස්	-2638
▁සබරගමුව	-2639
▁වහාම	-2640
▁නිෂ්පාදනය	-2641
▁බදුල්ල	-2642
▁මධ්යස්ථාන	-2643
▁නැග	-2644
▁අනුර	-2645
▁නිරෝධාය	-2646
▁ඉන්න	-2647
න්දි	-2648
▁ප්රදේශවාසීන්	-2649
▁අනෙකුත්	-2650
▁නොකරන	-2651
▁සාර්ථක	-2652
▁යුතුව	-2653
▁ගිගුරුම්	-2654
නිජ	-2655
ීමේදී	-2656
▁යානය	-2657
ාමී	-2658
▁කාන්තා	-2659
▁නාග	-2660
ක්ෂණය	-2661
▁දන්	-2662
සූරිය	-2663
▁දිනා	-2664
▁නැත	-2665
▁පදිංචිව	-2666
▁ප්රතිපත්ති	-2667
▁ටී	-2668
▁හොර	-2669
▁බු	-2670
▁ඌව	-2671
▁රත්නපුර	-2672
▁ඉනි	-2673
▁ප්රේමදාස	-2674
▁සිදුකිරීමට	-2675
ැල්ල	-2676
▁නතර	-2677
▁ආගමික	-2678
▁ලියාප	-2679
▁ඛනිජ	-2680
▁දැක	-2681
▁සම්මත	-2682
▁ජයවර්ධන	-2683
▁අනතුරට	-2684
▁චන්ද්ර	-2685
▁පරීක්ෂණයක්	-2686
▁අභ්ය	-2687
▁උල්ල	-2688
▁ප්රතිසං	-2689
▁නඩ	-2690
▁මංග	-2691
▁ලෙසත්	-2692
▁තරගාවලියේ	-2693
▁අහිමි	-2694
▁ලියාපදිංච	-2695
න්නාර	-2696
▁වැටී	-2697
▁බහ	-2698
▁අසා	-2699
▁ඉක්ම	-2700
▁ගොවි	-2701
ෙල	-2702
▁යුද්ධ	-2703
▁ප්රචාර	-2704
සිර	-2705
▁හඳුනාගෙන	-2706
▁35	-2707
▁ආයතනයේ	-2708
▁S	-2709
▁ගුව	-2710
▁සංචාරය	-2711
▁පරීක්ෂා	-2712
▁වැය	-2713
ෝදර	-2714
▁ළමා	-2715
▁ගාස්තු	-2716
▁රැඳී	-2717
▁අභියෝග	-2718
▁අනතුරකින්	-2719
ික්	-2720
▁බැගින්	-2721
ගතව	-2722
▁පද	-2723
▁ගැටීමෙන්	-2724
▁බිරිඳ	-2725
මිල්	-2726
▁වුණේ	-2727
තුම්	-2728
▁හෙවත්	-2729
ිනී	-2730
▁මාර්තු	-2731
▁තරගාවලිය	-2732
▁ස්වාධ	-2733
▁වයඹ	-2734
ොන්නරුව	-2735
▁වසරේදී	-2736
ාවි	-2737
▁ආණ්ඩුක්රම	-2738
▁ජනපති	-2739
කාරි	-2740
සිල්	-2741
▁නුවරඑළිය	-2742
▁අපහ	-2743
▁ක්රීඩාංග	-2744
▁කින්	-2745
▁තොරතුරක්	-2746
▁සුප	-2747
▁තවමත්	-2748
▁අභියාචනා	-2749
▁පොදුජන	-2750
▁බලාගාර	-2751
▁සුළං	-2752
▁උපකරණ	-2753
්ලා	-2754
▁විදුහල්	-2755
▁තිබෙන්නේ	-2756
කුත්	-2757
▁තබ	-2758
වෙත	-2759
සකට	-2760
සැල්	-2761
▁වැළැක්	-2762
කුල	-2763
▁සති	-2764
▁රෝහණ	-2765
කූල	-2766
in	-2767
▁පාන	-2768
ගණ	-2769
▁සහාය	-2770
▁පුළුවන්	-2771
▁ජංගම	-2772
▁අතුරුදන්	-2773
▁හෝට	-2774
▁නීතී	-2775
▁එලෙස	-2776
▁බිඳ	-2777
▁සජිත්	-2778
▁විශේෂයෙන්	-2779
▁තෙක්	-2780
▁ස්ථාපිත	-2781
ශ්ව	-2782
▁නිවසට	-2783
ක්ද	-2784
▁දක්නට	-2785
▁රංජිත්	-2786
▁ශක්තිමත්	-2787
ිකාවේ	-2788
▁ප්රස	-2789
▁සුළු	-2790
▁බලපෑම්	-2791
▁සබඳ	-2792
▁පට	-2793
▁කිල	-2794
▁කිරිමට	-2795
ආර	-2796
▁පැතිර	-2797
රිස්	-2798
ාත්මක	-2799
පුව	-2800
රො	-2801
බර්	-2802
ෝග්ර	-2803
▁අප්ර	-2804
ානාධිපති	-2805
▁පවතිනවා	-2806
▁වෙලා	-2807
ංඝ	-2808
▁සංකීර්	-2809
▁අලුයම	-2810
▁ස්වාධීන	-2811
කඩ	-2812
වරයාට	-2813
▁පළමුව	-2814
▁ජෙනරාල්	-2815
සියේ	-2816
එස්	-2817
පත්ත	-2818
හය	-2819
▁කිලෝග්ර	-2820
▁නිවා	-2821
▁අපනය	-2822
▁ජෝ	-2823
▁පදිංචිකරුවන්	-2824
▁උල්ලංඝ	-2825
▁ග්රාම	-2826
▁පරිශ්ර	-2827
රිම	-2828
▁පවා	-2829
▁සුද	-2830
▁බුද්ධි	-2831
▁විරුද්ධ	-2832
ොස්	-2833
▁නේ	-2834
▁ජලා	-2835
▁රෙ	-2836
▁සහකාර	-2837
▁යන්ත්ර	-2838
▁තැන්පත්	-2839
▁ව්යාජ	-2840
▁ත්රික	-2841
▁පරිපාල	-2842
▁ජූ	-2843
▁තිදෙනෙකු	-2844
▁නැං	-2845
▁කුසල	-2846
▁මේවන	-2847
▁නිළ	-2848
▁ප්රදේශයට	-2849
නන්ද	-2850
▁කරුණා	-2851
▁ප්රදේශයෙන්	-2852
▁රත්	-2853
▁හිත	-2854
▁ක්රමය	-2855
ීමත්	-2856
▁මෙන්	-2857
▁තරගයේ	-2858
දෙයි	-2859
▁නිලධාරියෙකු	-2860
▁නිවේදනයේ	-2861
▁සම්බන්ධව	-2862
▁පහළ	-2863
▁තෝරා	-2864
ීක්ෂණ	-2865
▁60	-2866
▁අයුර	-2867
▁කිහිපයකට	-2868
▁පෙත්සම	-2869
▁තාවකාලිකව	-2870
▁මට	-2871
▁විධි	-2872
න්වහන්සේ	-2873
▁කොට්ඨාස	-2874
තියක්	-2875
▁තිබියදී	-2876
▁වෑන්	-2877
▁විටත්	-2878
යුතු	-2879
දෙනා	-2880
▁පණි	-2881
▁ඇමරිකානු	-2882
ෑමට	-2883
▁නොල	-2884
▁බටහිර	-2885
▁වාර්තාවක්	-2886
කොට	-2887
▁ලක්වූ	-2888
▁අයිති	-2889
▁තෙ	-2890
සික	-2891
▁ගණන්	-2892
▁ඉල්ලීම	-2893
▁නීතිපතිවරයා	-2894
▁අධ්යාපනය	-2895
▁පවත්වන	-2896
▁කෝටි	-2897
▁ගුවන්තොට	-2898
▁ප්රතිචාර	-2899
ානි	-2900
▁මුළු	-2901
▁ටෙස්ට්	-2902
▁හැටන්	-2903
ලන්	-2904
▁මං	-2905
▁සැළ	-2906
▁ත්රිකුණාම	-2907
නිය	-2908
▁යෝජන	-2909
▁රඳවා	-2910
▁කණ්ඩායමට	-2911
▁ප්රිය	-2912
▁අධ	-2913
වන්න	-2914
මීටර්	-2915
▁ත්රී	-2916
▁දැක්වෙන්නේ	-2917
▁ශ්රේෂ්ඨාධිකරණය	-2918
▁දූෂණ	-2919
▁සංවිධායක	-2920
▁ගුවන්තොටුප	-2921
▁කප්	-2922
▁සමන්විත	-2923
රුම	-2924
▁ආසියානු	-2925
▁ගබ	-2926
▁ඉල්ලීම්	-2927
ලාවත	-2928
▁වරද	-2929
▁වංචා	-2930
▁අරගල	-2931
▁සමයේ	-2932
▁ෆොන්	-2933
▁ප්රව	-2934
වයි	-2935
▁හමුවකදී	-2936
▁චීනය	-2937
▁ජනතාවගෙන්	-2938
▁සෙන	-2939
▁ස්ථාව	-2940
▁සංඛ්යාවක්	-2941
▁ක්රියාවලිය	-2942
▁සාම	-2943
▁පත්වූ	-2944
▁හමුවී	-2945
▁ගංජා	-2946
er	-2947
▁ජලාශ	-2948
▁තනතුර	-2949
▁ක්රීඩක	-2950
▁අත්යවශ්ය	-2951
▁හද	-2952
▁හේතු	-2953
▁පල	-2954
▁අපහසු	-2955
ශක	-2956
▁යමින්	-2957
▁පිරිමි	-2958
▁පිලි	-2959
▁බලවේග	-2960
න්ති	-2961
▁මත්ප	-2962
දෙණිය	-2963
▁සේන	-2964
▁එක්දින	-2965
ජීවී	-2966
▁භාවිතා	-2967
▁මාරු	-2968
සේකා	-2969
ිණ	-2970
▁මුස්	-2971
▁කඳවුර	-2972
▁දිස්ත්රික්කවල	-2973
ට්ටු	-2974
ල්ලට	-2975
▁ත්	-2976
▁ප්රදර්ශ	-2977
▁ආයුධ	-2978
▁යොමුව	-2979
විඩ	-2980
▁සැලක	-2981
▁ආරංචි	-2982
▁විභාගයට	-2983
▁තිබුණ	-2984
▁අල්ලස්	-2985
on	-2986
▁ව්යාපෘති	-2987
න්නාරම	-2988
▁මන්දිර	-2989
▁ප්රභ	-2990
▁හලාවත	-2991
▁දෙයි	-2992
ගැනීමේ	-2993
▁උන්වහන්සේ	-2994
වැව	-2995
▁එකම	-2996
▁නොද	-2997
▁කථානායක	-2998
▁ෆොන්සේකා	-2999
▁ලියාපදිංචි	-3000
▁තැබීම	-3001
▁පර්යේෂණ	-3002
▁ස්ථානාධිපති	-3003
▁වික	-3004
▁සැර	-3005
▁කාලයේදී	-3006
ධාරණ	-3007
▁අපේක්ෂක	-3008
▁හිමිව	-3009
▁පැවර	-3010
▁ලොරි	-3011
නුම්	-3012
▁මුස්ලිම්	-3013
▁සේවයේ	-3014
▁වැටල	-3015
▁අක්	-3016
▁අනා	-3017
▁සොර	-3018
▁දඬුව	-3019
▁පෙන්වාදෙයි	-3020
▁ආණ්ඩුවට	-3021
▁දඩ	-3022
▁අර්බුදය	-3023
▁සේනා	-3024
පළ	-3025
▁ආදායම්	-3026
හිදී	-3027
▁ප්රතිසංස්	-3028
▁ආරාධ	-3029
▁ශ්රේ	-3030
▁හමුදාපති	-3031
2ක්	-3032
▁විපක්ෂයේ	-3033
▁සුබ	-3034
දුරු	-3035
▁තමන්ගේ	-3036
ගමනය	-3037
තාවට	-3038
▁දඹු	-3039
▁අධිකාරියේ	-3040
▁කැම	-3041
▁පුන	-3042
▁අඟ	-3043
▁අවට	-3044
▁පැවැත්වුණා	-3045
▁අමෙරිකානු	-3046
▁සිදුවී	-3047
▁නු	-3048
▁නායකයින්	-3049
▁ජු	-3050
▁ගල	-3051
▁වීමෙන්	-3052
ආර්	-3053
ියක	-3054
▁විද්යාලය	-3055
▁නියෝගය	-3056
රික	-3057
▁විකාශ	-3058
්රේල්	-3059
▁ලැබීය	-3060
▁වටිනාකම	-3061
ධක	-3062
හාන්	-3063
▁ට්ර	-3064
▁මර්දන	-3065
▁චෝදනාව	-3066
භාවය	-3067
▁බාල	-3068
▁වෙන්න	-3069
▁නිවැ	-3070
▁ධූර	-3071
▁ගම	-3072
▁ප්රමාණ	-3073
ත්කාර	-3074
ාන්	-3075
▁ගමන	-3076
▁පාප	-3077
▁සාප	-3078
▁අපිට	-3079
▁සියල්ල	-3080
▁පුළු	-3081
ජ්	-3082
සිද්ධ	-3083
▁උඩ	-3084
▁පවරා	-3085
▁කරගනිමින්	-3086
ාවේදී	-3087
▁සතියේ	-3088
▁බංග	-3089
පියන්	-3090
▁එකක්	-3091
ශ්චාත්	-3092
▁තත්ත්වයට	-3093
▁දිනේෂ්	-3094
▁මීගමුව	-3095
▁අද1	-3096
▁අප්රේල්	-3097
▁සම්පූර්ණය	-3098
▁මාත්ර	-3099
ඩී	-3100
ුවල	-3101
▁විපක්ෂය	-3102
යු	-3103
▁සන්ධානයේ	-3104
▁වර්ත	-3105
සියම්	-3106
ිත්ර	-3107
▁පොලිස්පතිවරයා	-3108
▁ශී	-3109
ලූ	-3110
න්නි	-3111
▁පෙත්සම්	-3112
▁ඇද	-3113
▁අයුරින්	-3114
එල්	-3115
▁පිළ	-3116
තැන්	-3117
▁රටවල	-3118
▁ගන	-3119
▁A	-3120
▁ඇස	-3121
▁විසඳුම්	-3122
▁ගිණ	-3123
ේක්ෂ	-3124
තක්	-3125
බාධ	-3126
යාගේ	-3127
▁නොකළ	-3128
▁ජාවාරම්	-3129
▁කාර්	-3130
▁නීතීඥ	-3131
▁ඉදිකිරීම්	-3132
▁රුසියානු	-3133
▁වැඩසටහන්	-3134
▁නොවැ	-3135
වරයාගේ	-3136
▁පන්දුවට	-3137
▁පොළොන්නරුව	-3138
වාහන	-3139
▁නියෝගයක්	-3140
දියි	-3141
▁දෙමින්	-3142
▁සිංහල	-3143
ගෙ	-3144
▁නොලැබ	-3145
▁ගැටළු	-3146
▁ප්රතිපත්ත	-3147
බෝ	-3148
▁උපදේශ	-3149
▁කම්කරු	-3150
ණා	-3151
▁අට	-3152
▁උණු	-3153
▁කමිටු	-3154
රිය	-3155
ධිකාර	-3156
▁ලිපි	-3157
ලක්ෂ	-3158
▁විශ්වවිද්යාලයේ	-3159
යෝග	-3160
▁වඩ	-3161
▁මත්පැන්	-3162
▁කන්ද	-3163
at	-3164
▁අද2	-3165
▁යුක්රේ	-3166
▁සංශෝධන	-3167
තල	-3168
▁දස	-3169
වෙතත්	-3170
▁විනිසුරුවර	-3171
▁පැමිණිල්ලක්	-3172
▁බෝම්බ	-3173
▁ගැටළ	-3174
රයේ	-3175
▁උපරිම	-3176
▁වෙන්නේ	-3177
▁රූප	-3178
▁මහාධිකරණ	-3179
▁ටොන්	-3180
▁දන්වා	-3181
▁පාඨ	-3182
▁අරමුණින්	-3183
▁ගේ	-3184
▁කිසියම්	-3185
දීමේ	-3186
▁සංච	-3187
▁සමුළුව	-3188
විරෝධ	-3189
▁පශ්චාත්	-3190
▁අනාගත	-3191
▁ලබමින්	-3192
ුදෙන	-3193
හේ	-3194
▁එකතු	-3195
▁සතිය	-3196
▁ප්රකාශය	-3197
▁සුවය	-3198
සර්	-3199
▁අසළ	-3200
▁මගේ	-3201
▁එදින	-3202
▁නිරතව	-3203
▁වගකීම	-3204
වරණ	-3205
▁පවුලේ	-3206
දේ	-3207
වැල්ල	-3208
ංගලන්ත	-3209
▁ඇයගේ	-3210
ජන්	-3211
▁පවසමින්	-3212
▁ප්රදේශය	-3213
▁ගාල	-3214
▁විෂය	-3215
▁ලැබු	-3216
▁දෙසට	-3217
▁ප්රමාණවත්	-3218
▁කලා	-3219
▁අක්කර	-3220
▁වැල්ල	-3221
මෙම	-3222
▁දෙන්න	-3223
▁ආර්ථිකය	-3224
බද	-3225
▁උළ	-3226
▁ඔස්ට්රේලිය	-3227
▁යනු	-3228
▁වැඩපිළිවෙළ	-3229
▁දෙසැම්බර්	-3230
▁මෙරටින්	-3231
▁මහේස්ත්රාත්වරයා	-3232
▁සව	-3233
▁යාමේ	-3234
▁පාස්	-3235
▁සම්මේ	-3236
▁කැල	-3237
▁නාය	-3238
▁තමිල්	-3239
▁කමිටුවේ	-3240
▁ප්රාන්ත	-3241
කරමින්	-3242
▁සිදුවු	-3243
▁මන්නාරම	-3244
▁උත්සවය	-3245
▁ගෝල	-3246
▁වෙබ්	-3247
▁ද්	-3248
▁ඩීසල්	-3249
▁සම්මේල	-3250
▁එළඹෙන	-3251
ස්කෘ	-3252
▁වව්	-3253
▁දඹුල්ල	-3254
ප්ත	-3255
▁එකී	-3256
▁සැලකි	-3257
▁45	-3258
▁එංගලන්ත	-3259
▁අගෝ	-3260
▁නවස	-3261
▁තල	-3262
ට්ටුව	-3263
▁පිරවුම්	-3264
▁සැකකරුවෙකු	-3265
▁මෘ	-3266
ගන්න	-3267
ar	-3268
ිරෝද	-3269
▁බන්දු	-3270
▁පුළුල්	-3271
▁මල්	-3272
▁යොදවා	-3273
▁සංස්කෘ	-3274
ිප්	-3275
ෞද්ධ	-3276
▁මහර	-3277
▁වෙනුවට	-3278
▁මුහුද	-3279
▁අවශ්යතාව	-3280
▁ලබාගැනීමට	-3281
▁අඩුව	-3282
▁අනුවයි	-3283
▁විසි	-3284
▁මතු	-3285
ිනේර	-3286
ස්තුව	-3287
▁ඕස්ට්රේලිය	-3288
▁75	-3289
▁දුෂ්	-3290
ආරච්චි	-3291
▁අගෝස්තු	-3292
ෂණය	-3293
0000	-3294
▁සහයෝගය	-3295
▁කිලෝග්රෑම්	-3296
▁කණ	-3297
▁ත්රිරෝද	-3298
▁දක්ෂ	-3299
▁භූම	-3300
▁ආසන්නයේ	-3301
▁ආයෝජන	-3302
▁උපයෝග	-3303
▁නෞකාව	-3304
▁විමර්ශනය	-3305
▁ජාල	-3306
▁බෞද්ධ	-3307
▁ඝාතනයට	-3308
▁නගරය	-3309
▁ඇතිව	-3310
▁යතුරුපැද	-3311
▁අඛණ්ඩව	-3312
▁දිවුරුම්	-3313
8ක්	-3314
ේදා	-3315
▁වේග	-3316
▁ගිවිසුම	-3317
▁පමණයි	-3318
▁මිනිස්	-3319
▁අනතුරුවයි	-3320
පල්	-3321
▁හටගෙන	-3322
▁ඇතිවූ	-3323
▁රෝගය	-3324
ාවකදී	-3325
▁සේනාරත්න	-3326
▁පීඩාවට	-3327
▁නොමැතිව	-3328
▁වෛද්යවරුන්	-3329
▁ජි	-3330
▁තත්වය	-3331
▁මන	-3332
▁අදිය	-3333
තිලක	-3334
▁යුරෝ	-3335
▁වාර්ෂික	-3336
▁යාත්රා	-3337
බරව	-3338
▁අයවැය	-3339
▁අමරවීර	-3340
▁අමාත්යවරුන්	-3341
බු	-3342
▁සහෝදර	-3343
▁ගත්තේ	-3344
▁මාතලේ	-3345
▁රත්නායක	-3346
▁සම්පූර්ණ	-3347
▁අහ	-3348
මිනි	-3349
▁ඉංජ	-3350
▁පාස්කු	-3351
ෂ්ට	-3352
▁චීනයේ	-3353
6ක්	-3354
▁සිදුකරයි	-3355
▁අයදුම්	-3356
▁ඕනෑම	-3357
▁රටක්	-3358
▁පාස	-3359
▁අධිවේග	-3360
▁මාර්ගයෙන්	-3361
▁අතුරු	-3362
▁චිත්ර	-3363
දිග	-3364
3ක්	-3365
4ක්	-3366
ීලන්ත	-3367
▁හුව	-3368
▁රුවන්	-3369
▁බණ්ඩාරනායක	-3370
ුවද	-3371
▁පකි	-3372
ක්ෂක	-3373
▁වර්ගයේ	-3374
▁අයිතිවාස	-3375
ැම	-3376
▁නිරීක්ෂණය	-3377
තිව්	-3378
▁සවස	-3379
ුණුව	-3380
▁බලපෑ	-3381
▁අමත	-3382
▁මණ්ඩලයට	-3383
▁පැමිණීමට	-3384
▁නැරඹ	-3385
▁ගොඩනැගි	-3386
▁I	-3387
▁සැප්ත	-3388
▁හුවමාර	-3389
▁ඉංජිනේර	-3390
▁කාර්යය	-3391
▁පනවා	-3392
රවංශ	-3393
▁කුසලාන	-3394
▁දළ	-3395
▁අම්ප	-3396
▁සීමාව	-3397
▁ත්රිකුණාමලය	-3398
▁සයි	-3399
▁පෙබරව	-3400
මඩ්	-3401
ත්තු	-3402
පට	-3403
ුවෙක්	-3404
▁අරමුදල	-3405
▁බන්දුල	-3406
▁වීරවංශ	-3407
▁නවසීලන්ත	-3408
▁අලූ	-3409
▁ශ්රි	-3410
▁ගැටලුව	-3411
000ක්	-3412
▁පාලක	-3413
▁නීතිවිරෝධ	-3414
▁කෑගල්ල	-3415
▁නමැති	-3416
▁ගැටුම්	-3417
ඞ්	-3418
▁විදුහල්පති	-3419
ාපිටිය	-3420
▁ඉකුත්	-3421
▁හමුවක්	-3422
▁නොවැම්බර්	-3423
▁ඉනිම	-3424
▁ඉවත්ව	-3425
▁පිරින	-3426
▁වඩාත්	-3427
▁සමගි	-3428
▁දෙපාර්තමේන්තුවට	-3429
▁කෙරෙහි	-3430
▁රසා	-3431
▁ආණ්ඩුකාර	-3432
යන්ගේ	-3433
▁දෛ	-3434
සියන්	-3435
ඔය	-3436
▁2022	-3437
ශාල	-3438
▁වයස්	-3439
▁සිදුවීම	-3440
ශී	-3441
▁හැකියාවක්	-3442
▁ක්රි	-3443
▁වළක්	-3444
▁නීතිමය	-3445
▁හේරත්	-3446
ෙනි	-3447
▁ලීට	-3448
බෝධ	-3449
▁ප්රදේශවලට	-3450
▁අධිපති	-3451
▁සැප්තැම්බර්	-3452
ට්ටි	-3453
▁කිව්	-3454
▁රේගු	-3455
▁තීරණයක්	-3456
▁බද්ද	-3457
▁දෙරට	-3458
▁අයිතිය	-3459
කාල	-3460
▁සාධාරණ	-3461
▁ප්රග	-3462
▁මාධ්යවේදීන්	-3463
▁හඳුන්වා	-3464
▁ඒකකයේ	-3465
ුරාදා	-3466
යින්ට	-3467
දුන්නේ	-3468
▁විකාශය	-3469
▁උණුසුම්	-3470
▁විමල්	-3471
ටිය	-3472
▁විස්ස	-3473
▁බේරා	-3474
ඹුර	-3475
▁ගෞ	-3476
බායි	-3477
▁සැපයුම	-3478
▁දේව	-3479
▁න්	-3480
නාත්මක	-3481
▁අයිතිවාසිකම්	-3482
▁සංඝ	-3483
▁සප	-3484
▁මව්	-3485
▁සිංග	-3486
▁දුන්නේය	-3487
▁සම්මාන	-3488
▁සභාවට	-3489
▁නියා	-3490
▁අම්පාර	-3491
ේද	-3492
▁පොරො	-3493
මානයේ	-3494
▁ආකාරයට	-3495
▁ප්රශ්නය	-3496
7ක්	-3497
්රෝ	-3498
කරුවන්ට	-3499
සාර	-3500
▁අත්ත	-3501
▁කිරිම	-3502
▁තොරතුරකට	-3503
කය	-3504
▁2015	-3505
▁බැහැ	-3506
්ලාදේශ	-3507
▁නග	-3508
ගිරිය	-3509
ඩියෝ	-3510
ජු	-3511
▁පූර්ණ	-3512
▁මහාධිකරණය	-3513
▁අද0	-3514
▁ප්රමාද	-3515
▁වියදම්	-3516
▁පදනම්	-3517
▁2020	-3518
▁ධුරය	-3519
▁පීඨ	-3520
▁P	-3521
▁රැස්වීම	-3522
ලේඛ	-3523
▁වැරදි	-3524
▁පහරදී	-3525
▁පුරවැ	-3526
▁ක්ෂේත්රයේ	-3527
▁රථයක	-3528
▁දෙකක	-3529
▁සේවයට	-3530
▁M	-3531
නම්	-3532
▁පීරිස්	-3533
▁කේන්ද්ර	-3534
▁කෙන	-3535
▁මෙහෙයුම	-3536
ාගත	-3537
▁පළාත්වල	-3538
▁පෙබරවාරි	-3539
කෙසේ	-3540
ඩුල්ල	-3541
▁මන්ත්ර	-3542
▁කුල	-3543
▁පෙරේදා	-3544
▁කියාසිට	-3545
යාට	-3546
▁ප්රවේශ	-3547
▁දුෂ්කර	-3548
වනවා	-3549
▁රවී	-3550
▁විවාහ	-3551
▁ක්රියාකාර	-3552
▁ලිය	-3553
ලපිටිය	-3554
ිකරු	-3555
▁යොමුකර	-3556
▁දුම්	-3557
▁ගැටුම	-3558
▁මැදිහත්ව	-3559
▁අනතුරින්	-3560
▁ලබනවා	-3561
▁බංග්ලාදේශ	-3562
අයි	-3563
වැත්ව	-3564
▁පැවැත්වීම	-3565
▁ඇඟ	-3566
ෂාන්	-3567
▁සත්ය	-3568
මින්ද	-3569
▁අධිවේගී	-3570
▁යුක්රේන	-3571
▁ඔක්ත	-3572
▁සුදුසු	-3573
ශාන්ත	-3574
දෙමින්	-3575
▁වන්ද	-3576
මානය	-3577
▁බෑ	-3578
▁විවාද	-3579
▁විදේශීය	-3580
▁පහරදීම	-3581
▁සේවකයන්	-3582
▁තිස්ස	-3583
තට	-3584
▁සුදුසුකම්	-3585
තනය	-3586
ද්දී	-3587
කැ	-3588
ුල	-3589
▁32	-3590
▁පරිපාලන	-3591
▁වව්නියාව	-3592
▁හෙද	-3593
▁පෙට්ර	-3594
ණිජ	-3595
▁ගාමිණ	-3596
▁ආදී	-3597
▁කහ	-3598
ුම්කර	-3599
ත්තා	-3600
en	-3601
▁ධර්ම	-3602
▁අරා	-3603
▁අනිව	-3604
▁අධිකාරි	-3605
▁තීන්දුව	-3606
කින	-3607
▁කෙරුණේ	-3608
▁නීතිවිරෝධී	-3609
▁කැන	-3610
▁ආසන	-3611
පිල	-3612
ත්තෙන්	-3613
මාන්	-3614
▁අගය	-3615
▁ගණනාවක්	-3616
වක්	-3617
ල්ලා	-3618
▁රාජිත	-3619
▁මින	-3620
▁අනිවාර්ය	-3621
ියේදී	-3622
ිරා	-3623
▁සර්	-3624
▁ඇත්ත	-3625
▁ළමුන්	-3626
▁කවුන්	-3627
▁තාක්ෂණය	-3628
▁නෝ	-3629
▁බැලීම	-3630
▁තාක්ෂණික	-3631
▁පසුබි	-3632
▁ලබාගැනීම	-3633
▁සබඳතා	-3634
ජය	-3635
කයේ	-3636
▁උපාධි	-3637
▁මධ්යස්ථානයේ	-3638
▁බිත්තර	-3639
▁කිරීමත්	-3640
▁තමාට	-3641
▁යෙද	-3642
▁ලිපියක්	-3643
▁නවතා	-3644
වියන්	-3645
වෙස්	-3646
▁මගීන්	-3647
▁අහෝ	-3648
▁නාගරික	-3649
▁පුද්ගලික	-3650
▁අවසානයේ	-3651
▁ආශ්රිතව	-3652
▁සිද්ධියක්	-3653
▁36	-3654
▁සර	-3655
විත්	-3656
▁තොටුපළ	-3657
▁පිප	-3658
▁නිලධාරියා	-3659
▁මංගල	-3660
▁සැමර	-3661
ත්යාග	-3662
▁සංස්ථාව	-3663
▁හය	-3664
▁දේහය	-3665
▁ඉරි	-3666
▁නිවැරදි	-3667
▁ප්රහාරයක්	-3668
▁ස්ථාවර	-3669
▁ජේ	-3670
▁දො	-3671
තෙල්	-3672
▁නිම	-3673
▁බැඳුම්කර	-3674
▁හමුදාවේ	-3675
12	-3676
වට	-3677
9ක්	-3678
▁නිවෙස්	-3679
1ක්	-3680
▁රථවාහන	-3681
▁ලැයි	-3682
වීමේදී	-3683
▁තමිල්නා	-3684
සයි	-3685
▁එකඟතාව	-3686
ලස්	-3687
▁හැසිර	-3688
▁කාර්යාංශය	-3689
මිනු	-3690
▁මෘත	-3691
▁යුධ	-3692
ශේෂ	-3693
▁කටයුත්ත	-3694
▁ඉතිහාස	-3695
▁මුද්ර	-3696
▁ජනාධිපතිවරයාගේ	-3697
▁යළිත්	-3698
▁සමගාමී	-3699
ෝල	-3700
▁ක්රිය	-3701
▁ධාර	-3702
▁අතරින්	-3703
කෝන්	-3704
දානය	-3705
▁බිය	-3706
▁ජනාධිපතිතුමා	-3707
▁ප්රමි	-3708
▁තරුණයෙකු	-3709
▁ප්රතිපාදන	-3710
▁තුළදී	-3711
▁ඇතුළුව	-3712
▁ඔක්තෝ	-3713
▁ආරක්ෂිත	-3714
ාරා	-3715
▁අහෝසි	-3716
▁රැදී	-3717
▁මාවත	-3718
ගස්	-3719
ඹුරු	-3720
▁ලක්ෂ්	-3721
යික	-3722
ෂි	-3723
පොල	-3724
▁මාසයේදී	-3725
▁රුසියාව	-3726
▁සාකච්ඡාවට	-3727
▁T	-3728
▁උරුම	-3729
▁වාසිය	-3730
ීත	-3731
▁පිටව	-3732
▁උපදේශක	-3733
▁වෙස	-3734
▁ජගත්	-3735
50	-3736
▁ලෝකයේ	-3737
▁විත්ති	-3738
බ්ලි	-3739
▁කොන්ද	-3740
▁පෙට්රල්	-3741
▁34	-3742
▁සාපේක්ෂ	-3743
▁උදය	-3744
▁හිමියන්ගේ	-3745
පෙ	-3746
▁අමතමින්	-3747
▁වීඩියෝ	-3748
▁කියන්නේ	-3749
▁අධිකරණයේ	-3750
▁පොලීසියේ	-3751
අද	-3752
▁වළ	-3753
▁දියත්	-3754
▁ලබාදීමේ	-3755
▁යතුරු	-3756
▁දෙවැනි	-3757
▁ප්රතිසංස්කරණ	-3758
කුර	-3759
වසර	-3760
▁දිස්	-3761
▁පළාත්වලත්	-3762
▁පුද්ගලයෙක්	-3763
▁මෛත්ර	-3764
▁තුනක්	-3765
▁යෙදී	-3766
▁විටින්	-3767
▁ප්රසන්න	-3768
▁ගඟ	-3769
▁උත්සවයකට	-3770
▁යතුරුපැදිය	-3771
නීය	-3772
වැන්ත	-3773
▁දියණිය	-3774
▁අභ්යන්තර	-3775
▁දත්ත	-3776
▁උපු	-3777
▁පැවැත්වූ	-3778
▁එමගින්	-3779
▁තියුණු	-3780
▁වීමේ	-3781
▁ප්රදර්ශනය	-3782
▁33	-3783
▁පැවසූ	-3784
න්ක	-3785
▁ඥාත	-3786
ඹිලි	-3787
▁කි්ර	-3788
▁එන්	-3789
▁කොරිය	-3790
▁කිරීමක්	-3791
ගැ	-3792
▁නායකත්වය	-3793
මිනුයි	-3794
▁සොයාගත්	-3795
▁අනුප	-3796
▁දැවැන්ත	-3797
▁කෙසේවෙතත්	-3798
▁අනූව	-3799
▁සමී	-3800
▁අනුමත	-3801
▁අධ්යයන	-3802
▁අමාත්යංශ	-3803
▁ස්ට	-3804
▁ගෘ	-3805
▁රංග	-3806
බ්ලිව්	-3807
▁ඇතුලත්	-3808
▁ලබාගත	-3809
▁යුරෝපා	-3810
▁ආකාරයෙන්	-3811
▁ලෙසටයි	-3812
▁විමසීමකදී	-3813
▁ලක්ෂ්මන්	-3814
▁අයට	-3815
▁කලාපයේ	-3816
▁මඩකල	-3817
ත්වයට	-3818
▁සොරකම්	-3819
▁70	-3820
ාස	-3821
▁ඉතිරි	-3822
▁කෙරෙනවා	-3823
▁යවා	-3824
එහිදී	-3825
▁ජනපද	-3826
▁තැබීමට	-3827
▁පොලිසියේ	-3828
පර	-3829
▁දක්වන	-3830
්ද	-3831
▁බහුතර	-3832
බලන	-3833
ම්ම	-3834
▁අවස්ථාවක	-3835
ෙත්	-3836
▁සැසි	-3837
▁මෛත්රිපාල	-3838
▁බැහැර	-3839
▁ලොකු	-3840
▁නිමල්	-3841
▁පාර්ශ්ව	-3842
▁අභි	-3843
▁දේවා	-3844
▁ආවරණය	-3845
▁ප්රබල	-3846
▁දිගු	-3847
මාධ්ය	-3848
සළ	-3849
▁සහිතව	-3850
▁ලී	-3851
ංග්ර	-3852
▁මහබැ	-3853
▁කවුන්සි	-3854
▁තිබීම	-3855
▁ගෙන්වා	-3856
ලන	-3857
▁සඟ	-3858
▁මට්ටම	-3859
▁කරගත්	-3860
al	-3861
▁කැද	-3862
▁පාසල	-3863
▁ජනරාල්වරයා	-3864
▁සරණ	-3865
▁සාමාජිකයන්	-3866
▁දෙහි	-3867
15	-3868
ස්ටර්	-3869
▁නිරෝධායන	-3870
ඩර්	-3871
▁සාපේක්ෂව	-3872
▁රැසකට	-3873
▁කප්පාද	-3874
▁අපනයන	-3875
▁අවහිර	-3876
▁කිහිපය	-3877
▁තරුණයා	-3878
ච්චිය	-3879
▁රණවිර	-3880
▁රථයකින්	-3881
▁රැසක	-3882
▁දෙයක්	-3883
▁මීටර්	-3884
▁කැළ	-3885
කී	-3886
කන්ද	-3887
▁37	-3888
ශ්රී	-3889
▁බැංකුවේ	-3890
ුදා	-3891
වැලි	-3892
▁වෘත්තිය	-3893
▁අම්බ	-3894
▁නං	-3895
▁විමර්ශනයක්	-3896
▁ලිපිය	-3897
ගම්	-3898
▁නිවසක	-3899
▁නාල	-3900
▁කන්න	-3901
▁ගැටී	-3902
▁අනුගමනය	-3903
පසු	-3904
▁ඉස	-3905
ික්ෂ	-3906
▁ශරීර	-3907
▁ගෝලීය	-3908
▁දෙකකට	-3909
▁කටයුතුවල	-3910
▁පිරිසකට	-3911
▁පරිමා	-3912
▁කියාසිටියේ	-3913
▁රතු	-3914
ලිත	-3915
▁මූලස්ථානය	-3916
▁වාර්තාවේ	-3917
ල්ලි	-3918
සන්ධ	-3919
▁ටික	-3920
▁තිබුණු	-3921
▁බඳවා	-3922
▁සිංගප්ප	-3923
▁ව්යාප්ත	-3924
▁විශ්වාසය	-3925
▁කලේ	-3926
▁වර්ජ	-3927
▁පත්වී	-3928
▁භික්ෂ	-3929
▁තාවකාලික	-3930
බැවින්	-3931
▁ට්	-3932
▁වරට	-3933
▁විශේෂත්වයක්	-3934
▁ශාන්ත	-3935
▁රණතුංග	-3936
▁මොහොමඩ්	-3937
▁රාම	-3938
▁කාණ්ඩ	-3939
▁නිදහස	-3940
▁වන්දි	-3941
19	-3942
දාළ	-3943
ධිකාරී	-3944
▁නිවාඩු	-3945
▁සැමියා	-3946
කරුවන්ගේ	-3947
▁කොස්තා	-3948
▁සංර	-3949
▁ඇතුළත	-3950
දායක	-3951
▁බැර	-3952
▁සිසුවා	-3953
▁ප්රධානී	-3954
▁සමගාමීව	-3955
▁කෙටි	-3956
▁සංචාරයක	-3957
▁ගබඩා	-3958
ලිනො	-3959
▁මැර	-3960
▁සටන්	-3961
රයක්	-3962
▁කරා	-3963
▁තායි	-3964
▁මාලි	-3965
▁තුන්වන	-3966
▁කතානායක	-3967
▁අනතුරෙන්	-3968
▁සුරක්ෂිත	-3969
▁ලබාදිය	-3970
▁වළක්වා	-3971
▁ගරු	-3972
▁පැද	-3973
ක්තිය	-3974
වරුන්ට	-3975
▁සංගම්	-3976
ලංගු	-3977
▁දිවි	-3978
▁වැඩපිළිවෙළක්	-3979
ාවත්	-3980
▁දරන	-3981
▁මනා	-3982
▁ආබාධ	-3983
▁ගල්කි	-3984
▁මඩකලපුව	-3985
රාගල	-3986
▁ශික්ෂණ	-3987
▁මැදිහත්	-3988
▁පාද	-3989
ජර්	-3990
දැක	-3991
▁යාපා	-3992
▁ඉස්	-3993
▁සංචාරකයින්	-3994
▁ත්රි	-3995
▁රෝගී	-3996
▁හන්ද	-3997
ගනිමින්	-3998
▁බැලීමට	-3999
▁ආරවු	-4000
▁විමසා	-4001
▁ජයසූරිය	-4002
▁කාම	-4003
▁හමු	-4004
▁ප්රසිද්ධ	-4005
▁ක්රියාත්මකයි	-4006
▁ඉක්මවා	-4007
▁ව්යාපාරය	-4008
විනි	-4009
ත්නම්	-4010
▁ප්රතිශ	-4011
▁බෙදාහැර	-4012
▁ගෞරව	-4013
▁පානදුර	-4014
▁එහිදි	-4015
▁හැට	-4016
▁උපවාස	-4017
සාද	-4018
▁දියුණු	-4019
විප	-4020
▁ඉරිදා	-4021
ගැන්	-4022
▁නිප	-4023
හේන	-4024
▁දෝෂ	-4025
▁නියු	-4026
ජීව	-4027
▁ජීව	-4028
▁දරණ	-4029
ීන්දු	-4030
▁අවබෝධ	-4031
වුඩ	-4032
ක්කු	-4033
▁විශි	-4034
▁අසත්ය	-4035
▁නීතිගත	-4036
දිවි	-4037
▁චක්ර	-4038
▁කාන්තාවක	-4039
▁ජූලි	-4040
▁දිස්ත්රික්කයෙන්	-4041
▁ඩු	-4042
▁නම	-4043
▁ගැනීමෙන්	-4044
▁මර	-4045
▁ඇඹිලි	-4046
▁තීන්දු	-4047
▁වේගය	-4048
▁අවලංගු	-4049
ණික්	-4050
▁ගුරුවරුන්	-4051
භාර	-4052
▁එහෙම	-4053
▁උතුරේ	-4054
▁වැඩබලන	-4055
ඛිත	-4056
▁කොස්තාපල්	-4057
ෑව	-4058
▁අඩි	-4059
▁නොකර	-4060
▁ගමනාගමන	-4061
▁වේද	-4062
▁කිලිනො	-4063
▁සිංගප්පූර	-4064
ද්දා	-4065
▁ඥාතීන්	-4066
▁චිත්රපට	-4067
▁දේශපාලනඥ	-4068
▁ගල්කිස්ස	-4069
පාලන	-4070
▁පරික්ෂණ	-4071
දන්	-4072
▁හැම	-4073
▁2023	-4074
▁රියදුරන්	-4075
▁කියනවා	-4076
▁කඩිනම්	-4077
▁කේර	-4078
▁දෙනෙක්	-4079
යෝ	-4080
▁දකුණ	-4081
▁වනජීවී	-4082
බදු	-4083
▁බලන	-4084
▁අභියාචනාධිකරණය	-4085
විටර්	-4086
▁එයට	-4087
▁අයහ	-4088
▁තුරු	-4089
es	-4090
▁කන	-4091
ල්ලක්	-4092
▁කොංග්ර	-4093
▁විශ්වවිද්යාලය	-4094
▁කාලසීම	-4095
යින්ගේ	-4096
හින්	-4097
▁බැසිල්	-4098
සියා	-4099
▁විධිමත්	-4100
දැයි	-4101
▁රඹු	-4102
▁ආනන්ද	-4103
▁ප්රජාතන්ත්රවාදී	-4104
▁38	-4105
▁වගකි	-4106
▁ජීවත්	-4107
▁මුර	-4108
▁කරුණානායක	-4109
සින්	-4110
▁මොක	-4111
▁හැරීමට	-4112
▁දිගින්	-4113
▁කිරීමටයි	-4114
▁නියෝජිතයන්	-4115
ෙකුට	-4116
▁අදියර	-4117
▁සියදිවි	-4118
▁මැඩ	-4119
▁දැනටමත්	-4120
▁සුම	-4121
▁පිපිර	-4122
▁ක්රීඩකයින්	-4123
▁පරාජය	-4124
▁සන්ධාන	-4125
▁ද්ර	-4126
▁පක්ෂයට	-4127
්ල	-4128
▁දයා	-4129
මන්ත්ර	-4130
▁යනුවෙන්	-4131
ැද	-4132
▁ගෘහ	-4133
▁විනය	-4134
▁දේපළ	-4135
▁යානා	-4136
▁අයහපත්	-4137
▁කිලෝමීටර්	-4138
මැත්ත	-4139
▁ට්විටර්	-4140
▁බලකායේ	-4141
▁අමාත්යංශයේ	-4142
▁සැලැස්	-4143
▁වනවිටත්	-4144
▁අවදානමක්	-4145
▁ප්රකාශකයෙකු	-4146
▁දිගටම	-4147
ිර්	-4148
▁පෑ	-4149
▁අකුණු	-4150
▁විසඳුමක්	-4151
▁ඉක්	-4152
▁විවේ	-4153
▁පණිවුඩ	-4154
▁මුලතිව්	-4155
▁වෙළද	-4156
▁යහපත්	-4157
▁කරගැනීමට	-4158
ල්ඩ්	-4159
විලි	-4160
මති	-4161
▁2016	-4162
▁ඉදිකර	-4163
හල	-4164
▁අල්	-4165
▁තරම්	-4166
▁මන්ත්රි	-4167
සම්	-4168
▁වියේ	-4169
▁උල්ලංඝණය	-4170
▁යනවා	-4171
▁වුවත්	-4172
▁48	-4173
▁මිලට	-4174
▁ආණ්ඩුවක්	-4175
▁199	-4176
▁කොළ	-4177
▁කමිටුවක්	-4178
▁නැමැති	-4179
පාදනය	-4180
▁ප්රච	-4181
▁විජය	-4182
▁උත්සහ	-4183
▁නවී	-4184
▁සුපිරි	-4185
▁සැලකිල්ලට	-4186
▁අඩංග	-4187
රයක	-4188
▁වැලික	-4189
▁කොළඹදී	-4190
▁ගොඩනැගිලි	-4191
යනික	-4192
▁උදා	-4193
▁සාගර	-4194
▁සංචිත	-4195
▁සාම්ප	-4196
▁ඉන්නවා	-4197
▁තිස්සේ	-4198
▁බිහි	-4199
▁පෙරළ	-4200
▁මැණික්	-4201
▁රූපවාහ	-4202
ජාල	-4203
▁මේක	-4204
▁මාත්රාව	-4205
▁42	-4206
▁වීමත්	-4207
▁සිහිප	-4208
▁සම්පූර්ණයෙන්ම	-4209
ංගොඩ	-4210
▁රණවක	-4211
▁එන්නත	-4212
▁ලබන්නේ	-4213
▁පිටුප	-4214
▁ඉහත	-4215
▁ආනයන	-4216
▁සත්කාර	-4217
▁පැවසුවා	-4218
▁වැටලීමකදී	-4219
▁ව්යවස්ථාව	-4220
▁සිහිපත්	-4221
▁කොටසක්	-4222
ත්වැ	-4223
▁ලැ	-4224
▁2019	-4225
▁වලදී	-4226
▁පුප	-4227
▁මොර	-4228
▁සපය	-4229
වද	-4230
ූන්	-4231
▁ඩුබායි	-4232
▁යුත්තේ	-4233
යත්	-4234
▁ඉගෙන	-4235
▁රැගත්	-4236
වුම්කරු	-4237
▁එබැවින්	-4238
▁තිර	-4239
ගාව	-4240
▁උපයෝගී	-4241
ර්ෂ	-4242
ෝද්ය	-4243
▁මිරි	-4244
▁පරික්ෂ	-4245
▁ලේඛන	-4246
▁නැවතත්	-4247
▁මුහුදේ	-4248
▁හරි	-4249
▁දර්ශන	-4250
▁ප්රතිලාභ	-4251
ක්ට	-4252
▁කෝප්	-4253
▁පේරා	-4254
▁ආදායම	-4255
බ්බ	-4256
ේස්	-4257
ට්රික්	-4258
▁සැසිවාර	-4259
▁2021	-4260
▁මඩුල්ල	-4261
▁ඇගය	-4262
ිපි	-4263
ිකාවන්	-4264
▁ප්රකාශකවරයා	-4265
▁B	-4266
▁වගකිව	-4267
▁නීතිපති	-4268
▁ඉන්දු	-4269
▁කරන්නට	-4270
▁ලෙසද	-4271
ූහ	-4272
වතිය	-4273
▁සමරවීර	-4274
▁එළි	-4275
▁වැඩසටහනක්	-4276
▁රූ	-4277
▁මගී	-4278
▁මාසය	-4279
▁වැටලීම්	-4280
ුද්ගල	-4281
▁කොට්ඨාශය	-4282
හොම	-4283
▁පැමිණියා	-4284
▁ලබාදෙමින්	-4285
්රි	-4286
▁ඒමට	-4287
සුන්දර	-4288
▁මරණයට	-4289
අදාළ	-4290
▁අනවසර	-4291
▁අනිද්දා	-4292
▁කොමසාරිස්වරයා	-4293
තිහාස	-4294
▁විකල්ප	-4295
▁සිදුවිය	-4296
▁සමාන	-4297
▁තියෙන්නේ	-4298
▁සිද්ධියෙන්	-4299
▁සේවාව	-4300
තිබ	-4301
රටුව	-4302
▁ඇයට	-4303
▁එක්වූ	-4304
▁ජනමාධ්ය	-4305
▁සංස්කෘතික	-4306
ou	-4307
▁පොරොන්දු	-4308
▁ඇඹිලිපිටිය	-4309
▁අබේවර්ධන	-4310
▁3ක්	-4311
▁දඬුවම්	-4312
▁දරුවන්ට	-4313
▁පෙන්නුම්	-4314
▁කිරීමටත්	-4315
▁500	-4316
ංගික	-4317
▁පහරදුන්	-4318
▁කාර්යාලයට	-4319
තල්	-4320
▁බවය	-4321
▁වුවහොත්	-4322
මතු	-4323
යාම	-4324
55	-4325
▁සිටීමට	-4326
යුක්ත	-4327
▁රක්ෂණ	-4328
කාරක	-4329
▁සෙබ	-4330
▁පටන්	-4331
තිහාසික	-4332
▁ඇමතිවරයා	-4333
ප්පු	-4334
▁තිබිණි	-4335
▁අඩංගු	-4336
▁බලපෑමක්	-4337
▁රැස්වීමට	-4338
▁අභාව	-4339
▁80	-4340
ුහ	-4341
▁යුතුය	-4342
▁කොට්ඨාසය	-4343
▁පැට	-4344
▁ගිණුම්	-4345
දුම	-4346
වැන්න	-4347
▁56	-4348
▁බලධාර	-4349
වන්නේ	-4350
ප්රිය	-4351
▁ආයතනවල	-4352
▁සේවාවන්	-4353
10	-4354
▁ගෙවීමට	-4355
▁ජයරත්න	-4356
▁ඔය	-4357
▁විගණ	-4358
▁නේවාස	-4359
▁පැවැත්වෙනවා	-4360
මහ	-4361
▁ගැනි	-4362
▁වාරි	-4363
ක්වැල්ල	-4364
ංගල්ල	-4365
▁පුහුණුව	-4366
වළු	-4367
නුකූල	-4368
▁එක්ක	-4369
මැත්තා	-4370
▁ජනාධිපතිවරණය	-4371
▁නොවූ	-4372
▁බලතල	-4373
▁කසළ	-4374
▁සත්ව	-4375
▁අයෙක්	-4376
ස්තර	-4377
▁පුව	-4378
▁පිවිස	-4379
ෙසා	-4380
▁පන්	-4381
විනිස	-4382
දුන්නේය	-4383
▁කපා	-4384
▁පැළ	-4385
▁ගිවිසුම්	-4386
ක්ස්	-4387
මාගම	-4388
ුවදොර	-4389
▁විශ්රාමික	-4390
▁සැබ	-4391
▁ගියේ	-4392
▁කාර්මික	-4393
යකදී	-4394
▁ලිඛිත	-4395
▁ඉංජිනේරු	-4396
▁වවු	-4397
▁කම්ප	-4398
▁ත්රිප	-4399
▁සංස	-4400
le	-4401
▁ශිල්ප	-4402
▁පූජ	-4403
▁සාධක	-4404
රද	-4405
▁ඇල්ල	-4406
▁කොස්	-4407
▁මෙට්රික්	-4408
▁තේරීම්	-4409
▁ගාස්තුව	-4410
▁වෛරස	-4411
ලියගොඩ	-4412
යෙකි	-4413
▁ඇෆ්	-4414
▁ප්රජාව	-4415
▁ගැල	-4416
ණන්	-4417
▁ලෙ	-4418
▁ජුනි	-4419
▁වරක්	-4420
▁සාමය	-4421
▁පරිගණ	-4422
▁පුනර	-4423
▁වසමේ	-4424
▁පිරවුම්හල්	-4425
▁සුවි	-4426
▁නාමල්	-4427
▁සිදුවීම්	-4428
▁ඉර	-4429
▁තබාගෙන	-4430
▁දිස්ත්රික්කවලත්	-4431
▁කඳු	-4432
▁අවශ්යතා	-4433
▁කඩුව	-4434
▁අරලිය	-4435
ුන්ද	-4436
ගත්තේ	-4437
▁සළ	-4438
▁සම්බන්ධී	-4439
▁අවස්ථාවක්	-4440
▁ඉතිහාසයේ	-4441
▁එච්	-4442
▁ඝාතන	-4443
▁පදනම	-4444
▁දැමීම	-4445
▁අදහ	-4446
▁නැරඹීමට	-4447
▁කොල්ලක	-4448
▁සික	-4449
▁වාණිජ	-4450
▁දෙනෙකුගෙන්	-4451
▁ඉදි	-4452
▁ජයසේකර	-4453
▁ප්රතිශත	-4454
▁සම්මන්ත්ර	-4455
▁ඉන්දියානු	-4456
▁අධිකරණයෙන්	-4457
▁දෙනු	-4458
▁සරණාගත	-4459
▁මුදාහැර	-4460
▁L	-4461
▁අවසාන	-4462
ක්ෂික	-4463
▁චෝදන	-4464
▁කිරිමේ	-4465
▁තත්ත්වයන්	-4466
▁2017	-4467
▁තරුණිය	-4468
▁හමුවේදී	-4469
▁ඓ	-4470
තරගම	-4471
ුරුද	-4472
▁ඇගේ	-4473
▁පහසු	-4474
▁කඳවුරේ	-4475
▁අරමුදලේ	-4476
▁සුරා	-4477
▁උදෙසා	-4478
▁පිළිය	-4479
▁ගම්මන්	-4480
or	-4481
▁මස්	-4482
▁අපගේ	-4483
▁රාජකාරි	-4484
▁හං	-4485
▁දෛනික	-4486
▁සංවාද	-4487
ර්මා	-4488
▁සියළු	-4489
ඤ්	-4490
ලියේ	-4491
▁එළවළු	-4492
▁නිලධාරි	-4493
▁මෑ	-4494
ේරත්න	-4495
▁පිති	-4496
▁ද්රවිඩ	-4497
▁දරුවෙකු	-4498
▁සටහන	-4499
▁සිටීම	-4500
▁කොන්දේ	-4501
▁දැනුම්දී	-4502
▁අන්තර්ජාල	-4503
▁ජනාධිපතිවරයාට	-4504
▁බොරැල්ල	-4505
▁විරුද්ධව	-4506
▁කරුණාරත්න	-4507
▁සිසුන්ට	-4508
ඥා	-4509
ිකරුවන්	-4510
▁අගවිනිස	-4511
▁තර්ජනය	-4512
▁උණ	-4513
▁නිමි	-4514
▁සම්පාදන	-4515
▁සිදුකරනු	-4516
ධන	-4517
මහා	-4518
කාමී	-4519
▁දීමේ	-4520
▁තියෙන	-4521
▁භාණ්ඩාගාර	-4522
ට්ස්	-4523
▁පාලම	-4524
යං	-4525
▁බිම්	-4526
▁නිරීක්ෂණ	-4527
▁එතුමා	-4528
▁මොණ	-4529
▁කාලීන	-4530
▁ගුණරත්න	-4531
▁ඓතිහාසික	-4532
සුම	-4533
▁චාර	-4534
▁අයුරු	-4535
ෑමේ	-4536
හනේ	-4537
▁ඇන්	-4538
සැක	-4539
▁පරිමාණ	-4540
▁කටයුතුවලට	-4541
ඤ්ඤ	-4542
▁පෝෂ	-4543
▁කොමිසමට	-4544
▁මහජනතාව	-4545
▁39	-4546
ල්ස්	-4547
▁ප්රහාරයට	-4548
ඝ්ර	-4549
න්යා	-4550
දරු	-4551
පතට	-4552
▁නිශාන්ත	-4553
කමක්	-4554
▁චම්ප	-4555
▁පේරාදෙණිය	-4556
▁සෘ	-4557
වුල්	-4558
▁රහස්	-4559
▁ඉන්දියාවට	-4560
▁සඟවා	-4561
▁ගව	-4562
වෙන	-4563
ින්ම	-4564
ගොල්ල	-4565
▁අවුරුද	-4566
▁මහත්වරුන්	-4567
▁තමිල්නාඩු	-4568
▁නායකයා	-4569
▁65	-4570
මීන්	-4571
▁ගුණසේකර	-4572
▁සාකච්ඡාවකදී	-4573
ගනි	-4574
▁නගරා	-4575
එමෙන්ම	-4576
▁දුරටත්	-4577
▁මේජර්	-4578
▁බැලූ	-4579
▁වැඩම	-4580
▁රාජකාර	-4581
▁අඩංගුවට	-4582
▁හෝමාගම	-4583
හද	-4584
ෙරුම	-4585
▁ධාරි	-4586
▁මැතිවරණයට	-4587
ාප්ත	-4588
▁උද්ඝෝෂණය	-4589
▁තරඟය	-4590
▁ඩබ්ලිව්	-4591
ශ්චිත	-4592
▁බස	-4593
▁හු	-4594
අනතුර	-4595
▁විකි	-4596
▁සියඹ	-4597
▁ජිවිත	-4598
▁වසන්ත	-4599
▁අර්ධ	-4600
45	-4601
රණි	-4602
▁උද්ය	-4603
▁පාසලේ	-4604
▁කි්රයා	-4605
▁H	-4606
▁එජ	-4607
▁වෛරස්	-4608
▁ගමගේ	-4609
ලාල්	-4610
▁හිමිකරු	-4611
ඔහු	-4612
▁මල	-4613
▁ශ්රමික	-4614
▁සිදුකෙරෙන	-4615
▁විතර	-4616
▁පෙත්සමක්	-4617
▁නමින්	-4618
චනය	-4619
▁චක්රලේඛ	-4620
▁රේග	-4621
▁ලබයි	-4622
▁ප්රදානය	-4623
රෝද	-4624
▁සිරුරු	-4625
▁සමුළුවට	-4626
▁මාධ්යවේද	-4627
▁ආශ	-4628
▁පැත්ත	-4629
▁පේ	-4630
▁වීසා	-4631
▁කතරගම	-4632
▁F	-4633
▁ලාභ	-4634
▁වේලාව	-4635
▁උල්ලංඝනය	-4636
▁පදිංචිකරුවෙක්	-4637
න්ත්රික	-4638
▁බන්ධනාගාරයේ	-4639
▁G	-4640
පාදිත	-4641
▁චම්පික	-4642
▁පැමිණීම	-4643
▁මොණරාගල	-4644
▁පුද්ගලයින්ට	-4645
▁කේරළ	-4646
▁ප්රවර්ධන	-4647
ක්රීය	-4648
ළඟ	-4649
නගේ	-4650
▁පරිගණක	-4651
▁ව්යාප්	-4652
ළිඳ	-4653
▁සිදුකිරීම	-4654
▁4ක්	-4655
▁යුද්ධය	-4656
වතුර	-4657
▁සිකුරාදා	-4658
▁පානය	-4659
▁උද්ඝෝෂණ	-4660
▁යෝජිත	-4661
▁වාය	-4662
▁වෙනි	-4663
වය	-4664
▁එකේ	-4665
▁උණ්ඩ	-4666
▁පිටි	-4667
ෘද්ධ	-4668
▁පති	-4669
ානම්	-4670
ක්ෂම	-4671
▁දූෂණය	-4672
▁ඇමෙරිකා	-4673
▁ප්රමිතිය	-4674
▁කීවේ	-4675
▁හුවමාරු	-4676
▁ඉවත	-4677
▁පර්	-4678
▁කියන්න	-4679
කරුව	-4680
▁නියුක්ති	-4681
▁ස්ථානවලට	-4682
▁සිද්ධීන්	-4683
ුදෙනු	-4684
▁ජීවන	-4685
▁මට්ටමේ	-4686
▁අත්හිටුවීමට	-4687
පල	-4688
▁ධුරයෙන්	-4689
▁අනුයුක්ත	-4690
▁අතුරුදන්ව	-4691
හොය	-4692
▁නානා	-4693
▁කලාපය	-4694
ප්පෙරුම	-4695
▁සමාගමට	-4696
▁දිස්ත්රී	-4697
▁පාකිස්තා	-4698
▁සංවිධා	-4699
▁ඉල්ලමින්	-4700
▁අන්ද	-4701
▁ආරවුලක්	-4702
▁55	-4703
▁ධම්	-4704
▁300	-4705
▁පුද්ගලයෙකුට	-4706
▁අත්යාව	-4707
▁යෝජනාවක්	-4708
▁කරගැනීම	-4709
▁අතින්	-4710
න්නිවේද	-4711
▁දවස	-4712
ත්තුව	-4713
▁අධ්යය	-4714
▁ජීවත්ව	-4715
▁පෙන්වාදුන්නේය	-4716
ඟු	-4717
ගිරි	-4718
▁ලාංකිකයින්	-4719
යක්කාර	-4720
▁පූර්ව	-4721
▁මිතුර	-4722
▁දියේ	-4723
▁කිසිම	-4724
▁ප්රතිපත්තිය	-4725
▁සමෘද්ධ	-4726
▁ස්ථානවල	-4727
▁සහගත	-4728
▁විරෝධතාකරුවන්	-4729
▁ජාවාරම	-4730
▁අවධානයක්	-4731
කිරීමේ	-4732
▁සොරා	-4733
▁විනිමය	-4734
▁ඉදිරිපත්ව	-4735
හිම	-4736
▁පල්ල	-4737
ing	-4738
▁ටැ	-4739
▁අළු	-4740
▁බේර	-4741
▁වර්ෂයේ	-4742
▁ආයතනයක්	-4743
▁එයින්	-4744
▁නානායක්කාර	-4745
වික්රම	-4746
▁භූමිය	-4747
▁පාලිත	-4748
▁වරායේ	-4749
ොට්	-4750
ri	-4751
▁44	-4752
▁ඇතුලූ	-4753
▁පෙරහැර	-4754
▁සන්නිවේද	-4755
▁43	-4756
▁ගොඩනැගිල්ල	-4757
▁ප්රහාරයෙන්	-4758
▁දරු	-4759
▁සවි	-4760
ංචන	-4761
▁ලිංගික	-4762
▁කූ	-4763
▁පත්වුණා	-4764
▁අත්යාවශ්ය	-4765
ලිස්	-4766
▁ගැටළුව	-4767
▁ත්රීරෝද	-4768
▁සංකීර්ණය	-4769
▁රාජකාරී	-4770
▁ක්රියාකාරී	-4771
▁කාරිය	-4772
30ට	-4773
▁කරුණක්	-4774
එන්	-4775
▁වහා	-4776
▁තේරී	-4777
්ම	-4778
වසම්	-4779
▁අගමැතිවරයා	-4780
පන	-4781
▁කැඳවූ	-4782
▁සිලින්	-4783
තූ	-4784
ණික	-4785
ාවිද්ය	-4786
▁D	-4787
▁කුමන	-4788
▁නාශක	-4789
▁නිෂ්පාදිත	-4790
බර	-4791
හිට	-4792
▁කාර්යාලයේදී	-4793
▁ශ්රේෂ්ඨාධිකරණ	-4794
▁පිරිනැම	-4795
▁හේතුවක්	-4796
දුරා	-4797
▁තංගල්ල	-4798
▁අරලියගහ	-4799
▁ගාමිණී	-4800
මනය	-4801
සන්ත	-4802
▁සුවිශේෂ	-4803
දූව	-4804
▁ගංවතුර	-4805
තොට	-4806
▁5ක්	-4807
▁2012	-4808
▁පත්වන	-4809
▁සඳුදා	-4810
▁ලැබුණා	-4811
▁ලු	-4812
▁පණිවිඩ	-4813
▁මොරටුව	-4814
▁හින්	-4815
▁රහිත	-4816
▁සියලුදෙන	-4817
නන්	-4818
▁අතු	-4819
ෙලා	-4820
▁සැපයුම්	-4821
කුග	-4822
▁පවසන	-4823
▁සමහර	-4824
▁මානසික	-4825
▁සංවිධානාත්මක	-4826
▁එදා	-4827
▁ආරාධනා	-4828
ුවන්ගොඩ	-4829
▁කර්මාන්තය	-4830
කාලීන	-4831
▁රාජ්යයේ	-4832
ිල්	-4833
▁ඇල	-4834
▁ආගමන	-4835
▁සිරුරක්	-4836
ොස	-4837
▁මහවැලි	-4838
▁පාව	-4839
▁අපයෝජ	-4840
▁කැමැත්ත	-4841
න්තය	-4842
▁භාරදී	-4843
▁නාමයෝජ	-4844
දෙව්	-4845
▁යථා	-4846
ර්ජන	-4847
▁උළෙ	-4848
ානන්ද	-4849
▁අත්දැක	-4850
▁ඇෆ්ගනි	-4851
▁කාබ	-4852
ිපිටි	-4853
▁පහරද	-4854
▁ජලයෙන්	-4855
▁භාවිතය	-4856
▁මැතිතුමා	-4857
හලේ	-4858
▁සවස්	-4859
▁යයි	-4860
වැටි	-4861
▁විශිෂ්ට	-4862
සීය	-4863
ෙකුද	-4864
▁කාර්යාංශයේ	-4865
▁ඇල්	-4866
▁එකට	-4867
▁විගමන	-4868
▁සාකච්ඡාවේදී	-4869
▁47	-4870
▁සන්ත	-4871
▁හැරීම	-4872
▁පුරාවිද්ය	-4873
කගේ	-4874
පාර්	-4875
▁මුණ	-4876
▁හත	-4877
ීර්ති	-4878
▁වරෙන්	-4879
▁ඩය	-4880
▁මහකො	-4881
▁දුම්ර	-4882
▁දම	-4883
▁සර්ව	-4884
පසුගිය	-4885
දීන්	-4886
▁වෙල	-4887
▁කිරිපිටි	-4888
▁රෝද	-4889
▁හමුදාවට	-4890
▁දශ	-4891
▁වෙළඳපොළ	-4892
බඳ	-4893
ගන්	-4894
▁46	-4895
ුමැද	-4896
▁වැල	-4897
▁ගම්මන්පිල	-4898
හරණය	-4899
ිකිර	-4900
▁ප්රතිව්ය	-4901
▁මහරගම	-4902
▁කාසියේ	-4903
▁පුනරුත්	-4904
▁යෝජනාවට	-4905
▁හිඟය	-4906
▁තිදෙනා	-4907
▁නිවසක්	-4908
▁විමසීමක්	-4909
එසේ	-4910
▁තන	-4911
ජාතික	-4912
▁අක්රම	-4913
▁පරාජයට	-4914
▁වකුග	-4915
▁සංස්ථාවේ	-4916
▁ස්වයං	-4917
▁තුන්දෙනෙකු	-4918
ජේ	-4919
▁සින	-4920
ෙන්නට	-4921
▁උත්සවයට	-4922
▁නොපැ	-4923
▁මනු	-4924
▁හුද	-4925
▁හොරණ	-4926
▁අලුත්ගම	-4927
▁මිනුවන්ගොඩ	-4928
▁වාර්තාවී	-4929
ට්ය	-4930
▁සීනි	-4931
▁උත්තර	-4932
▁මහකොමසාරිස්	-4933
ංකො	-4934
ප්පා	-4935
ාරාම	-4936
▁විකිණ	-4937
ාවැ	-4938
▁මඟ	-4939
▁විද්යාඥ	-4940
▁නාමයෝජනා	-4941
▁හදු	-4942
▁යාත්රාව	-4943
▁මොහොතේ	-4944
වරන්	-4945
▁විද	-4946
▁දිනට	-4947
▁ප්රදී	-4948
▁බැති	-4949
▁නොකිරීම	-4950
▁ත්රස්තවාදය	-4951
▁ත්රිපුද්ගල	-4952
▁ඇරඹ	-4953
යන්හි	-4954
▁කැඳවීමට	-4955
සිදු	-4956
▁පැයට	-4957
▁වර්තමාන	-4958
▁කාරියවසම්	-4959
▁ප්රදේශයේම	-4960
▁කැඳවුම්කරු	-4961
▁පදිංචිකරුවෙකු	-4962
▁සහයෝගී	-4963
▁දරුවන්ගේ	-4964
▁විහාරස්ථානය	-4965
මාව	-4966
▁දෙමා	-4967
▁තත්වයක්	-4968
ාජ්	-4969
▁රැඳවියන්	-4970
▁බලපා	-4971
ගනු	-4972
▁ඥා	-4973
▁රහ	-4974
තියට	-4975
▁ගාලු	-4976
▁සිටී	-4977
ඹේ	-4978
ොඩි	-4979
ිකාර	-4980
▁ආක	-4981
ඇල්ල	-4982
මෙ	-4983
▁තනි	-4984
▁ශී්ර	-4985
▁දුමින්ද	-4986
▁යතුරුපැදි	-4987
▁කිහිපදෙනෙකු	-4988
▁ලිට	-4989
▁නගරාධිපති	-4990
නයකට	-4991
▁ප්රචාරක	-4992
තරම්	-4993
▁නිළධාර	-4994
▁හිඟයක්	-4995
it	-4996
om	-4997
රැ	-4998
▁රටක	-4999
▁කුමන්ත්ර	-5000
▁198	-5001
▁ගසා	-5002
▁වැළැක්වීමේ	-5003
ාගෙන්	-5004
▁රජයෙන්	-5005
යකි	-5006
▁එජාප	-5007
ෙන්නා	-5008
ණයේදී	-5009
▁බැරි	-5010
▁තෙන්න	-5011
▁කිව්වා	-5012
▁යාමෙන්	-5013
▁මුලික	-5014
▁රසායනික	-5015
▁කිසිවෙකු	-5016
▁මරා	-5017
▁ඇතිවන	-5018
▁මංසන්ධ	-5019
ෙනුයි	-5020
භංග	-5021
▁අතරම	-5022
ෝල්	-5023
▁හටගත්	-5024
▁පෝලිම්	-5025
ඩියා	-5026
▁පාරේ	-5027
▁කීවේය	-5028
▁කඩුවෙල	-5029
වුණා	-5030
▁ශූර	-5031
▁ජනබල	-5032
▁යූ	-5033
▁වායු	-5034
▁සිසු	-5035
▁සැරයන්	-5036
▁සංරක්ෂණ	-5037
▁උතුරුමැද	-5038
▁ගැටලුවක්	-5039
ස්ය	-5040
▁ෆයි	-5041
▁ප්රවී	-5042
▁දායකත්වය	-5043
11	-5044
▁හත්	-5045
▁දුර්	-5046
▁කැණ	-5047
▁පුද්ගලයාගේ	-5048
ලිත්	-5049
නාධාර	-5050
▁ජපානය	-5051
▁දශම	-5052
▁කටයුත්තක්	-5053
හුව	-5054
▁තවද	-5055
▁තත්ත්වයේ	-5056
▁ධන	-5057
▁දමන	-5058
▁2014	-5059
▁R	-5060
▁දෙහිවල	-5061
▁පවත්නා	-5062
▁යන්නේ	-5063
▁පරිත්යාග	-5064
වතී	-5065
කටයුතු	-5066
ට්ටේ	-5067
්රාහ	-5068
කුමාර	-5069
ුරුවා	-5070
▁හිස්	-5071
▁චන්දි	-5072
▁හමුවූ	-5073
ටම්	-5074
▁පිටුපස	-5075
▁රාත්රි	-5076
▁10ක්	-5077
▁සුනිල්	-5078
▁පත්වීම්	-5079
▁නිමිත්තෙන්	-5080
▁හෝටල	-5081
▁සමාජය	-5082
▁49	-5083
යෙකුට	-5084
▁වාරිමාර්ග	-5085
▁මෙහිදි	-5086
▁පාක්ෂික	-5087
▁රාජපක්ෂගේ	-5088
▁වෙනසක්	-5089
▁අවධානයෙන්	-5090
▁මිලිමීටර්	-5091
▁නොත	-5092
▁හැද	-5093
▁බලපෑම	-5094
▁අවතැන්	-5095
ඩිස්	-5096
▁වර්ණ	-5097
▁සරස	-5098
▁ජපාන	-5099
▁සිරිපාල	-5100
▁ගහ	-5101
▁ආපසු	-5102
▁සැළසුම්	-5103
භෝජ	-5104
▁පැහැරගෙන	-5105
▁ශිෂ්යත්ව	-5106
▁ජර්	-5107
▁රිමාන්	-5108
▁දැක්වීම	-5109
▁විජේසේකර	-5110
▁ප්රශ්නයක්	-5111
▁මධ	-5112
▁වත්තල	-5113
▁සමීප	-5114
▁සාමාන්යා	-5115
ලන්තය	-5116
දුණු	-5117
▁2011	-5118
▁ගොනුකර	-5119
▁විවාදය	-5120
▁පෑලියගොඩ	-5121
▁ක්රියාමාර්ගය	-5122
තීන්	-5123
චන්ද්ර	-5124
පතා	-5125
▁41	-5126
තාල	-5127
මාල්	-5128
▁අවදානම්	-5129
▁සහනාධාර	-5130
▁තරුණියන්	-5131
▁ඇත්	-5132
▁මුව	-5133
▁දහස්	-5134
▁මාලදි	-5135
▁150	-5136
▁පුත්ර	-5137
he	-5138
වකට	-5139
වරයෙක්	-5140
▁පුද්ගලයකු	-5141
▁විරෝධතාවයේ	-5142
නාම	-5143
▁තහනම	-5144
▁ලෙසින්	-5145
▁සාකච්ඡාවකට	-5146
▁විහාරස්ථානයේ	-5147
වාන	-5148
▁බඩ	-5149
▁අදත්	-5150
▁ලංගම	-5151
▁විශ්වාසභංග	-5152
▁ඉතාම	-5153
▁සමුද	-5154
▁අවියක්	-5155
▁විනාඩි	-5156
▁හානියක්	-5157
▁ව්යාප්තිය	-5158
▁නිශ්චිත	-5159
වම	-5160
ුප්	-5161
▁පැරණි	-5162
▁භාරයේ	-5163
▁සැකපිට	-5164
▁ප්රචණ්ඩ	-5165
▁අර්ථ	-5166
▁සලසා	-5167
▁ජයසුන්දර	-5168
▁නැමති	-5169
▁සමෘද්ධි	-5170
▁ජීවිතය	-5171
▁රැස්වීමේදී	-5172
▁නිරන්තර	-5173
▁සේනානායක	-5174
ජීවි	-5175
▁සතුට	-5176
ථාප	-5177
▁හදි	-5178
▁පෙම්	-5179
▁අරමුණු	-5180
තැන	-5181
ුවේදී	-5182
▁අකුර	-5183
▁සැලස	-5184
▁වකුගඩු	-5185
▁විශාලතම	-5186
▁කළමනාකරණය	-5187
▁වාර්තාකරුවන්	-5188
▁සෙබළ	-5189
▁ජයන්ත	-5190
▁ලිට්රෝ	-5191
▁අක්රමික	-5192
ැස්ස	-5193
විත්ර	-5194
▁ටැංක	-5195
▁කරගත	-5196
▁හෝටල්	-5197
හිමියන්	-5198
▁කුරු	-5199
▁සංහි	-5200
ප්රාප්ත	-5201
▁සංචාරයක්	-5202
▁බැස	-5203
▁තුර	-5204
▁කණුව	-5205
▁සැබෑ	-5206
▁ගතව	-5207
▁සමරසිංහ	-5208
▁ඇණ	-5209
▁එකමු	-5210
▁බලාපොරො	-5211
නෝ	-5212
▁සෙනෙ	-5213
චන	-5214
මීටර	-5215
▁දඩුව	-5216
ුනා	-5217
▁වාස	-5218
▁ගෙවා	-5219
▁භූමියේ	-5220
▁රණසිංහ	-5221
▁අතුරුදහන්	-5222
▁ආයුධයකින්	-5223
ඩාව	-5224
▁2ක්	-5225
▁ක්රමවේදය	-5226
▁පුරප්පා	-5227
▁ප්රජාතන්ත්රවාදය	-5228
▁2018	-5229
▁විශේෂයෙන්ම	-5230
▁අණ	-5231
▁ඇළ	-5232
වන්ත	-5233
▁නෞකා	-5234
ාරක්ෂක	-5235
▁පහරදීමට	-5236
▁සුරාබදු	-5237
▁ක්රියාවට	-5238
▁සම්මේලනය	-5239
▁වැඩපිළිවෙල	-5240
පාත	-5241
▁සමගින්	-5242
▁දැරියගේ	-5243
▁බැතිමතු	-5244
එච්	-5245
▁වන්දනා	-5246
යාය	-5247
▁අංකය	-5248
▁ප්රධානීන්	-5249
000ක	-5250
▁ජොන්	-5251
▁සන්නිවේදන	-5252
▁52	-5253
▁වසංගතය	-5254
▁පසුබිමක	-5255
▁ජනාධිපතිවරණ	-5256
▁මන්ත්රීවරයෙකු	-5257
ෆා	-5258
▁t	-5259
▁දුරකතන	-5260
▁ප්රියන්ත	-5261
▁සයිටම්	-5262
▁විනිසුරුවරයා	-5263
▁සියලූම	-5264
▁වගකීමක්	-5265
▁ව්යවස	-5266
▁පිරිසට	-5267
▁ගණනක්	-5268
▁වන්නි	-5269
▁පවතින්නේ	-5270
▁වැඩපිළිවෙලක්	-5271
නීප	-5272
▁ඵල	-5273
▁ශ්රේණ	-5274
▁සෝදිසි	-5275
▁පහරදීමේ	-5276
▁කාන්තාවගේ	-5277
▁ජාති	-5278
▁අත්අඩංග	-5279
ෂ්ප	-5280
ටික්	-5281
ලාන්	-5282
▁පස	-5283
▁තිරි	-5284
▁දේවල්	-5285
ම්පිටිය	-5286
▁ක්රමවේදයක්	-5287
▁මූලස්ථානයේ	-5288
▁බන්ධනාගාරගත	-5289
▁යුග	-5290
▁අධීක්ෂණය	-5291
▁ඉංග	-5292
▁වුණ	-5293
▁නංවා	-5294
▁සොලි	-5295
▁ග්රාමීය	-5296
සාන	-5297
▁ගතකර	-5298
▁අසී	-5299
▁මර්දනය	-5300
▁මෙන්ඩිස්	-5301
▁ක්රියාකාරකම්	-5302
ජුව	-5303
ියංග	-5304
තෘ	-5305
▁වේල	-5306
▁බලයට	-5307
▁මංගල්ය	-5308
▁හෙට්ටි	-5309
▁පිහිටා	-5310
▁ශ්රේණි	-5311
▁හානිකර	-5312
▁කොන්දේසි	-5313
ස්ටන්	-5314
▁උළෙල	-5315
▁ධාවන	-5316
▁E	-5317
▁කිසිවක්	-5318
▁ජාතිකයින්	-5319
යී	-5320
ිකො	-5321
▁සම්ප්ර	-5322
▁ශාඛ	-5323
▁සජීවී	-5324
▁අභාවප්රාප්ත	-5325
▁නිශ්	-5326
▁බලහ	-5327
විරත්න	-5328
▁නෞකාවේ	-5329
▁ක්ෂේත්රය	-5330
▁අපහසුතාව	-5331
▁දිනකට	-5332
▁ජනප්රිය	-5333
▁බොරතෙල්	-5334
ොක්	-5335
▁යාපනයේ	-5336
▁කුමාර්	-5337
▁සිලින්ඩ	-5338
▁එකින	-5339
▁විරහිත	-5340
▁සැපයීම	-5341
▁සන්තකයේ	-5342
▁ඇඳුම්	-5343
තුමන්	-5344
▁අවදානම	-5345
▁යුක්රේනයේ	-5346
වාය	-5347
ion	-5348
ග්රෑම්	-5349
▁ආරක්ෂණ	-5350
▁කෙරෙනු	-5351
▁අත්හිටුවන	-5352
ww	-5353
ග්න	-5354
▁දරා	-5355
▁උපයා	-5356
▁දිනයක්	-5357
▁චන්ද	-5358
▁ගම්මාන	-5359
▁වැලිකඩ	-5360
▁පුනරුත්ථාප	-5361
▁යෑම	-5362
▁ළඟා	-5363
▁අනුපාත	-5364
▁කොදෙව්	-5365
▁නැංවීමට	-5366
▁පිළිගත්	-5367
▁දෙපාර්තමේන්තු	-5368
ගාමී	-5369
භා	-5370
▁ඇතත්	-5371
තාවරණය	-5372
▁වර්තමානයේ	-5373
▁සෞදි	-5374
▁තිල	-5375
▁නොවේ	-5376
▁හඬ	-5377
▁දැනුම	-5378
▁විරෝධතාවක	-5379
▁වැව	-5380
ෝපදේශ	-5381
▁මැලේ	-5382
▁ප්රාන්තයේ	-5383
▁ඇමතුම්	-5384
▁නුගේ	-5385
▁ස්වර්	-5386
ේත	-5387
▁පන්ති	-5388
▁ජලාශයේ	-5389
ාවන්ට	-5390
▁හින්දු	-5391
▁නායකවරයා	-5392
ාධිපති	-5393
▁අවිස්ස	-5394
▁නොහැකිව	-5395
▁සුසිල්	-5396
▁සම්මානය	-5397
▁සුදානම්	-5398
▁ස්වාමීන්	-5399
▁ජයවර්ධනපුර	-5400
▁ත්රස්තවාදී	-5401
ාගැන	-5402
▁වෙනම	-5403
ච්ඡ	-5404
▁හරස්	-5405
▁අරාබි	-5406
▁විඳ	-5407
▁අවස්ථාවල	-5408
භරණ	-5409
▁ටෙලි	-5410
▁ගැනීම්	-5411
▁කොමිසන්	-5412
▁සියලුදෙනා	-5413
▁අංග	-5414
ත්තන්	-5415
▁හොඳම	-5416
▁අපහාස	-5417
▁තෙන්නකෝන්	-5418
▁කළද	-5419
▁තරුණයින්	-5420
▁රැස්වීමක්	-5421
තැ	-5422
▁දුම්වැටි	-5423
▁වැළැක්වීම	-5424
25	-5425
්යා	-5426
▁සූර	-5427
▁එනම්	-5428
▁තිස්	-5429
ුපිටිය	-5430
▁මාවතේ	-5431
▁හදුනා	-5432
▁මාර්ගෝපදේශ	-5433
තලාව	-5434
▁වතුර	-5435
▁ජපානයේ	-5436
ධිර	-5437
ේන්	-5438
▁එල්ලවී	-5439
▁සිදුනො	-5440
▁නේවාසික	-5441
▁රිමාන්ඩ්	-5442
▁නොතිබ	-5443
▁මොකද	-5444
▁කාලසීමාව	-5445
▁අමාත්යවරයාගේ	-5446
ැඹ	-5447
දරව්	-5448
▁2010	-5449
▁තදබද	-5450
▁පිළිකා	-5451
▁නිවේදනයක	-5452
▁පුරාවිද්යා	-5453
ප්පුව	-5454
▁වර්ෂාව	-5455
▁අනතුරක්	-5456
ෂී	-5457
ුදින	-5458
▁ඉරා	-5459
▁නෙළ	-5460
උත්තර	-5461
▁දක්ෂිණ	-5462
▁ඔබට	-5463
▁අයිස්	-5464
▁පාසල්වල	-5465
▁සැමරුම්	-5466
▁සෑ	-5467
▁අලාභ	-5468
▁කිසිසේ	-5469
▁තනතුරු	-5470
▁පහතින්	-5471
▁නොසන්	-5472
▁වාතාවරණය	-5473
ශය	-5474
▁ඉවතට	-5475
▁ගැන්	-5476
▁නියාමන	-5477
▁ඔබ්බ	-5478
▁සැලකිය	-5479
ලුම්	-5480
▁රේගුව	-5481
▁අධ්යයනය	-5482
▁බලහත්කාර	-5483
▁මිනිසුන්	-5484
▁ඔබේ	-5485
▁ඇමෙරිකානු	-5486
දුව	-5487
නත්	-5488
▁අලුතින්	-5489
ලෙන්	-5490
▁මතය	-5491
▁පූජා	-5492
▁භූමි	-5493
▁පිටත්	-5494
▁ජනබලවේග	-5495
▁ප්රගතිය	-5496
▁සාමකාමී	-5497
00ක	-5498
▁54	-5499
▁197	-5500
▁කැබ්	-5501
▁නොමි	-5502
▁පත්රය	-5503
මන්ත	-5504
▁කොටස	-5505
▁දිස්ත්රික්කය	-5506
22	-5507
▁W	-5508
ග්රාහ	-5509
▁කතාව	-5510
▁මනාප	-5511
ාවේල්ල	-5512
▁බවටත්	-5513
▁සේවාවක්	-5514
න්ධි	-5515
ිටල්	-5516
▁නඩුවේ	-5517
▁මිලක්	-5518
▁වැඩවර්	-5519
▁ඔක්තෝබර්	-5520
17	-5521
ම්මා	-5522
▁පරිභෝජ	-5523
▁අස්ගිරි	-5524
▁වැසියන්	-5525
▁අයදුම්පත්	-5526
▁ක්රීඩාංගණයේ	-5527
▁U	-5528
▁පැවත	-5529
▁සඳහායි	-5530
▁මට්ටමින්	-5531
වැට	-5532
ියම්	-5533
▁තත්ව	-5534
▁වවුනියාව	-5535
▁නයි	-5536
ියාවේ	-5537
වෙමින්	-5538
▁උපුල්	-5539
▁නගරයට	-5540
▁හයි	-5541
▁භාෂා	-5542
▁මහබැංකු	-5543
▁විමර්ශණ	-5544
▁දෙනෙකුගේ	-5545
▁නරේ	-5546
▁නවා	-5547
▁මොන	-5548
▁නොවීම	-5549
▁මහියංග	-5550
▁වැඩසටහනට	-5551
▁කිලිනොච්චිය	-5552
▁Y	-5553
▁අලූත්	-5554
▁විභාගයේ	-5555
▁ලංකාවෙන්	-5556
▁හෙළා	-5557
▁වෙළෙඳපොළ	-5558
▁කර්මාන්තශාල	-5559
්රථ	-5560
ස්ට්ර	-5561
▁තැනැ	-5562
▁නිරි	-5563
▁විවාදයට	-5564
▁නොසන්සුන්	-5565
ඩුවක්	-5566
▁විසුරුවා	-5567
▁ඔස්ට්රේලියානු	-5568
▁කබ	-5569
▁රණවිරුවන්	-5570
ගුරු	-5571
▁මිත්ර	-5572
▁තීරණයට	-5573
▁විජේරත්න	-5574
▁මෑත	-5575
▁ආකාරයේ	-5576
▁ප්රවර්ධනය	-5577
▁අලහ	-5578
▁ෆේස්	-5579
▁සතුන්	-5580
▁N	-5581
කුඩු	-5582
▁2013	-5583
ිකාවක්	-5584
▁නිර්මාණ	-5585
▁ප්රදීප්	-5586
▁වනා	-5587
▁ජෝන්	-5588
▁පස්සේ	-5589
▁ස්වල්	-5590
▁කොරියානු	-5591
▁දෙමාපියන්	-5592
▁කව	-5593
මිත්	-5594
▁කෘෂි	-5595
▁ගොඩන	-5596
▁තැත්	-5597
▁නොදෙන	-5598
▁අත්හිටුවා	-5599
▁අප්රිකානු	-5600
▁සම්පූර්ණයෙන්	-5601
වූයේ	-5602
▁විදිහ	-5603
▁නුගේගොඩ	-5604
▁නරේන්ද්ර	-5605
▁වෛද්යවරයා	-5606
▁නඩත්තු	-5607
▁හන්දිය	-5608
ස්ම	-5609
▁බත්තර	-5610
▁අපේක්ෂකයින්	-5611
▁නැංවීම	-5612
▁ස්වල්ප	-5613
කරයේ	-5614
▁සිටියහ	-5615
වලා	-5616
යෙන්ම	-5617
▁දොරට	-5618
▁කැණීම්	-5619
▁පියවරක්	-5620
▁අවුරුද්ද	-5621
18	-5622
▁සත	-5623
▁තරඟයේ	-5624
▁වෙසක්	-5625
▁පවිත්ර	-5626
▁ක්රමයක්	-5627
▁අවිස්සාවේල්ල	-5628
▁හෘ	-5629
▁පමණි	-5630
▁අපනයනය	-5631
▁මත්ස්ය	-5632
▁ස්ථානාධිපතිවරයා	-5633
▁ලබාදු	-5634
▁අත්පත්	-5635
16	-5636
▁දවා	-5637
▁කළාය	-5638
▁කෙහෙ	-5639
▁6ක්	-5640
මේෂ්	-5641
▁ගත්ත	-5642
ක්රමණය	-5643
▁ඔප්පු	-5644
▁හෙයින්	-5645
▁ගෙල	-5646
▁කලින්	-5647
▁ගන්නවා	-5648
▁ගනුදෙනු	-5649
▁දයාසිරි	-5650
▁සමාගමක්	-5651
▁ප්රතිඵලයක්	-5652
ස්බ	-5653
▁රස	-5654
▁විද්	-5655
▁කිසිඳු	-5656
▁සාර්ථකව	-5657
▁අත්තනායක	-5658
▁රඹුක්වැල්ල	-5659
▁නොවෙයි	-5660
▁පාපන්දු	-5661
රාජ්ය	-5662
▁කාබනික	-5663
▁තත්ත්වයෙන්	-5664
▁බාහිර	-5665
▁පලාගොස්	-5666
▁මන්දිරයේ	-5667
▁ලැබීමට	-5668
▁ප්රතිව්යුහ	-5669
ic	-5670
ීර	-5671
ක්කේ	-5672
▁රටවලට	-5673
▁මූලස්ථාන	-5674
▁යතුරුපැදියක්	-5675
පතක්	-5676
ේෂන්	-5677
▁විජිත	-5678
▁විස්තර	-5679
▁බීම	-5680
▁වනජීවි	-5681
▁හිමිපා	-5682
▁කෙනෙක්	-5683
▁වර්ෂාප	-5684
▁පද්ධතියට	-5685
▁ජිවිතක්ෂයට	-5686
▁ඉක්මන	-5687
▁කථානායකවරයා	-5688
▁කියල	-5689
▁දළදා	-5690
▁යෑමට	-5691
ානක	-5692
▁ප්රි	-5693
බලා	-5694
▁ගැණු	-5695
14	-5696
▁රුසියාවේ	-5697
▁වයි	-5698
ක්රමණ	-5699
▁ආශිර්	-5700
▁දරුණු	-5701
▁දරුවාගේ	-5702
▁ධුරයට	-5703
▁සංවර්ධ	-5704
▁තර්ජ	-5705
▁අඩවිය	-5706
▁රාමනායක	-5707
මුණු	-5708
මේදී	-5709
▁වගාව	-5710
▁රුධිර	-5711
▁කිරිඇල්ල	-5712
▁දශක	-5713
▁යුව	-5714
▁2009	-5715
▁රැකියාව	-5716
▁අඹ	-5717
▁උඩු	-5718
▁කැක	-5719
ිකාවට	-5720
▁ස්ථිර	-5721
යාව	-5722
ිපා	-5723
▁90	-5724
▁ආදි	-5725
ජිටල්	-5726
▁භාරදීමට	-5727
▁එළැඹ	-5728
▁නැවතු	-5729
▁විරෝධතාවක්	-5730
▁නවතම	-5731
පාදු	-5732
▁කට්	-5733
▁පුෂ්ප	-5734
▁සම්බා	-5735
▁අදට	-5736
▁ළමයින්	-5737
▁පවත්වනු	-5738
▁අධ්යක්ෂවරයා	-5739
▁භට	-5740
▁තමාගේ	-5741
▁කන්නයේ	-5742
▁හෙළිදරව්	-5743
be	-5744
ිරාල්	-5745
▁විත්	-5746
▁ගෙවීම	-5747
▁සියඹල	-5748
▁තොටුපොළ	-5749
▁වැඩසටහනේ	-5750
පත්ර	-5751
හෙර	-5752
▁දෙනකු	-5753
▁මරදාන	-5754
▁ලලිත්	-5755
▁සංගීත	-5756
▁මල්වතු	-5757
▁මසුන්	-5758
▁ගොවිජන	-5759
▁ඩිජිටල්	-5760
ීකරණය	-5761
▁කංචන	-5762
කොටුව	-5763
▁සොයි	-5764
▁හවුල්	-5765
▁පරිශ්රයේ	-5766
▁වයස්වල	-5767
▁ප්රශ්නවලට	-5768
▁තුර්	-5769
▁සංදේශ	-5770
▁රුසියා	-5771
▁විදියට	-5772
▁සමත්විය	-5773
▁මහතාගෙන්	-5774
න්දල	-5775
▁චන්ද්රිකා	-5776
▁පාකිස්ථාන	-5777
▁ශාලාවේ	-5778
▁අවස්ථාවේදීයි	-5779
තාවයක්	-5780
▁පාඨමා	-5781
▁නැතැයි	-5782
▁58	-5783
▁පාඨලී	-5784
▁කප්පාදු	-5785
▁සාමාජිකයෙකු	-5786
▁එපා	-5787
▁කුස	-5788
▁ජලාප	-5789
▁සපයා	-5790
▁ත්රිවිධ	-5791
යාමට	-5792
ස්සා	-5793
වතුන්	-5794
▁මින්	-5795
▁සම්මුඛ	-5796
ඹර	-5797
▁ලූ	-5798
▁විපතට	-5799
▁කරපු	-5800
▁පත්කළ	-5801
▁ප්රසා	-5802
ෙන්නායි	-5803
බහ	-5804
රයට	-5805
▁ඇමතු	-5806
▁රෝහල්ගත	-5807
ුවන	-5808
▁ස්වභාව	-5809
▁කොරියාව	-5810
▁ප්රතිව්යුහගත	-5811
am	-5812
යාමේ	-5813
▁තේම	-5814
st	-5815
00ට	-5816
සිටර්	-5817
මත්ව	-5818
ක්කම්	-5819
▁රාගම	-5820
▁බණ්ඩාරවෙල	-5821
▁භාෂ	-5822
▁උදාව	-5823
▁පුවතක්	-5824
▁මුලින්	-5825
▁ඇමතිවරුන්	-5826
පොලේ	-5827
ලන්තයේ	-5828
▁පාතාල	-5829
▁මහත්ත	-5830
▁සංචාරකයන්	-5831
ේදය	-5832
▁ලැබෙනවා	-5833
▁නැමැත්තා	-5834
ිනු	-5835
▁අශ	-5836
හෙත්	-5837
▁සාල	-5838
▁ඇමැති	-5839
▁හමුවක	-5840
▁පහසුව	-5841
▁දක්වාත්	-5842
▁කරාපිටිය	-5843
▁වෙළඳසැල්	-5844
▁පිණි	-5845
▁නායකයන්	-5846
▁මුද්රණය	-5847
▁සොලිසිටර්	-5848
අත්	-5849
සැල	-5850
තිස්ස	-5851
▁ලබාගන්නා	-5852
ෝන්	-5853
▁කසල	-5854
▁භාග	-5855
▁ජිනී	-5856
▁දන්න	-5857
▁පනස්	-5858
▁මහන	-5859
▁අමාත්යාංශයට	-5860
ේදී	-5861
▁වාර්තාවන්නේ	-5862
▁හැඳු	-5863
▁කරන්නැයි	-5864
පෙන	-5865
▁සුන	-5866
▁යොමුකළ	-5867
▁රොෂාන්	-5868
▁ස්වදේශ	-5869
▁නන්ද	-5870
▁කොට්ට	-5871
▁චෙන්නායි	-5872
හමාර	-5873
▁කීර්ති	-5874
▁නෙවෙයි	-5875
▁දැව	-5876
▁බදිය	-5877
▁මුල්ය	-5878
▁තක්	-5879
▁තෙවන	-5880
▁හැඳුනුම්	-5881
▁ගුවන්තොටුපළ	-5882
▁ඕස්ට්රේලියානු	-5883
ලන්ගොඩ	-5884
▁පාගමන	-5885
▁ඇතැයිද	-5886
▁විදේශික	-5887
▁53	-5888
▁පෙළේ	-5889
▁විමසීමට	-5890
න්තිය	-5891
▁පරපුර	-5892
▁ගැනුණා	-5893
නිසා	-5894
▁400	-5895
▁අතරට	-5896
▁දෙදින	-5897
▁බස්රථ	-5898
▁සිතා	-5899
▁අතට	-5900
▁රාජා	-5901
▁ලංකන්	-5902
▁අලහප්පෙරුම	-5903
▁සිව්දෙනෙකු	-5904
40	-5905
කට්	-5906
ගල්	-5907
▁හෘද	-5908
කීය	-5909
▁පාර්ශවයේ	-5910
ෂ්ණ	-5911
▁නැගී	-5912
කොළ	-5913
▁යෙදෙන	-5914
▁සමඟයි	-5915
▁සජීවීව	-5916
▁තදබදයක්	-5917
කිල	-5918
මණා	-5919
▁කුලී	-5920
▁ඇඳිරි	-5921
▁ගියත්	-5922
පූ	-5923
ලෝක	-5924
සුදු	-5925
▁ගුණා	-5926
▁වියළි	-5927
▁ගු	-5928
▁එවකට	-5929
▁කාලයක	-5930
▁ලැබීම	-5931
▁ධාරිතාව	-5932
▁රෝහල්වල	-5933
▁ලැබේ	-5934
▁ඉගෙනුම	-5935
▁ඒකනායක	-5936
▁අස්වැන්න	-5937
▁සිදුකරමින්	-5938
▁තබන	-5939
▁අර්ජ	-5940
▁එක්වන	-5941
▁තීරයේ	-5942
▁වරායට	-5943
▁තැනින්	-5944
▁කොන්ත්ර	-5945
▁කප්පාදුව	-5946
▁පිහිටුවීමට	-5947
▁මිලිග්රෑම්	-5948
▁දිස්ත්රීක්ක	-5949
▁චර	-5950
්රාන්	-5951
ාරක්ෂිත	-5952
වීමත්	-5953
▁වුණි	-5954
▁රජමහා	-5955
▁වගකීම්	-5956
▁ඒම	-5957
▁පනතේ	-5958
▁තැබීමේ	-5959
වුණු	-5960
▁ගස්	-5961
▁කොළඹට	-5962
▁බදියු	-5963
▁පුනර්ජන	-5964
▁වගඋත්තර	-5965
බන	-5966
පාන	-5967
▁ඔහුව	-5968
▁කුණා	-5969
▁රිෂා	-5970
▁අසීරු	-5971
▁මට්ටමක	-5972
▁සංඝරත්	-5973
▁මැදිරිය	-5974
▁සමාජවාදී	-5975
▁කුඩු	-5976
▁රෝහල්ගතව	-5977
ුවහොත්	-5978
▁අල්ලා	-5979
▁ධම්මික	-5980
▁පිලිබඳ	-5981
▁රියදුරා	-5982
▁විස්සයි	-5983
▁නීතිඥවරයා	-5984
▁ප්රථමයෙන්	-5985
▁නැඟ	-5986
▁සිහි	-5987
▁පානීය	-5988
හාන	-5989
හාල්	-5990
▁රංගන	-5991
▁ප්රජා	-5992
▁විශ්ල	-5993
▁විමර්ශනවලදී	-5994
▁සේම	-5995
▁පිණිස	-5996
▁අම්බලන්ගොඩ	-5997
චි	-5998
වණ	-5999
▁ටි	-6000
▁යුරෝප	-6001
▁ජිනීවා	-6002
▁පැවැසීය	-6003
ොප්	-6004
▁ගැබ	-6005
▁බලහත්කාරයෙන්	-6006
▁පවතී	-6007
▁ධුරයේ	-6008
▁නීත්යා	-6009
▁තිළි	-6010
▁නොමැ	-6011
▁අරමුදල්	-6012
▁සියඹලාපිටිය	-6013
රල්	-6014
▁අඩවි	-6015
▁කෙරේ	-6016
▁තැබූ	-6017
සන්තුර	-6018
▁ගන්නේ	-6019
▁වසරකට	-6020
▁වැටීම	-6021
අඩංගුවට	-6022
ලාන	-6023
▁ඉස්ලා	-6024
▁වියදම	-6025
▁හදිසියේ	-6026
▁වටා	-6027
▁අද්ම	-6028
▁වැට්	-6029
▁විචාර	-6030
▁රාජකීය	-6031
▁පරීක්ෂණවලදී	-6032
▁අතහැර	-6033
▁මධ්යයේ	-6034
▁අද්මිරාල්	-6035
▁නායය	-6036
▁අග්ර	-6037
▁මදුර	-6038
▁කඩුළු	-6039
▁ටෙන්	-6040
▁නාට්ය	-6041
ියු	-6042
▁නොදැ	-6043
▁රැස්වූ	-6044
▁ඉක්මනින්	-6045
▁දෙදෙනෙක්	-6046
▁පිරිසිදු	-6047
▁අතවර	-6048
▁සන්න	-6049
▁පැතුම්	-6050
▁බලවේගයේ	-6051
▁පිහිටුවා	-6052
ම්පේ	-6053
ණයෙන්	-6054
වත්සර	-6055
▁මේවා	-6056
▁පුපුර	-6057
▁හෙළිවී	-6058
මතික	-6059
▁රත්ර	-6060
▁මැතිවරණයේදී	-6061
මඩ	-6062
▁බේ	-6063
▁දෙමව්	-6064
▁හැටියට	-6065
දර්	-6066
▁ආදර	-6067
▁දූත	-6068
▁ගෙවන	-6069
ායා	-6070
ල්පත්	-6071
වූවන්	-6072
▁සපයන	-6073
▁එමඟින්	-6074
▁ඔක්තෝම්බර්	-6075
▁නල	-6076
▁පතිරණ	-6077
▁තරඟාවලියේ	-6078
▁සහභාගීත්වයෙන්	-6079
සයේ	-6080
000කට	-6081
▁ඩලස්	-6082
▁තර්ජන	-6083
▁පිටතට	-6084
▁පිරිප	-6085
▁ඔවුන්ගෙන්	-6086
▁කොට්ඨාසයේ	-6087
▁ඉහළම	-6088
▁නිල්	-6089
▁සොයිසා	-6090
▁හැඳ	-6091
▁නවීන	-6092
▁පෙරහර	-6093
▁සම්මේලනයේ	-6094
▁ඇවි	-6095
ිප්පු	-6096
▁වෙසෙන	-6097
▁ආනයනික	-6098
▁රන්ජන්	-6099
▁ගොවීන්ට	-6100
ිතල	-6101
▁ලෝ	-6102
▁නැගූ	-6103
▁වයසැති	-6104
▁පරික්ෂා	-6105
▁වටිනාකමකින්	-6106
කොළඹ	-6107
දිරි	-6108
▁බලවේගය	-6109
▁සිසුවියන්	-6110
▁අත්අඩංගුවේ	-6111
▁ශතක	-6112
▁ශරීරය	-6113
▁සැකකාරිය	-6114
කුලම	-6115
▁පිටුව	-6116
▁මත්කුඩු	-6117
▁එෆ්	-6118
▁අකිල	-6119
▁ජුලි	-6120
▁රත්ම	-6121
▁සෙනස	-6122
▁ලක්ෂණ	-6123
▁ඈ	-6124
▁කුකු	-6125
▁දෙසින්	-6126
▁දේශපාලනය	-6127
▁මෙහෙයුමක්	-6128
▁ව්යාපෘතියක්	-6129
▁එවන්	-6130
▁නිමා	-6131
▁වැදී	-6132
▁කුමක්ද	-6133
▁සිසුවිය	-6134
▁ලාංකිකයන්	-6135
▁ආපන	-6136
▁ජයසිංහ	-6137
▁පුද්ගලයෙකි	-6138
▁කන්ට	-6139
▁මාර්ගයට	-6140
ෙය	-6141
▁සොහොය	-6142
▁පැමිණිල්ලකට	-6143
▁සුඛ	-6144
රාජ	-6145
▁කීප	-6146
▁අනුකූල	-6147
▁ප්රාදේශිය	-6148
▁සාකච්ඡාවක	-6149
▁පැල	-6150
▁කළත්	-6151
▁වාන්	-6152
▁විද්යුත්	-6153
▁සිදුවන්නේ	-6154
▁කද	-6155
▁තල්	-6156
වරයකු	-6157
▁බාධාවක්	-6158
ණයට	-6159
ුපා	-6160
ථමික	-6161
▁ජනපදය	-6162
▁ගෙවීම්	-6163
▁පණිවුඩයක්	-6164
▁පුනර්ජනනීය	-6165
ාවකට	-6166
▁කඩාවැ	-6167
▁ඇත්නම්	-6168
ටෝ	-6169
▁57	-6170
ලනිප	-6171
▁කැමර	-6172
ධාරණයක්	-6173
▁වීරසිංහ	-6174
▁ව්යවස්ථාවේ	-6175
▁පැවැත්	-6176
▁තීන්දුවක්	-6177
ටින්	-6178
▁කැලණිය	-6179
▁දැක්වීමට	-6180
අත්අඩංගුවට	-6181
▁කොන්	-6182
▁පන්න	-6183
▁හසුව	-6184
▁අධ්යක්ෂක	-6185
▁නිළධාරීන්	-6186
▁හෙට්ටිආරච්චි	-6187
▁කන්ටේන	-6188
13	-6189
ශීලී	-6190
▁බෝග	-6191
▁නාරා	-6192
▁නිපද	-6193
▁විහාරාධිපති	-6194
▁මැදිරි	-6195
▁බලපත්රය	-6196
▁සුවිශේෂී	-6197
▁59	-6198
▁නැතිව	-6199
▁කලාපීය	-6200
▁ප්රාථමික	-6201
▁දෑ	-6202
කරගෙන	-6203
▁ගතවූ	-6204
▁බලයක්	-6205
▁වීමක්	-6206
▁සූරිය	-6207
දැ	-6208
ම්ප්	-6209
▁මුළ	-6210
▁ස්වි	-6211
න්කසන්තුර	-6212
▁අපේක්ෂිත	-6213
▁සංකීර්ණයේ	-6214
▁නිරෝධායනයට	-6215
▁කොහොම	-6216
▁යහපාලන	-6217
▁ගෙදර	-6218
▁ගින්නක්	-6219
විම	-6220
ීන්ට	-6221
නීසිය	-6222
▁හර්ෂ	-6223
▁හඳුන්වාද	-6224
▁ඩො	-6225
▁තරමක	-6226
▁පළාග	-6227
▁ඉන්නේ	-6228
▁ෆයිසර්	-6229
▁සළකා	-6230
▁ජර්මන	-6231
▁නිහාල්	-6232
▁පරීක්ෂාවට	-6233
▁පුරප්පාඩු	-6234
▁පත	-6235
▁තුළට	-6236
▁වුයේ	-6237
▁සිරද	-6238
ස්ටික්	-6239
▁පත්වීම	-6240
▁මහේන්ද්ර	-6241
බුක්	-6242
▁සභික	-6243
▁දහසක්	-6244
▁වැටීමෙන්	-6245
▁අනන්ය	-6246
▁වනෝද්ය	-6247
▁ව්යාපාරයේ	-6248
ලම	-6249
▁පැවතිය	-6250
▁අමෙරිකාව	-6251
▁ස්ථානයක්	-6252
▁නාවලපිටිය	-6253
▁ධූරය	-6254
▁අලියා	-6255
▁දැක්වෙයි	-6256
▁අයගේ	-6257
▁මඩකළ	-6258
▁අරගෙන	-6259
▁උපුටා	-6260
re	-6261
▁රී	-6262
▁මාරවිල	-6263
▁සත්ත්ව	-6264
▁දෙරණට	-6265
▁රක්ෂිතයේ	-6266
සිටි	-6267
▁ස්ථානයෙන්	-6268
▁බත්තරමුල්ල	-6269
▁පළකර	-6270
▁දීමනා	-6271
▁වරෙන්තු	-6272
▁යුක්රේනය	-6273
මුන්	-6274
▁සංවත්සර	-6275
▁ඉදිකිරීමට	-6276
▁අළුයම	-6277
▁විදිහට	-6278
▁පක්ෂයක්	-6279
▁කන්කසන්තුර	-6280
ව්ව	-6281
ිපර්	-6282
▁මාළි	-6283
▁සමාව	-6284
▁එක්වුණා	-6285
▁සැත්	-6286
▁රාත්රීයේ	-6287
ඳුර	-6288
▁වැලිගම	-6289
බත්	-6290
▁ආදාය	-6291
▁උපාය	-6292
▁කළමණා	-6293
▁මාරුව	-6294
▁අමාත්යවරයාට	-6295
▁උද්ධ	-6296
▁කවුර	-6297
▁උළෙලේ	-6298
▁කැදවා	-6299
▁සැඟ	-6300
ලිමත්	-6301
▁කුණු	-6302
බස්	-6303
▁අතී	-6304
න්නන්	-6305
▁පුවර	-6306
▁යටිතල	-6307
න්දර	-6308
ම්බර	-6309
▁අඩව	-6310
▁අන්	-6311
▁සුනඛ	-6312
▁ලීටර්	-6313
▁වහන්සේලා	-6314
▁සිදුවුණා	-6315
ඊයේ	-6316
▁66	-6317
▁පැවැත්වුණේ	-6318
▁ටැංකි	-6319
▁වරදක්	-6320
මියගොස්	-6321
▁අගනුවර	-6322
▁සෙනසුරාදා	-6323
▁හිස	-6324
තුවිල්	-6325
▁අත්සන	-6326
වේන්ද්ර	-6327
▁දෙමව්පියන්	-6328
▁ආරිය	-6329
▁තක්සේ	-6330
▁මෙවන්	-6331
▁නොමිලේ	-6332
▁විරාජ්	-6333
▁අර්ජුන්	-6334
▁නෞකාවක්	-6335
ay	-6336
ංස	-6337
▁ඉදිකිරීම	-6338
ුරුෂ	-6339
▁සමූහ	-6340
▁ක්රමයට	-6341
▁පැවැත්වෙයි	-6342
තිනන්	-6343
▁ගැටුමක්	-6344
23	-6345
▁සුභ	-6346
▁තේමාව	-6347
▁දඬුවම	-6348
▁ඇමරිකාව	-6349
▁දුම්රියේ	-6350
එහි	-6351
▁බළ	-6352
හේන්	-6353
▁බාරයට	-6354
▁සමාලෝ	-6355
▁ආයතනයට	-6356
▁යැවීමට	-6357
▁ජාතිකයෙකු	-6358
il	-6359
▁ඕනෑ	-6360
55ට	-6361
▁බවු	-6362
▁ත්යාග	-6363
▁ඉන්දික	-6364
▁වෙන්කර	-6365
▁එකමුතුව	-6366
▁පර්යන්ත	-6367
ජුන	-6368
ලාසි	-6369
කරත්න	-6370
▁වත්කම්	-6371
▁බලපත්රයක්	-6372
▁ශාලා	-6373
▁කාලගුණික	-6374
▁වාර්ෂිකව	-6375
▁තරගයෙන්	-6376
▁දෙදෙනකු	-6377
▁ඊයේ0	-6378
▁පාවි	-6379
▁බුදු	-6380
▁ටිපර්	-6381
▁සුඛෝප	-6382
▁ගින්නෙන්	-6383
▁පැමිණියේ	-6384
ps	-6385
ලීමට	-6386
▁ජනක	-6387
▁යවන	-6388
ක්රිය	-6389
▁සූර්ය	-6390
▁සටහනක්	-6391
▁අපද්රව්ය	-6392
▁රූපවාහිනී	-6393
▁ඒවායේ	-6394
ජින	-6395
▁සුන්	-6396
▁ප්රංශ	-6397
ෂල්	-6398
▁වූවන්	-6399
▁වැල්ලවාය	-6400
▁සිසුවෙකු	-6401
▁ව්යාපාරයක්	-6402
බඩ	-6403
▁පොල	-6404
▁පොත්	-6405
▁සිටිමින්	-6406
සුර	-6407
▁සංහිඳ	-6408
▁දීමනාව	-6409
▁දේශගුණ	-6410
▁සංචාරයේ	-6411
▁පොතුවිල්	-6412
ගෝ	-6413
ෂිත	-6414
▁මනෝ	-6415
▁වරප්ර	-6416
▁දැක්වු	-6417
▁ප්රධානියා	-6418
▁ලබාගැනීමේ	-6419
▁මධ්යස්ථානයක්	-6420
ගි	-6421
ශංක	-6422
▁ඇයි	-6423
▁පුරවැසි	-6424
▁බෝතල්	-6425
▁තරුණයන්	-6426
රියා	-6427
ෙලිය	-6428
▁අතීත	-6429
▁ද්වි	-6430
▁දුර්වල	-6431
▁පැමිණෙමින්	-6432
වෙලා	-6433
▁ජයක	-6434
▁ලන්ඩ	-6435
▁වෙල්	-6436
▁මිසයි	-6437
▁63	-6438
නිකව	-6439
▁ඥාන	-6440
▁පරණ	-6441
▁තිදෙන	-6442
▁ඉලක්කය	-6443
▁යොදාගත්	-6444
▁මැතිවරණයේ	-6445
▁සෙනෙවිරත්න	-6446
▁You	-6447
▁ගින	-6448
▁උෂ්ණ	-6449
▁පුතා	-6450
▁සංග්ර	-6451
▁කුලියා	-6452
▁ෆේස්බුක්	-6453
ංකා	-6454
▁සතොස	-6455
▁සමාජයේ	-6456
ේෂ්ඨ	-6457
▁නැව්	-6458
▁බවටද	-6459
▁ප්රශ්නයකට	-6460
▁උපාධ	-6461
▁පදක්කම්	-6462
▁හමුවීමට	-6463
▁හිමිපාණන්	-6464
▁නැද්ද	-6465
▁නොදැවී	-6466
▁පසුවයි	-6467
පිලි	-6468
▁අර්ජුන	-6469
▁නිලධාරිය	-6470
▁සිසුන්ගේ	-6471
▁අභියාචනාධිකරණ	-6472
ක්කාර	-6473
දීමක්	-6474
▁ඊශ්ර	-6475
▁හානිය	-6476
▁ඉතාමත්	-6477
▁දෙනාගේ	-6478
දායී	-6479
▁අරාබ	-6480
▁මහබැංක	-6481
▁අත්දැකීම්	-6482
▁ඉන්දියාවෙන්	-6483
ed	-6484
▁චරිත	-6485
▁දරුව	-6486
▁බලාගාරය	-6487
▁හදුන්	-6488
▁සම්බන්ධීකරණ	-6489
ලව	-6490
ාලා	-6491
▁තුනක	-6492
▁දැරූ	-6493
▁මිලකට	-6494
▁ජයකොඩි	-6495
▁දෙදෙනෙකුට	-6496
▁අසල්	-6497
▁පරිවර්	-6498
පෙර	-6499
ෝර්	-6500
▁හැක්කේ	-6501
▁සම්පාදනය	-6502
ද්ර	-6503
▁බයි	-6504
▁20ක්	-6505
▁ගන්නට	-6506
▁නිව	-6507
මණ්ඩල	-6508
▁ආවරණ	-6509
▁සුහද	-6510
▁නේපාල	-6511
▁ට්රම්ප්	-6512
▁ජූනි	-6513
▁එකතුව	-6514
▁පැදිය	-6515
▁ගණනාවක	-6516
▁මඩකළපුව	-6517
▁යතුරුපැදියකින්	-6518
▁ඉම	-6519
▁පශ	-6520
▁කර්	-6521
▁ආයෝජනය	-6522
▁ලිඛිතව	-6523
ජනාධිපති	-6524
▁පැවරීමට	-6525
▁පිළිතුර	-6526
▁කල්ලි	-6527
▁බලාගාරයේ	-6528
27	-6529
ාරම්භ	-6530
▁කුඹුරු	-6531
ාලේ	-6532
▁හබ	-6533
▁ස්තූ	-6534
▁සුරැක	-6535
▁රත්මලාන	-6536
▁ආදිය	-6537
ාරු	-6538
▁වො	-6539
▁ටයි	-6540
▁බඹර	-6541
▁ප්ලා	-6542
▁සහනය	-6543
▁ගිණුම	-6544
▁මාවනැ	-6545
▁මොහොත	-6546
ත්වැඩියා	-6547
▁දෙකකින්	-6548
▁තානාපතිවරයා	-6549
▁මහින්දානන්ද	-6550
▁මධු	-6551
▁දකින	-6552
ube	-6553
▁පීඨයේ	-6554
▁ගාමිණි	-6555
▁දැරියක්	-6556
ින්නට	-6557
▁පක්ෂව	-6558
යන්ගෙන්	-6559
▁ප්රයෝජ	-6560
▁ගැනීමත්	-6561
පූජ්ය	-6562
▁පත්විය	-6563
▁ඔබ්බෙන්	-6564
▁ගැටළුවක්	-6565
▁දේශපාලනඥයින්	-6566
ියෝ	-6567
▁සමය	-6568
කමින්	-6569
▁කියැ	-6570
▁දිවා	-6571
▁පත්රිකා	-6572
▁රැස්වීම්	-6573
▁බ්රිතාන්යයේ	-6574
ිගේ	-6575
▁ශවේන්ද්ර	-6576
▁වෙරළට	-6577
▁සිල්ල	-6578
▁පිටියට	-6579
▁ගම්මානයේ	-6580
▁තිලකරත්න	-6581
හකාරී	-6582
▁සම්මන්ත්රණ	-6583
▁ශ්රේණියේ	-6584
ාප්	-6585
ම්බා	-6586
▁දීප	-6587
▁ජයක්	-6588
▁මෝදි	-6589
▁වත්ත	-6590
▁පිළිවෙ	-6591
▁සංශෝධනයට	-6592
න්නෙ	-6593
▁ලිහි	-6594
▁කුසල්	-6595
▁මුළුම	-6596
▁මාත්රා	-6597
▁සාමාන්යාධිකාරී	-6598
▁ක්ද	-6599
▁දිනාගත්	-6600
▁ගුණාත්මක	-6601
▁විනිසුරුවරුන්	-6602
න්දා	-6603
▁වසරට	-6604
▁ආසියා	-6605
▁මිශ්ර	-6606
▁ආබාධිත	-6607
▁නෝට්ටු	-6608
▁මෙමගින්	-6609
▁උපයෝගීතා	-6610
▁බලධාරින්	-6611
▁සත්යග්රහ	-6612
▁වුනා	-6613
▁බහින්	-6614
▁සංචරණ	-6615
▁දැක්වෙන	-6616
▁විසදුම්	-6617
▁අර්බුදයට	-6618
▁තත්ත්වයකට	-6619
▁වැඩිවීමක්	-6620
▁නිරන්තරයෙන්	-6621
▁ආවේ	-6622
▁සාද	-6623
▁ගලවා	-6624
▁කතාබහ	-6625
▁යෙදවීමට	-6626
ෘති	-6627
▁51	-6628
▁කැස්බ	-6629
▁පාවිච්චි	-6630
ව්ස්	-6631
▁නුසුදු	-6632
සෙ	-6633
▁රුහ	-6634
▁වතාව	-6635
▁සුබසා	-6636
ේෂ්වරන්	-6637
▁අයෙකුට	-6638
▁යාමේදී	-6639
▁පැමිණිය	-6640
▁පුවත්පත	-6641
▁පළාත්වලට	-6642
▁ප්රකාශකර	-6643
ිම	-6644
එසේම	-6645
ර්වේද	-6646
▁සංකේත	-6647
▁දුරදිග	-6648
▁ලියනගේ	-6649
▁දිනයේත්	-6650
▁සංක්රමණ	-6651
▁නීත්යානුකූල	-6652
▁ජාලය	-6653
▁පදක්ක	-6654
▁ලේකම්වරුන්	-6655
▁පිහ	-6656
හේන්පිට	-6657
▁ගත්තේය	-6658
▁කල්පිටිය	-6659
▁පත්කිරීම	-6660
▁කාර්යක්ෂම	-6661
▁වැළඳ	-6662
▁ද්විප	-6663
▁කොට්ඨාශයේ	-6664
කාගාර	-6665
න්විත	-6666
▁කල්ල	-6667
▁දුෂණ	-6668
▁කෙරෙන්නේ	-6669
▁සරණාගතයින්	-6670
▁නවක	-6671
▁පුරවැසිය	-6672
ඇල	-6673
▁මහල්	-6674
පොලිස්	-6675
▁සාම්පල	-6676
▁ආශිර්වාද	-6677
▁තරඟාවලිය	-6678
▁පොදුරාජ්ය	-6679
මඩුව	-6680
▁ඒත්	-6681
▁දැමූ	-6682
▁රථයට	-6683
▁හිදී	-6684
▁මහනගර	-6685
▁ඉංග්රී	-6686
▁මුවදොර	-6687
▁අගවිනිසුරු	-6688
▁ඉන්දුනීසිය	-6689
▁ළිඳ	-6690
▁ගනුදෙන	-6691
▁එක්ලක්ෂ	-6692
ංගල	-6693
බෝම්බ	-6694
කළා	-6695
▁හරිත	-6696
▁තරගයට	-6697
▁අනාගතය	-6698
▁වර්ධනයක්	-6699
▁සුඛෝපභෝග	-6700
▁ආණ්ඩුවෙන්	-6701
▁කුලියාපිටිය	-6702
Tube	-6703
ගෙදර	-6704
ත්වල	-6705
▁කොටි	-6706
ලිංග	-6707
▁නියැ	-6708
▁දේවස්ථ	-6709
▁කමිටුවට	-6710
රතන	-6711
මෙන්ති	-6712
ොන්නාව	-6713
▁ගැමුණු	-6714
▁YouTube	-6715
▁වරප්රසාද	-6716
මසිරි	-6717
▁සිටම	-6718
▁අවධාන	-6719
▁කිරුළ	-6720
▁මෙසේද	-6721
▁වංචාව	-6722
▁වෙන්දේ	-6723
▁පුත්රයා	-6724
▁අධිකාරියට	-6725
▁ක්රියාමාර්ගයක්	-6726
▁විදුහල්පතිවරයා	-6727
▁වුණු	-6728
ළුව	-6729
ිරාව	-6730
▁සුළි	-6731
▁නොසිට	-6732
▁ප්රභේදය	-6733
▁මාලදිවයි	-6734
▁නිලධාරින්ගේ	-6735
▁සිල්ලර	-6736
▁කියමින්	-6737
▁දේශප්රිය	-6738
▁ක්රියාවක්	-6739
▁විද්යාලයට	-6740
▁කප්පාදුවක්	-6741
▁කැර	-6742
ලාගෙන	-6743
අමාත්ය	-6744
▁කටාර්	-6745
▁හිමිවන	-6746
පේ	-6747
▁බදා	-6748
▁කළහොත්	-6749
▁මාරුකර	-6750
▁විරෝධි	-6751
▁සොයාබැ	-6752
▁සිමෙන්ති	-6753
බව	-6754
ගාට	-6755
න්දුව	-6756
▁දොරටු	-6757
▁ගැඹුරු	-6758
▁කළමනාකාර	-6759
▁මාවනැල්ල	-6760
▁ප්රතිසංස්කරණය	-6761
▁ශත	-6762
▁දේපල	-6763
▁කැමරා	-6764
▁රාජධාන	-6765
▁සමුළුවේ	-6766
ත්තේගම	-6767
▁උද්ගත	-6768
▁යටත්ව	-6769
▁බෝට්ටු	-6770
▁සැලසීම	-6771
▁ගිවිසුමට	-6772
▁පිළියන්දල	-6773
▁අවශ්යතාවක්	-6774
ac	-6775
▁ඉඳ	-6776
▁කප්ප	-6777
▁තොටුපල	-6778
▁නවාතැන්	-6779
▁ප්රදේශවාස	-6780
is	-6781
▁ඍ	-6782
▁67	-6783
කිරි	-6784
දර්ශන	-6785
▁කාඩ්	-6786
▁යවන්න	-6787
▁පකිස්ථාන	-6788
කිය	-6789
▁දිරි	-6790
▁අසලදී	-6791
▁නිරිත	-6792
▁දිනටත්	-6793
▁බේරුවල	-6794
▁වේගයෙන්	-6795
▁අතිපූජ්ය	-6796
▁වර්ජනයක්	-6797
▁හඳුනාගත්	-6798
▁දැක්වෙනවා	-6799
60	-6800
ve	-6801
සරණ	-6802
▁උව	-6803
▁පළම	-6804
▁ජීප්	-6805
▁රැළිය	-6806
▁තිබුණත්	-6807
▁නගරයේදී	-6808
▁සන්නද්ධ	-6809
▁කෙස	-6810
ෑන්ඩ්	-6811
▁ගිලී	-6812
▁වයිර	-6813
▁ගිලන්	-6814
▁ප්රදේශවලින්	-6815
▁බිම	-6816
▁ආයුර්වේද	-6817
▁බැතිමතුන්	-6818
▁සහයෝගීතාව	-6819
ෙකා	-6820
▁කන්	-6821
▁ඇතුල	-6822
▁සැකයක්	-6823
▁ලැයිස්තුව	-6824
▁අබ්	-6825
▁නිහ	-6826
▁මාද	-6827
▁ප්රාය	-6828
▁දීමෙන්	-6829
▁මුදලින්	-6830
▁ද්විපාර්	-6831
සෙන	-6832
හරුවා	-6833
▁යටවී	-6834
▁හිරි	-6835
▁අසාර්ථක	-6836
▁තාන්ත්රික	-6837
▁03ක්	-6838
▁සමගයි	-6839
▁නියුතු	-6840
▁විශ්ලේෂ	-6841
ගස්ක	-6842
වුඩ්	-6843
ිකාවක	-6844
▁විපර	-6845
▁කෘත්යා	-6846
▁බලංගොඩ	-6847
▁සාකච්ඡාවේ	-6848
et	-6849
▁ගබඩ	-6850
▁පශු	-6851
ලයින්	-6852
▁ලාල්	-6853
▁සනත්	-6854
▁ගාලුම	-6855
▁ඊශ්රාය	-6856
නල්	-6857
විද	-6858
▁හෂ	-6859
නියා	-6860
ෝත්ස	-6861
▁එළිද	-6862
▁සිනමා	-6863
▁ඇන	-6864
▁දෙපාර්ශව	-6865
▁හමුදාපතිවරයා	-6866
කර්	-6867
▁පුංචි	-6868
▁ප්රායෝග	-6869
▁මැලේසිය	-6870
▁සැපයීමට	-6871
▁පක්ෂයෙන්	-6872
▁අවශ්යතාවය	-6873
▁නිලධාරින්ට	-6874
as	-6875
සඳ	-6876
▁මව්පියන්	-6877
▁ප්රතිපත්තියක්	-6878
▁සැමරුම	-6879
▁තීරණාත්මක	-6880
▁හරින	-6881
▁ගුවන්තොටුපල	-6882
▁විමල	-6883
▁එන්නතේ	-6884
▁ඇල්පිටිය	-6885
▁64	-6886
▁පටහ	-6887
▁මුද්රණ	-6888
▁කැකිරාව	-6889
▁චන්දන	-6890
▁අත්බෝම්බ	-6891
නක්	-6892
▁යකඩ	-6893
▁අමුණු	-6894
▁ප්ලාස්ටික්	-6895
28	-6896
▁දෛනිකව	-6897
▁කිලෝවක්	-6898
▁භාවිතයට	-6899
▁නුසුදුසු	-6900
▁සංඝරත්නය	-6901
ඔවුන්	-6902
හරුවාදා	-6903
▁පිහිටුවීම	-6904
▁විධිවිධාන	-6905
24	-6906
නන	-6907
▁ගාය	-6908
▁පහත්	-6909
▁කෙසෙල්	-6910
▁සැලකෙන	-6911
▁උත්සවයක්	-6912
▁ව්යාපෘතියේ	-6913
නයා	-6914
▁කොල	-6915
▁වැව්	-6916
▁කෙරුණි	-6917
▁කෝට්ටේ	-6918
▁ආරක්ෂාවට	-6919
පුර්	-6920
▁අයෙකි	-6921
▁මාධ්යයට	-6922
▁නැවතුම්ප	-6923
ඩම්	-6924
▁වසරක	-6925
ගැනීම්	-6926
ධිකාරි	-6927
▁අනියම්	-6928
▁පිවිසි	-6929
▁නොපැමිණ	-6930
▁නාහිමියන්	-6931
▁අධිපතිවරයා	-6932
▁විත්තිකරුවන්	-6933
අත්ත	-6934
▁කට්ට	-6935
▁කැපී	-6936
ණ්ඩලික	-6937
▁නාරාහේන්පිට	-6938
▁h	-6939
▁95	-6940
්රක්	-6941
▁න්ය	-6942
▁කැළණි	-6943
▁85	-6944
▁පිහිට	-6945
oo	-6946
ටද	-6947
සියස්	-6948
▁කෙරිණි	-6949
▁මාර්ගවල	-6950
▁යාන්ත්ර	-6951
▁පුද්ගලයින්ගේ	-6952
▁බිහ	-6953
▁ඇන්ජ	-6954
▁මවක්	-6955
▁රෙජි	-6956
▁වටරව	-6957
▁සෙල්	-6958
▁අම්බල	-6959
▁දැන්වීම්	-6960
▁වාසි	-6961
▁උපකාර	-6962
▁අනවශ්ය	-6963
▁දෙලක්ෂ	-6964
▁මාණ්ඩලික	-6965
▁පත්කිරීමට	-6966
▁අමතක	-6967
▁රෙගු	-6968
▁පටහැනි	-6969
▁අක්රමිකතා	-6970
▁කවර	-6971
▁අඟුරු	-6972
▁අලූයම	-6973
▁ලබාදුන්නා	-6974
▁විත්තිකරු	-6975
▁ක්රීඩාංගණයේදී	-6976
ැලේ	-6977
▁කිව	-6978
▁කොඩ	-6979
▁ඇස්ත	-6980
▁යටත්	-6981
▁පරික්ෂක	-6982
▁සැසිවාරය	-6983
ත්තික	-6984
▁පහරක	-6985
▁මාර්ගයක්	-6986
ලියට	-6987
ිපුර	-6988
▁නීතියට	-6989
▁මිසයිල	-6990
▁නිවසේදී	-6991
▁රටවලින්	-6992
▁ගාලුමුවදොර	-6993
▁අන්තර්ජාතික	-6994
▁බූ	-6995
සරික	-6996
▁අස්ථ	-6997
▁දුටු	-6998
▁ධාවනයට	-6999
▁මනුෂ්ය	-7000
▁යානයක්	-7001
▁ලක්ෂයක්	-7002
ට්ටුවේ	-7003
▁වාහනය	-7004
▁වෘත්තික	-7005
▁සැලැස්මක්	-7006
▁තණ	-7007
ත්තෑ	-7008
▁7ක්	-7009
▁මිස	-7010
▁ලද්ද	-7011
ඝ්රයෙන්	-7012
▁ජයග්රාහ	-7013
▁මන්දිරය	-7014
and	-7015
▁දෙමට	-7016
▁වාරය	-7017
▁වර්ෂය	-7018
▁ඉදිරියෙන්	-7019
▁කරුණාතිලක	-7020
වංශ	-7021
දහස්	-7022
රැස්	-7023
▁දික්	-7024
▁ලකුණ	-7025
▁කඳවුරු	-7026
▁සේවිකාවන්	-7027
ංසා	-7028
▁චතුර	-7029
▁පසුප	-7030
මිතෙල්	-7031
▁අවභාව	-7032
▁පාසලක	-7033
▁යාමත්	-7034
▁සේවකයින්ට	-7035
▁78	-7036
මාලි	-7037
▁ඉහල	-7038
▁කපිල	-7039
▁අසනීප	-7040
▁ජාතිය	-7041
▁හෂීම්	-7042
▁ස්ථානයක	-7043
▁හිමියන්ට	-7044
▁ශ්රේෂ්ඨාධිකරණයට	-7045
▁77	-7046
ුවලට	-7047
▁පළි	-7048
▁නිතර	-7049
▁වටයේ	-7050
▁ඒකකයට	-7051
▁ලසන්ත	-7052
▁චෝදනාවට	-7053
▁නැත්නම්	-7054
▁තරගාවලියට	-7055
ොහො	-7056
▁හර්	-7057
ෙකුගේ	-7058
▁සැකස	-7059
▁හමාර	-7060
▁එන්නත්කරණය	-7061
▁වෙන්නප්පුව	-7062
▁ආවා	-7063
▁දැඩිව	-7064
▁දිනයට	-7065
▁පිටියේ	-7066
▁සිදුවනු	-7067
ම්ස්	-7068
▁තුනකට	-7069
▁දුන්න	-7070
▁තරගයේදී	-7071
▁රඳවාගෙන	-7072
▁ජෙ	-7073
ඩන්	-7074
▁ගීත	-7075
▁සිද්ධියේ	-7076
ධුර	-7077
▁සියළ	-7078
▁ගිහින්	-7079
ාභ	-7080
ඩුවේ	-7081
▁යොද	-7082
හාරාම	-7083
▁බලපාන	-7084
ිමට	-7085
▁අලෙව	-7086
▁ජනයා	-7087
▁දිනූ	-7088
▁බොරු	-7089
▁මානු	-7090
▁මුළුමන	-7091
▁පවත්වයි	-7092
▁මණ්ඩලයීය	-7093
▁අනාරක්ෂිත	-7094
නක	-7095
ීර්ණ	-7096
▁ජන්ද	-7097
ථි	-7098
දිනල්	-7099
▁නෑමට	-7100
▁බහාල	-7101
▁මාතෘ	-7102
▁ළඟාව	-7103
▁අනුබල	-7104
▁රජයක්	-7105
▁තිබුණද	-7106
▁ස්වාමි	-7107
▁පාරිසරික	-7108
තුන්	-7109
▁බලපැ	-7110
▁පෙනෙන	-7111
▁සෘජුව	-7112
▁පුනරුත්ථාපන	-7113
▁මැතිවරණයෙන්	-7114
සම	-7115
ෝලේ	-7116
▁හී	-7117
තැන්න	-7118
ට්ටුවක්	-7119
▁කාදිනල්	-7120
▁පවත්වමින්	-7121
තෝ	-7122
▁අවු	-7123
▁මහාම	-7124
▁දෙනාට	-7125
▁මිහින්	-7126
▁පළමුවෙන්	-7127
▁දැනුම්දීම	-7128
ඟා	-7129
ිනිය	-7130
▁අමු	-7131
▁ගංග	-7132
▁බාධක	-7133
▁දඩුවම්	-7134
ad	-7135
ැබැයි	-7136
▁අහිත	-7137
▁ආසියාවේ	-7138
▁කවුන්සිලයේ	-7139
▁බදාදා	-7140
▁සපුරා	-7141
▁කැළණිය	-7142
▁ගොඩනැඟ	-7143
▁තක්සේරු	-7144
▁ඉංග්රීසි	-7145
▁අනවසරයෙන්	-7146
▁එන්නත්කරණ	-7147
ate	-7148
▁පහල	-7149
▁මයි	-7150
▁අවිය	-7151
▁සුනා	-7152
▁හතරක්	-7153
▁මහේස්ත්රාත්වරිය	-7154
▁බදියුදීන්	-7155
ලියා	-7156
▁පුතු	-7157
කරුවකු	-7158
▁මාධ්යවේදියෙකු	-7159
▁රතන	-7160
තනයක්	-7161
▁මැල්	-7162
▁කුසලා	-7163
▁සරසවි	-7164
▁පැහැදිළි	-7165
▁පිළිබඳවද	-7166
▁විග්න	-7167
▁ශ්රීල	-7168
ඹා	-7169
බිම	-7170
▁68	-7171
▁8ක්	-7172
▁ආන්ද	-7173
මහාරාම	-7174
▁ශාලාව	-7175
▁ගැනිමට	-7176
▁ලීග්	-7177
දියුණු	-7178
▁වැටලීමක	-7179
▁72	-7180
▁වනදායි	-7181
▁කිරීමටද	-7182
▁කම්කරුවන්	-7183
මයක්	-7184
▁සපු	-7185
▁සමු	-7186
▁සුසාන	-7187
▁ගොදුරු	-7188
▁නොගන්නා	-7189
▁සංවිධානයට	-7190
මාර්	-7191
▁හාර	-7192
▁නොවී	-7193
▁අඩුපා	-7194
▁නඩුවක්	-7195
▁පරිසරය	-7196
▁අනුග්රහ	-7197
▁ආදායමක්	-7198
▁ස්වර්ණා	-7199
▁අන්දමින්	-7200
▁මහජනතාවට	-7201
▁කිහිපයකදී	-7202
සහ	-7203
▁චා	-7204
▁මහෙ	-7205
කුලම්	-7206
▁දැයි	-7207
▁විෂම	-7208
▁මත්තල	-7209
▁අමුණුගම	-7210
ිපෝ	-7211
▁දැල්	-7212
▁යුක්ත	-7213
▁දිනෙන්	-7214
රජ	-7215
▁බග	-7216
බිම්	-7217
▁මාසික	-7218
▁පළාගොස්	-7219
▁ප්රචාරය	-7220
▁ඇමරිකාවේ	-7221
▁ජනාධිපතිවර	-7222
යයි	-7223
▁මුඛ	-7224
නාවක්	-7225
▁පීලි	-7226
▁සෙබල	-7227
▁50000	-7228
▁රිෂාඩ්	-7229
▁ස්ථාවරය	-7230
▁වෙළඳපොලේ	-7231
▁අහිතකර	-7232
▁ප්රගති	-7233
▁තර්ජනයක්	-7234
▁ජොන්ස්ටන්	-7235
▁දිස	-7236
▁සංජීව	-7237
▁සමාරම්භ	-7238
▁මණ්ඩලයක්	-7239
ෑර	-7240
▁ඉඩකඩ	-7241
▁ඡායා	-7242
▁මීළඟ	-7243
▁තරමක්	-7244
▁වටරවුම	-7245
හිරු	-7246
▁කෝට	-7247
▁ගර්	-7248
▁නොරො	-7249
▁තිස්සමහාරාම	-7250
හදා	-7251
▁ග්රහ	-7252
▁බේකර	-7253
▁මස්ක	-7254
▁ගෘහස්ථ	-7255
▁කාලගුණය	-7256
▁මහෙස්ත්රාත්	-7257
වෙනි	-7258
▁වල්	-7259
▁සන්	-7260
▁දිනක	-7261
යෙකුගේ	-7262
ාර්මික	-7263
▁ලිපියේ	-7264
▁කෙහෙළිය	-7265
▁දැනුම්වත්	-7266
▁පුද්ගලයෙකුගේ	-7267
ජයන්ත	-7268
▁එදිරි	-7269
▁ලිහිල්	-7270
▁නොරොච්ච	-7271
▁නොමැතිවීම	-7272
▁මැතිවරණයක්	-7273
ධූර	-7274
▁පං	-7275
සේවා	-7276
▁පහක්	-7277
▁උරුමය	-7278
▁කැමති	-7279
▁විගණන	-7280
▁ලැබූවන්	-7281
▁පිටකොටුව	-7282
▁අනුයුක්තව	-7283
▁මන්ත්රීවරු	-7284
ක්ෂි	-7285
▁දෙකට	-7286
▁ආදර්ශ	-7287
▁ප්රවීණ	-7288
▁ජ්යේෂ්ඨ	-7289
▁කාර්යභාර	-7290
▁බහුතරයක්	-7291
▁අග්රමාත්ය	-7292
ෂ්ටික	-7293
▁ගුණතිලක	-7294
▁මිරිහාන	-7295
▁තැබීමෙන්	-7296
▁කතානායකවරයා	-7297
ඩෝ	-7298
ානො	-7299
ියි	-7300
ුදායක	-7301
▁තබමින්	-7302
▁ශ්රේණිගත	-7303
▁විශ්වවිද්යාලයීය	-7304
ol	-7305
▁කෞ	-7306
▁ඔවු	-7307
▁දෙකම	-7308
▁එයාර්	-7309
▁සහනයක්	-7310
▁සැලැස්ම	-7311
▁හක	-7312
▁කරු	-7313
වන්තලාව	-7314
▁කොරියාවේ	-7315
ගර්	-7316
දිම	-7317
තුවේ	-7318
▁ලැබිය	-7319
▁හැරීමේ	-7320
▁ගැනීමේදී	-7321
▁අන්තර්ජාලය	-7322
වහන	-7323
ෂ්ක	-7324
ොම්	-7325
හරින	-7326
ෙකලා	-7327
▁හැබැයි	-7328
▁එක්රැස්	-7329
▁යාත්රාවක්	-7330
▁මහලේකම්වරයා	-7331
යර්	-7332
දුල්	-7333
හිටි	-7334
▁ලැබුණ	-7335
▁පත්කරන	-7336
▁හොඳින්	-7337
▁වර්ෂාවත්	-7338
▁අපේක්ෂකයා	-7339
▁අලුත්ගමගේ	-7340
ේය	-7341
▁O	-7342
▁චින්	-7343
▁සමයේදී	-7344
▁ඔහුගෙන්	-7345
▁වෙනස්කම්	-7346
▁අමාත්යවරිය	-7347
▁උපාධිධාරීන්	-7348
▁නෙම	-7349
ගන්නට	-7350
▁ලෝකය	-7351
▁උපකාරක	-7352
▁යන්නයි	-7353
▁කිරීමයි	-7354
▁රැඳවුම්	-7355
▁මහාමාර්ග	-7356
▁අම්බලන්තොට	-7357
▁වැඩිදියුණු	-7358
ඩේ	-7359
ගම්ප	-7360
▁ලුතිනන්	-7361
▁සම්පුර්	-7362
▁ක්ෂේත්රයට	-7363
▁පැවැත්විය	-7364
29	-7365
සින	-7366
හැන	-7367
ජින්	-7368
▁දොර	-7369
▁කොඩි	-7370
▁ඔස	-7371
▁සිටුව	-7372
▁ෂා	-7373
▁නෙමෙයි	-7374
▁බ්රහස්	-7375
▁ක්රියාන්විත	-7376
කැලේ	-7377
▁උපත	-7378
▁බෝධ	-7379
▁වටලා	-7380
▁සාකච්ජ	-7381
▁කාණ්ඩයේ	-7382
▁පරිහරණය	-7383
▁විසන්ධි	-7384
▁දේශගුණික	-7385
▁විහාරස්ථාන	-7386
▁ඩේ	-7387
රාන්	-7388
▁ඕනේ	-7389
▁ගඟේ	-7390
▁වේගවත්	-7391
▁විපක්ෂනායක	-7392
▁කිතු	-7393
▁පනතට	-7394
▁උපකුල	-7395
පැවැත්ව	-7396
▁මුහුණු	-7397
▁අපේක්ෂාව	-7398
▁වැදගත්කම	-7399
▁වැල්ලම්පිටිය	-7400
ුරක්	-7401
▁10ක	-7402
▁ජනහ	-7403
▁අසරණ	-7404
▁කිඹු	-7405
ගස්කන්ද	-7406
▁දන්නවා	-7407
▁ප්රභේද	-7408
▁ලැබුණේ	-7409
▁අපහසුතාවට	-7410
▁නොප	-7411
▁5000	-7412
▁ගමනක්	-7413
▁බලධාරීන්ට	-7414
▁එක්වෙමිනුයි	-7415
▁චාම	-7416
ලිම්ප	-7417
▁විදේශගත	-7418
▁භූමිතෙල්	-7419
▁පරීක්ෂකවරුන්	-7420
35	-7421
නාථ	-7422
▁අළ	-7423
▁ජනමත	-7424
▁වරකා	-7425
▁බේකරි	-7426
▁ආරම්භක	-7427
▁උද්ධමනය	-7428
▁නිවසින්	-7429
▁අත්සනින්	-7430
▁සිදුවීමට	-7431
▁අවස්ථාවන්	-7432
▁ව්යවස්ථාවක්	-7433
▁වෛද්යවරයෙකු	-7434
▁කුවේ	-7435
▁ප්රශ	-7436
▁නොතකා	-7437
▁සඳහන්වේ	-7438
▁පුද්ගලයන්ට	-7439
▁නායකත්වයෙන්	-7440
▁සම්බන්ධයෙන්ද	-7441
කුඩි	-7442
▁2000	-7443
▁50ක්	-7444
▁අපේක්ෂකයන්	-7445
▁බන්ධනාගාරය	-7446
▁මුළුමනින්ම	-7447
48	-7448
▁රුහුණු	-7449
▁නවසීලන්තය	-7450
▁බගවන්තලාව	-7451
▁ව්යවස්ථාවට	-7452
▁සාමාජිකත්වය	-7453
▁නිසාම	-7454
▁සම්මු	-7455
කන	-7456
පතේ	-7457
▁ශෝක	-7458
▁දෙමටගොඩ	-7459
▁අන්තර්ගත	-7460
▁අගවිනිසුරුවර	-7461
▁K	-7462
ේගම	-7463
▁ඉටුකර	-7464
▁එමීර්	-7465
▁වැවිලි	-7466
▁න්යෂ්ටික	-7467
▁රාව	-7468
▁දියණ	-7469
▁යොදාගෙන	-7470
▁කිහිපයකින්	-7471
▁ප්රේමචන්ද්ර	-7472
▁69	-7473
ලිංගම්	-7474
ගැනීමෙන්	-7475
▁පැවැත්වෙන්නේ	-7476
්යාස	-7477
▁ඇතිකර	-7478
▁හැඳින්	-7479
▁පුවත්පත්	-7480
▁රෙගුලාසි	-7481
▁යතුරුපැදිකරු	-7482
තැබ	-7483
ාගත්	-7484
▁15ක්	-7485
▁මතයි	-7486
▁ඇවිත්	-7487
▁එක්ස්	-7488
▁නිසයි	-7489
▁ජනපදයේ	-7490
ent	-7491
වස්	-7492
▁62	-7493
තියි	-7494
▁බඩු	-7495
▁රයි	-7496
▁සපුර	-7497
ිරිසක්	-7498
▁සිරිකො	-7499
▁ආක්රමණය	-7500
▁වැදීමෙන්	-7501
▁සංක්රමණික	-7502
ුවි	-7503
▁ඩිපෝ	-7504
▁ශ්රීලනිප	-7505
▁සිදුවීමක්	-7506
වත්වා	-7507
නාවන්ත	-7508
▁මතුගම	-7509
▁සපුගස්කන්ද	-7510
▁ගී	-7511
ශ්වික	-7512
▁ගොඩබ	-7513
කාධිපති	-7514
▁දැරියන්	-7515
▁අප්රිකාව	-7516
▁ලැයිස්තු	-7517
▁බ්රහස්පති	-7518
us	-7519
▁ජපන්	-7520
▁පෙරළී	-7521
▁වලංගු	-7522
▁ක්රීඩිකාවන්	-7523
▁අයවැයෙන්	-7524
▁මැතිව්ස්	-7525
▁වාහ	-7526
▁සිං	-7527
▁ගොවිප	-7528
▁බුලත්	-7529
▁විපර්යාස	-7530
▁දිස්ත්රික්කවලට	-7531
ූපකාර	-7532
දෙන්නේ	-7533
▁අපොහො	-7534
▁අයිතීන්	-7535
ලෙන	-7536
ගාරයේ	-7537
▁පැළඳ	-7538
▁රත්රං	-7539
▁වැළැක්වීමට	-7540
▁වෛද්යවරුන්ගේ	-7541
ගස්වැව	-7542
▁මෙගාව	-7543
▁පරිදිය	-7544
▁පුපුරණ	-7545
▁සියළුම	-7546
▁ප්රතිශතයක්	-7547
▁ප්රතිචාරයක්	-7548
31	-7549
▁c	-7550
▁එකිනෙක	-7551
▁ඔස්ට්ර	-7552
▁සිදුකරනවා	-7553
▁කි්රයාත්මක	-7554
▁කෘෂිකාර්මික	-7555
▁සාමාන්යයෙන්	-7556
න්ස්	-7557
▁හපු	-7558
▁බලවත්	-7559
▁බ්රසී	-7560
▁ලබානො	-7561
▁සම්මා	-7562
▁කොහොමද	-7563
▁සැකකරුට	-7564
▁කවුන්සිලය	-7565
▁කොන්ත්රාත්	-7566
▁පරීක්ෂකවරයා	-7567
▁ගය	-7568
▁පිටත	-7569
▁කැලණි	-7570
▁ශක්තිය	-7571
▁සංගක්කාර	-7572
කාරව	-7573
▁දේවාල	-7574
▁ජාවාරමේ	-7575
▁වැඩවර්ජනය	-7576
5ක	-7577
▁පද්	-7578
ියාගම	-7579
▁රබර්	-7580
▁වසරක්	-7581
▁වැටුණු	-7582
▁වනාන්තර	-7583
▁ආර්ථිකයට	-7584
▁පිටුවහල්	-7585
▁අපේක්ෂාවෙන්	-7586
▁මාප	-7587
▁රැද	-7588
ධිපත්ය	-7589
▁බොහොම	-7590
▁රථයකට	-7591
▁ලක්වී	-7592
▁ඉල්ලුම	-7593
▁වෙළඳසැ	-7594
කෙසේවෙතත්	-7595
▁සිරකරුවන්	-7596
▁ප්රමිතියෙන්	-7597
of	-7598
▁යල	-7599
▁02ක්	-7600
▁පින්	-7601
▁සීමාවේ	-7602
ක්ෂා	-7603
තාන්	-7604
▁නිධ	-7605
න්නැයි	-7606
▁අත්හදා	-7607
▁කීය	-7608
▁දේහ	-7609
▁ශල්	-7610
▁රසාය	-7611
ලිම්පික්	-7612
▁අවබෝධතා	-7613
▁භාවිතයෙන්	-7614
▁සුඛෝපභෝගී	-7615
බිල	-7616
▁සදා	-7617
▁කඩවත	-7618
▁නොතී	-7619
▁පදික	-7620
▁අවවාද	-7621
▁පැවතු	-7622
▁හික්ක	-7623
▁බාලිකා	-7624
▁සමූපකාර	-7625
▁වහන්සේගේ	-7626
▁ශ්රමිකයින්	-7627
▁ප්රහාරයකින්	-7628
හී	-7629
ාරී	-7630
▁ඛණිජ	-7631
▁පාඩු	-7632
▁මානුෂ	-7633
▁විසිර	-7634
▁දිවයිනෙන්	-7635
▁කොල්ලුපිටිය	-7636
▁බලාපොරොත්තුව	-7637
▁රැළ	-7638
▁අගරද	-7639
▁ප්රවණ	-7640
▁ලැබෙනු	-7641
0ක	-7642
▁කරූ	-7643
▁නසා	-7644
▁පුරුෂ	-7645
▁ලක්වු	-7646
▁නීතියේ	-7647
▁කොංග්රසයේ	-7648
▁පළාත්පාලන	-7649
භිත	-7650
බ්වේ	-7651
▁ජලජ	-7652
▁මිට	-7653
▁2008	-7654
ාගාරයේ	-7655
ාවකින්	-7656
▁රැකිය	-7657
▁දිනපතා	-7658
▁සිදුකළා	-7659
▁කන්ටේනර්	-7660
lk	-7661
දායි	-7662
▁රළු	-7663
▁මාළු	-7664
▁ඉගැන්	-7665
▁නොලැබීම	-7666
▁කොංග්රසය	-7667
▁භික්ෂූන්	-7668
▁මෙගාවොට්	-7669
▁සේවකයින්ගේ	-7670
▁ප්රේ	-7671
බණ්ඩාර	-7672
▁හකීම්	-7673
▁ඩිලාන්	-7674
▁ඉල්ලුම්	-7675
▁ලැයිස්ත	-7676
tt	-7677
▁අභය	-7678
▁නෙදර්	-7679
▁සුපර්	-7680
▁වෙතින්	-7681
▁සහෝදරයා	-7682
▁ඔස්ට්රේලියාව	-7683
ුක	-7684
ේව	-7685
▁දූෂිත	-7686
▁නොගත්	-7687
▁මුලින්ම	-7688
▁රෝහලෙන්	-7689
ිරාජ	-7690
▁පසුවූ	-7691
▁ගැනුණු	-7692
▁පාසැල්	-7693
ම්බාබ්වේ	-7694
▁කිලෝමීටර	-7695
ක්කන	-7696
වෙන්	-7697
▁රජු	-7698
▁පන්ත	-7699
ටි්රක්	-7700
▁කාරණා	-7701
▁කළයුතු	-7702
▁උද්යානය	-7703
▁ගුවන්තොටුපොළ	-7704
යක්ද	-7705
වරක්	-7706
හේවා	-7707
▁දීලා	-7708
කිරීම්	-7709
▁පද්ධති	-7710
▁විජේදාස	-7711
▁ජාවාරම්කරුවන්	-7712
න්හි	-7713
නයේදී	-7714
▁වැරද	-7715
▁වගාවන්	-7716
▁බලපැවැත්ව	-7717
▁අවස්ථාවේදියි	-7718
්රීය	-7719
▁මදුරු	-7720
▁පක්ෂවල	-7721
el	-7722
ෙට	-7723
▁නෝර්	-7724
▁ගණනාව	-7725
▁වැළකී	-7726
▁පිළිගෙන	-7727
▁වීරසේකර	-7728
▁අකුරැස්ස	-7729
▁හිමිකරුවන්	-7730
▁30ක්	-7731
▁නිව්	-7732
▁පතල්	-7733
▁නොමැත	-7734
▁ශරීරා	-7735
▁සමන්ත	-7736
▁අසල්වැ	-7737
▁අවශ්යයි	-7738
▁පාඩුවක්	-7739
▁බෙදාහැරීම	-7740
ුනු	-7741
ලාභී	-7742
ස්වා	-7743
▁ආපද	-7744
විශේෂ	-7745
▁ඩයස්	-7746
▁හෙක්ට	-7747
▁උෂ්ණත්වය	-7748
▁මන්ත්රීවරුන්ට	-7749
පාස්	-7750
▁ජනග	-7751
▁ජනන	-7752
▁අලිය	-7753
▁මුම්	-7754
▁පැවරී	-7755
▁උද්ගතව	-7756
▁තිබුනා	-7757
▁වාර්තාවට	-7758
▁බංග්ලාදේශය	-7759
▁මන්දිරයේදී	-7760
26	-7761
ඞී	-7762
▁තාර	-7763
ාලින්	-7764
▁වැවේ	-7765
▁බවත්ය	-7766
▁ඇමරිකා	-7767
▁සිරදඬුව	-7768
▁සැකකරුගේ	-7769
▁ඕස්ට්රේලියාව	-7770
▁p	-7771
▁76	-7772
▁යෝග	-7773
දායික	-7774
ෙහාන්	-7775
▁අඩාල	-7776
▁කලක්	-7777
▁සාගල	-7778
▁කප්පම්	-7779
▁සමඟින්	-7780
▁පාකිස්ථානය	-7781
▁ලේකම්වරයාට	-7782
නාත්	-7783
වාදයට	-7784
▁කොටසේ	-7785
▁විකුණ	-7786
▁ඇතැමුන්	-7787
▁අඟහරුවාදා	-7788
▁සංශෝධනයක්	-7789
▁මන්ත්රීවරුන්ගේ	-7790
▁එකග	-7791
ගමනයට	-7792
▁දසනායක	-7793
▁ප්රසාද	-7794
▁ජලාපවහන	-7795
▁අමාත්යවරයෙකු	-7796
රිගම	-7797
ation	-7798
▁ගිරි	-7799
▁බෙන්	-7800
▁දහසකට	-7801
▁ප්රදේශයක	-7802
▁වැඩිහිටි	-7803
▁මුහුණදීමට	-7804
▁ස්වර්ණාභරණ	-7805
▁සාකච්ඡාවකින්	-7806
ළේ	-7807
වතා	-7808
▁උසාව	-7809
▁මංතී	-7810
▁අගයක්	-7811
▁අමෙරිකාවේ	-7812
ලෙ	-7813
මයි	-7814
ෂාර	-7815
හැති	-7816
ුවරට	-7817
▁වනි	-7818
▁නල්ල	-7819
▁සමගම	-7820
▁එංගලන්තය	-7821
▁සම්බන්ධතා	-7822
00කට	-7823
▁කුමරු	-7824
▁ගෙවිය	-7825
▁පාසලට	-7826
▁අයිතියක්	-7827
▁බ්රහස්පතින්දා	-7828
ල්ම	-7829
▁තීර	-7830
▁න්යාය	-7831
▁අස්වනු	-7832
▁කිසිසේත්	-7833
▁රසායනාගාර	-7834
▁පැවැත්වුණු	-7835
▁සාධ	-7836
▁මහේල	-7837
▁විහාරයේ	-7838
▁සිරිකොත	-7839
▁පිරිසකගේ	-7840
▁තැබීමකින්	-7841
රීස්	-7842
▁හල්	-7843
ලමින්	-7844
▁බෙංග	-7845
▁මෙයට	-7846
▁මෙහෙයුමකදී	-7847
▁පාන්	-7848
▁ලුණු	-7849
කිරීමෙන්	-7850
▁ගමන්ගත්	-7851
▁තීරණයකට	-7852
▁වගන්තිය	-7853
▁කළමනාකරු	-7854
ත්වන	-7855
▁සෝම	-7856
▁12ක්	-7857
▁උඩරට	-7858
▁සෙන්	-7859
▁හැකිව	-7860
▁කඩුල්ල	-7861
▁ගවයින්	-7862
▁චන්දිම	-7863
▁ලැබෙන්නේ	-7864
එක්	-7865
▁ඇමතුමක්	-7866
▁ඉන්දියන්	-7867
නයක	-7868
ලාගේ	-7869
▁පංච	-7870
ොස්තර	-7871
▁පෙරටු	-7872
▁මෙටි්රක්	-7873
▁සමාරම්භක	-7874
▁ධා	-7875
▁04ක්	-7876
▁අනිල්	-7877
▁සිටිනු	-7878
▁හේතුවී	-7879
▁එක්වීමට	-7880
▁ප්රායෝගික	-7881
දාම	-7882
▁දුක්	-7883
▁කරගන්න	-7884
▁තිබුනේ	-7885
▁අර්බුදයකට	-7886
▁සිම්බාබ්වේ	-7887
රාව	-7888
ියානු	-7889
▁උනන්ද	-7890
▁චීනයට	-7891
▁පිරිවැ	-7892
▁අවධානයට	-7893
▁ව්යාපාරිකයෙකු	-7894
දැම	-7895
▁උදව්	-7896
▁සලකුණු	-7897
▁සත්කාරක	-7898
▁සමීක්ෂණ	-7899
▁ඇමෙරිකාව	-7900
▁බණ්ඩාරගම	-7901
▁පුද්ගලයාට	-7902
රට්	-7903
▁දඹ	-7904
▁නළ	-7905
වනදා	-7906
කුණාම	-7907
▁තිරසර	-7908
▁අභ්යාස	-7909
▁තේරුම්	-7910
▁උත්පාදනය	-7911
▁ජාවාරමක්	-7912
▁ඩෙල්	-7913
▁බිළිඳ	-7914
ුදේව	-7915
කැටිය	-7916
▁පෝෂණ	-7917
▁බොදු	-7918
▁පාර්ශවය	-7919
▁හිරිහැර	-7920
▁ක්රමයෙන්	-7921
▁මුවාවෙන්	-7922
▁ස්ටාලින්	-7923
▁කෙටුම්පත්	-7924
සෝ	-7925
▁රාශ	-7926
▁පුරාම	-7927
▁ලක්වන	-7928
▁ලක්ෂයක	-7929
▁සෙබළුන්	-7930
▁රාජපක්ෂට	-7931
▁සමීක්ෂණය	-7932
▁ව්යාපාරිකයින්	-7933
ංග්	-7934
▁මතට	-7935
▁ජීවි	-7936
▁රියැ	-7937
ත්වයකි	-7938
දුම්කර	-7939
▁ජලසම්	-7940
▁තරගයක්	-7941
▁පසුවනවා	-7942
▁ව්යවසායක	-7943
▁දිස්ත්රික්කයට	-7944
▁සංඥා	-7945
▁සැරි	-7946
▁ආන්දෝල	-7947
▁අඩුපාඩු	-7948
▁ගැටලුවලට	-7949
▁රැගෙනවිත්	-7950
පිය	-7951
කෙරෙන	-7952
▁කඳුළු	-7953
▁උපවාසය	-7954
▁විද්වත්	-7955
▁සාකච්ජා	-7956
▁රැස්වීමේ	-7957
ඩියර්	-7958
▁ආගම්	-7959
▁කැඳවන	-7960
▁අගරදගුරු	-7961
▁ස්වභාවික	-7962
▁පද්ධතියක්	-7963
▁ඛාන්	-7964
▁බම්බ	-7965
▁තිළිණ	-7966
▁පුහුණ	-7967
▁ඇන්ජලෝ	-7968
▁කඩාවැට	-7969
▁කරුවන්	-7970
▁පකිස්ථානය	-7971
▁විරෝධතාවය	-7972
▁අලුත්වැඩියා	-7973
pd	-7974
▁ජාතීන්	-7975
▁පද්ධතියේ	-7976
▁කිලෝග්රෑම	-7977
▁වැල්ලවත්ත	-7978
▁සූදානමින්	-7979
▁J	-7980
දියේ	-7981
▁සාව	-7982
ත්වයේ	-7983
▁බලන්න	-7984
▁වෙනිදා	-7985
▁අන්තවාදී	-7986
▁මුම්බායි	-7987
▁කෘෂිකර්මා	-7988
මෝ	-7989
▁උග්ර	-7990
▁ද්වී	-7991
▁අංකයට	-7992
▁අතිශය	-7993
▁රටින්	-7994
▁වළකින	-7995
▁ලීටරයක	-7996
▁ජීවත්වන	-7997
▁1000	-7998
▁කන්ත	-7999
▁පැවතීම	-8000
▁බෙංගාල	-8001
▁අයිතියට	-8002
▁ග්රෑන්ඩ්	-8003
▁ගිවිසුමකට	-8004
▁යෝජනාවලිය	-8005
ලර්	-8006
▁වෝ	-8007
▁වින්	-8008
▁සනාථ	-8009
▁මියන්	-8010
▁සුනාමි	-8011
▁කිරිමෙන්	-8012
▁හික්කඩුව	-8013
▁සිදුකෙරුණා	-8014
ෆේ	-8015
හාසය	-8016
▁වාසුදේව	-8017
▁අර්බුදයක්	-8018
▁ව්යාපාරිකයා	-8019
▁නොම	-8020
▁ලදි	-8021
▁උපයෝගිතා	-8022
▁කුමාරතුංග	-8023
සේල	-8024
▁40ක්	-8025
▁කවුද	-8026
▁ජවිප	-8027
▁දෙනාම	-8028
▁නාගොඩ	-8029
▁විමසි	-8030
▁පෘ	-8031
▁එකයි	-8032
▁රෙදි	-8033
▁හස්ත	-8034
▁චමින්ද	-8035
▁නොතීසි	-8036
▁ආයතනවලට	-8037
▁කුණාටුව	-8038
▁පාකිස්තාන	-8039
▁නොරොච්චෝලේ	-8040
කලා	-8041
පසුව	-8042
▁ශාසන	-8043
▁කදවුර	-8044
▁බෙදාහැරීමේ	-8045
▁මංජ	-8046
▁රටකට	-8047
▁රණවිරු	-8048
▁ඉලක්කයක්	-8049
▁ආසන්නයේදී	-8050
▁පස්දෙනෙකු	-8051
පමණ	-8052
▁පණ	-8053
▁බීජ	-8054
▁මාක	-8055
▁භාවය	-8056
▁රැජින	-8057
▁තිරිඟු	-8058
▁කලහකාරී	-8059
▁පැතිරීම	-8060
▁බැදුම්කර	-8061
▁මහේන්ද්රන්	-8062
▁මහී	-8063
▁තිබ්	-8064
▁ආපනශාල	-8065
▁නිවසකට	-8066
▁බලපිටිය	-8067
▁කෙටුම්පතට	-8068
un	-8069
▁එතන	-8070
▁බැන	-8071
▁නොසල	-8072
▁හරවා	-8073
▁බියගම	-8074
▁සෝභිත	-8075
▁ආරාධිත	-8076
▁පැහැති	-8077
▁මහත්වරු	-8078
ෆර්	-8079
▁කැලෑ	-8080
▁පරිප	-8081
▁ප්රමිති	-8082
▁ඒකාබද්ධව	-8083
▁දැක්වුණේ	-8084
▁දුෂ්කරතාව	-8085
vi	-8086
ඵලය	-8087
▁73	-8088
ියාට	-8089
▁ඒකට	-8090
කාන්ත	-8091
▁ලක්ක	-8092
ස්ථානු	-8093
▁දෙදරු	-8094
▁උපාධිය	-8095
▁පහසුකම	-8096
▁මොහාන්	-8097
▁කොළොන්නාව	-8098
▁විගණකාධිපති	-8099
▁විශේෂත්වයකි	-8100
05	-8101
ක්කා	-8102
සුමන	-8103
▁ඇමත	-8104
▁පිල	-8105
කුඹුර	-8106
▁05ක්	-8107
▁සකසා	-8108
▁සල්ලි	-8109
21	-8110
ඉන්	-8111
්ලැ	-8112
▁කෑම	-8113
▁යලි	-8114
නල්ඩ්	-8115
▁අසේල	-8116
▁රිදී	-8117
▁පල්ලේ	-8118
▁සබ්රි	-8119
▁ට්රැක්	-8120
▁කිරිබත්	-8121
▁ටෙන්ඩර්	-8122
▁ආර්ථිකයක්	-8123
▁පුෂ්පකුමාර	-8124
ක්සි	-8125
▁හොද	-8126
▁අවාස	-8127
▁තරයේ	-8128
▁නොගෙ	-8129
▁මෝල්	-8130
▁රඹුක්කන	-8131
▁අර්බුදකාරී	-8132
▁කර්මාන්තයේ	-8133
▁ඇට	-8134
▁සොය	-8135
▁කාමර	-8136
▁දුරට	-8137
▁නොගෙන	-8138
▁මහතාද	-8139
▁පැවසෙන	-8140
▁පෙළපාල	-8141
▁බ්රිගේ	-8142
▁හැකිවනු	-8143
▁ජාතිකයන්	-8144
▁පදිංචිකරුව	-8145
▁දිස්ත්රික්වල	-8146
ුනේ	-8147
▁සවිකර	-8148
▁අනුකූලව	-8149
▁පෝලිම්වල	-8150
▁ඇමෙරිකාවේ	-8151
▁යන්ත්රයක්	-8152
▁ආඥ	-8153
▁නිට්ට	-8154
▁පිලිබද	-8155
▁විද්යාත්මක	-8156
ැව	-8157
▁කාරණය	-8158
▁තුරන්	-8159
▁දේශයේ	-8160
▁මීරිගම	-8161
▁සෙවීමේ	-8162
▁ඝාතනයක්	-8163
▁විද්යාව	-8164
▁ඔලිම්පික්	-8165
▁චන්දිමාල්	-8166
▁සංහිඳියාව	-8167
▁සිරිසේනගේ	-8168
පෝ	-8169
මිට	-8170
මෙහි	-8171
▁කොම්ප	-8172
▁නිපුණ	-8173
▁මුල්ල	-8174
▁කැඳවීම	-8175
ගුණවර්ධන	-8176
▁මාර්ෂල්	-8177
▁හුදෙකලා	-8178
▁සත්වෝද්ය	-8179
▁වන්නිආරච්චි	-8180
▁ආඥා	-8181
▁ගිහි	-8182
▁අරගලය	-8183
▁වරදකරු	-8184
▁කරගන්නා	-8185
▁දෙදෙනාට	-8186
▁මාදම්පේ	-8187
▁රෝහලේදී	-8188
▁දුෂ්කරතා	-8189
▁ගමනාගමනයට	-8190
▁ගිවිසුමක්	-8191
▁දුම්රියක්	-8192
▁දෙපිරිසක්	-8193
ිනුයි	-8194
▁නාලක	-8195
▁පිටාර	-8196
▁මංගල්යය	-8197
▁මැල්කම්	-8198
▁පලි	-8199
▁වූහ	-8200
ew	-8201
ගස්ත	-8202
▁ගලා	-8203
බෝවිල	-8204
▁පාපැ	-8205
▁බළකා	-8206
▁හදන්න	-8207
▁උරුමයේ	-8208
▁සභාවක්	-8209
▁සමුද්ර	-8210
▁රෝගීන්ට	-8211
▁ප්රතිශතය	-8212
www	-8213
ේශ්	-8214
ංශික	-8215
සොන්	-8216
▁ඊළඟ	-8217
විල්ල	-8218
▁දුප්	-8219
▁ඇගයීම්	-8220
▁ජයග්රහණයක්	-8221
ඹුව	-8222
▁ආද	-8223
▁රවු	-8224
දුරුව	-8225
▁වාරණ	-8226
▁අත්වැ	-8227
▁මාලඹේ	-8228
▁සමගිය	-8229
▁විතරක්	-8230
▁නායකයෙකු	-8231
▁නිරෝධායනය	-8232
▁ඔස්ට්රෙලිය	-8233
▁උදේ	-8234
ියාගේ	-8235
▁රැස්කර	-8236
▁ගැටලුවට	-8237
▁ප්රේක්ෂ	-8238
▁ප්රේමජයන්ත	-8239
පනය	-8240
පුම්	-8241
පුරා	-8242
ෙළිය	-8243
▁දොඩ	-8244
▁බැරල	-8245
▁එදිනට	-8246
න්දුවක්	-8247
▁නෙළුම්	-8248
ec	-8249
▁එවා	-8250
▁එළැඹෙන	-8251
▁පුපුරා	-8252
▁අධීක්ෂණ	-8253
▁ඉම්රාන්	-8254
▁එළිදැක්	-8255
▁කඳුකරයේ	-8256
▁පත්රයක්	-8257
▁යුද්ධයෙන්	-8258
▁වික්රමරත්න	-8259
ගමු	-8260
ල්පය	-8261
ස්සන්	-8262
▁තීරු	-8263
▁වසම්	-8264
▁උපාලි	-8265
▁පාලනා	-8266
▁විවෘතව	-8267
▁කොට්ටාව	-8268
▁රාජගිරිය	-8269
ස්ලි	-8270
▁සබද	-8271
▁එකවර	-8272
▁දණ්ඩ	-8273
▁දෙරටේ	-8274
▁ඥානසාර	-8275
▁රාජ්යය	-8276
▁විකුණා	-8277
▁පවිත්රා	-8278
▁වේලාවකට	-8279
▁තරුණයාගේ	-8280
▁සූරියවැව	-8281
▁දේවස්ථානය	-8282
▁කිසිවෙකුටත්	-8283
ඳි	-8284
▁හැඟ	-8285
▁0112	-8286
▁ජෝර්	-8287
▁වැසික	-8288
▁ගනේෂන්	-8289
▁පැවත්ව	-8290
▁සුමිත්	-8291
▁දේවාලයේ	-8292
▁පාලනයක්	-8293
▁විනිවිද	-8294
▁පණිවිඩයක්	-8295
▁ප්	-8296
▁ෂී	-8297
▁උතුම්	-8298
▁අලෙවිය	-8299
▁ඒකකයක්	-8300
▁නමැත්තා	-8301
▁ක්රීඩකයන්	-8302
ෛව	-8303
▁කතෝ	-8304
▁කොවි	-8305
▁පීඩන	-8306
▁රෝගා	-8307
▁දකින්	-8308
▁නිත්ය	-8309
▁කන්තලේ	-8310
▁තිරසාර	-8311
▁බිල්පත්	-8312
▁යූර	-8313
▁25ක්	-8314
▁ඉතිහාසය	-8315
▁අපයෝජනයට	-8316
▁බැලීමෙන්	-8317
▁නීතිඥවරුන්	-8318
▁මැඩපැවැත්ව	-8319
com	-8320
තලාවල	-8321
▁කථික	-8322
▁යහපාල	-8323
▁සැළකි	-8324
▁මහත්තයා	-8325
▁විජේසිංහ	-8326
කලාප	-8327
▁කපි	-8328
▁පීඩා	-8329
▁යටතට	-8330
▁හතරේ	-8331
▁100ක්	-8332
▁ගැටලූ	-8333
▁නලින්	-8334
▁බලාත්මක	-8335
▁ඉල්ලීමකට	-8336
▁ජනා	-8337
▁අත්කර	-8338
▁යැයිද	-8339
▁බෙහෙත්	-8340
▁සිදුකල	-8341
▁හැත්තෑ	-8342
▁දැනුම්දෙන	-8343
▁අනුරාධපුරය	-8344
▁මෙන	-8345
▁ස්ක	-8346
▁කාරුණ	-8347
▁ගෞරවය	-8348
▁කතෝලික	-8349
▁වනතුරු	-8350
▁පිරිපහද	-8351
▁තරුණයෙක්	-8352
▁අක	-8353
▁බිමට	-8354
වහන්සේ	-8355
▁නිධන්	-8356
▁අදියරේ	-8357
▁මුදලකට	-8358
▁කවුන්සිල	-8359
▁ප්රතිඵලය	-8360
▁උත්සවයකදී	-8361
▁අවස්ථාවලදී	-8362
ම්බි	-8363
▁ධනු	-8364
▁තලෙයි	-8365
▁පාඩම්	-8366
▁රෝහිත	-8367
▁නියාමක	-8368
කඩේ	-8369
ළඹේ	-8370
▁5ක	-8371
▁නිද	-8372
▁ශාක	-8373
▁දෙකේ	-8374
▁ප්රකට	-8375
▁වතුයා	-8376
▁සිසිර	-8377
▁ජලසම්පාදන	-8378
▁92	-8379
නහොත්	-8380
▁වියට්	-8381
▁තත්වයට	-8382
▁මුල්කර	-8383
▁අතරතුරදී	-8384
47	-8385
ජිර	-8386
පත්තු	-8387
වින්ද	-8388
▁ගර්භ	-8389
▁සංග්රහ	-8390
▁ද්විත්ව	-8391
▁පහරකෑමට	-8392
▁නොලැබුණු	-8393
▁ගම්වාසීන්	-8394
▁පාලනාධිකාර	-8395
රන්	-8396
තකොට	-8397
▁ඇලෝ	-8398
▁ඉරාන	-8399
▁ලක්කර	-8400
▁වැඩිකර	-8401
ඹුත්තේගම	-8402
▁වීරතුංග	-8403
▁සම්බාධක	-8404
▁මදුරුවන්	-8405
නෙ	-8406
ද්දුම	-8407
▁14ක්	-8408
▁අපොහොසත්	-8409
▁ඕස්ට්රේලියාවේ	-8410
▁වගඋත්තරකරුවන්	-8411
▁කැට	-8412
▁තදබ	-8413
▁චන්න	-8414
▁මල්ල	-8415
▁ගයන්ත	-8416
▁පියෙකු	-8417
▁කොතලාවල	-8418
▁දුරකථනය	-8419
▁විමසීමේ	-8420
▁උපාධිධාර	-8421
▁වාර්තාවන	-8422
▁සිංගප්පූරු	-8423
▁කෘත්යාධිකාරී	-8424
ක්වා	-8425
▁කයි	-8426
▁දිවු	-8427
▁නිව්ය	-8428
▁මානුෂීය	-8429
▁ප්රදේශයක්	-8430
▁3ක	-8431
කෝටි	-8432
▁ඇයව	-8433
▁නාර	-8434
▁ලයි	-8435
▁ඉලංග	-8436
▁කැෆේ	-8437
▁කවුරු	-8438
▁මීතොට	-8439
▁වෙළෙද	-8440
▁ස්ථීර	-8441
▁ආයතනයක	-8442
▁පළමුවන	-8443
▁භාරදුන්	-8444
▁පැවැත්වේ	-8445
ක්ටර්	-8446
▁ගණනය	-8447
▁පොඩි	-8448
සැකකරු	-8449
▁අඩුවක්	-8450
▁දේශසීම	-8451
▁මුහුණට	-8452
▁වර්ජනයට	-8453
▁විවේචනය	-8454
▁බ්රිගේඩියර්	-8455
▁පරීක්ෂණවලින්	-8456
▁අදහස	-8457
▁වාසය	-8458
▁සමරු	-8459
▁සුළඟ	-8460
▁අවසරය	-8461
▁එනිසා	-8462
▁පොසොන්	-8463
▁සේවයක්	-8464
▁කපිතාන්	-8465
▁පෙම්වතා	-8466
▁මිනිස්සු	-8467
▁දිනයේදීත්	-8468
▁නර	-8469
කුම්	-8470
▁අනූ	-8471
▁එක්වී	-8472
▁සූත්ර	-8473
▁රුපියල	-8474
▁විමසීමක	-8475
▁මියන්මාර	-8476
▁බලාපොරොත්ත	-8477
ලො	-8478
ල්ලු	-8479
▁ගලේ	-8480
▁කැනඩ	-8481
▁නිරා	-8482
▁තොගයේ	-8483
▁විහාරය	-8484
▁මහබැංකුව	-8485
▁සැත	-8486
▁නිකා	-8487
▁මලයා	-8488
▁රහසි	-8489
▁තදබදය	-8490
▁මාළඹේ	-8491
▁සාලිය	-8492
▁තුනෙන්	-8493
▁ඉල්ලීමට	-8494
▁චාරිකාව	-8495
▁ගමනාගමනය	-8496
▁හානිකරගෙන	-8497
▁සිංගප්පූරුවේ	-8498
වාසී	-8499
ෆාම්	-8500
▁පිං	-8501
▁උපන්	-8502
▁දවසේ	-8503
සිද්ධිය	-8504
▁වෙල්ගම	-8505
▁සිරිවර්ධන	-8506
ගී	-8507
ුනි	-8508
නාශක	-8509
▁නගා	-8510
▁බිල	-8511
▁අස්වැ	-8512
ශවික	-8513
▁ඉරණ	-8514
▁ජෛව	-8515
දීමෙන්	-8516
▁අම්මා	-8517
▁තැබෙන	-8518
▁මිරිස්	-8519
▁තරුණියක්	-8520
▁දෙදෙනාගේ	-8521
▁තඹුත්තේගම	-8522
ඳා	-8523
▁120	-8524
▁හෙලික	-8525
▁61	-8526
▁හසු	-8527
▁අත්තන	-8528
▁පාලනයට	-8529
▁සංකල්ප	-8530
▁සහරාන්	-8531
▁උද්ඝෝෂණයක්	-8532
▁පොලිස්පතිවරයාට	-8533
දූ	-8534
ෝක්	-8535
▁ශක්	-8536
දුම්ප	-8537
▁අතුකෝ	-8538
▁වන්නට	-8539
▁පිළිගත	-8540
▁නොලැබෙන	-8541
▁ප්රසාද්	-8542
▁රෝගීන්ගේ	-8543
▁අසාධාරණයක්	-8544
▁ශරීරාගාරයේ	-8545
චුව	-8546
ොල්	-8547
▁of	-8548
ීමකට	-8549
▁බෙලි	-8550
▁අධිරාජ	-8551
▁තනතුරට	-8552
▁සාවද්ය	-8553
▁දෙනාගෙන්	-8554
විස්	-8555
▁htt	-8556
▁දසුන්	-8557
මුද	-8558
ෝෂිත	-8559
▁කදු	-8560
▁සිහ	-8561
▁එක්කර	-8562
▁දුරින්	-8563
▁හෝටලයේ	-8564
▁ධූරයෙන්	-8565
▁බලමණ්ඩල	-8566
▁පරිපාලනය	-8567
▁යුක්රේනයට	-8568
▁ආණ්ඩුකාරවරයා	-8569
ගන	-8570
මල	-8571
ුදු	-8572
▁දිශ	-8573
මියර්	-8574
▁අමතා	-8575
▁අයකර	-8576
▁රදවා	-8577
▁ඇතුන්	-8578
▁විශේෂිත	-8579
▁චෝදනාවක්	-8580
▁ප්රියදර්ශන	-8581
▁නිෂ්පාදකයින්	-8582
▁74	-8583
▁භේද	-8584
▁වීම්	-8585
▁කුකුළු	-8586
▁නැවැත්ව	-8587
▁සභාවේදී	-8588
▁ජනබලවේගයේ	-8589
▁නිළධාරින්	-8590
▁සිද්ධියකට	-8591
කයා	-8592
ූරක	-8593
▁දහසක	-8594
▁ඉදිකළ	-8595
▁නුවන්	-8596
▁වුණත්	-8597
▁සංස්ථා	-8598
▁අනුබද්ධ	-8599
▁පැහැදිලිව	-8600
ිකුල	-8601
▁අරමුණයි	-8602
තුම	-8603
ස්තිය	-8604
▁තිබිණ	-8605
▁මහනායක	-8606
▁ඇතුළත්ව	-8607
▁විදුහල්පතිවරුන්	-8608
මිල	-8609
▁එතකොට	-8610
▁අසාධාරණ	-8611
▁යන්ත්රය	-8612
▁වර්ෂාපතනය	-8613
▁බලපැවැත්වෙන	-8614
▁මැදිහත්වීමෙන්	-8615
▁ආණ	-8616
▁ඇසළ	-8617
▁බිද	-8618
ුවලින්	-8619
▁තුලදී	-8620
▁බද්දේගම	-8621
▁මහත්මියගේ	-8622
එය	-8623
වෙහෙර	-8624
▁චාරි	-8625
▁බවක්	-8626
▁සෘජු	-8627
ිපිටිය	-8628
▁තෙවැනි	-8629
▁තැනැත්ත	-8630
▁සාම්ප්ර	-8631
ශීලි	-8632
▁වැටි	-8633
▁ධීවරයන්	-8634
▁පොලොන්නරුව	-8635
08	-8636
පෑ	-8637
නයන්	-8638
්රල්	-8639
▁11ක්	-8640
▁නිහඬ	-8641
▁සතුටු	-8642
▁ඉහළින්	-8643
▁මලයාසිය	-8644
▁ගොඩනැගීම	-8645
▁වැඩකටයුතු	-8646
▁ඉදිරිපිටදී	-8647
▁රඟ	-8648
ගමගේ	-8649
ලිගේ	-8650
▁එළියට	-8651
▁මද්දුම	-8652
▁වගන්ති	-8653
▁යානයෙන්	-8654
▁ගැනීමටත්	-8655
▁රුසියාවට	-8656
▁සංස්ථාවට	-8657
▁ත්රීකුණාම	-8658
▁රග්	-8659
▁නිවාර	-8660
▁කැඳවනු	-8661
▁නැතිනම්	-8662
▁මාලාවක්	-8663
▁විසඳීමට	-8664
▁ගස	-8665
▁ෆී	-8666
▁ඥාති	-8667
▁වජිර	-8668
▁රවුෆ්	-8669
▁සක්රීය	-8670
▁ගෙනවිත්	-8671
▁ආලෝක	-8672
▁සංසදය	-8673
▁කලාපයට	-8674
▁අමරතුංග	-8675
▁කළුබෝවිල	-8676
▁මාරුවීම්	-8677
▁සූදානමක්	-8678
▁විමසීමේදී	-8679
▁රෝහල්වලින්	-8680
ග්ගල	-8681
▁9ක්	-8682
▁බර්	-8683
▁වෙද	-8684
▁එවිට	-8685
▁කරමු	-8686
▁පිස්ත	-8687
▁අත්හිට	-8688
▁නොසලකා	-8689
▁ඇමතිවරු	-8690
▁චාරිත්ර	-8691
▁ජාවාරමට	-8692
▁සැතපුම්	-8693
▁නිට්ටඹුව	-8694
▁මහියංගනය	-8695
▁කිසිවෙකුත්	-8696
ro	-8697
චිත	-8698
▁චැ	-8699
▁ඇස්	-8700
▁උගත්	-8701
▁කොච්ච	-8702
▁රැස්ව	-8703
▁වැසිය	-8704
▁ශ්රවණ	-8705
ඩබ්ලිව්	-8706
▁ශ්රේණිය	-8707
▁චක්රලේඛය	-8708
▁ගජ	-8709
▁වද	-8710
▁කල්ප	-8711
▁පෙරා	-8712
▁මුරු	-8713
▁මුණගැ	-8714
▁පර්යේෂ	-8715
▁ඵලදායී	-8716
▁බේරාගෙන	-8717
▁කැඳවමින්	-8718
▁ලබාගත්තේ	-8719
56	-8720
හක්	-8721
ේ්ර	-8722
▁the	-8723
▁පාවා	-8724
වේදීන්	-8725
▁ජනගහනය	-8726
▁බෑවුම්	-8727
▁හේමන්ත	-8728
▁කාරුණිකව	-8729
▁රියදුරුට	-8730
▁හෙලිකොප්	-8731
▁පුරවැසිභාවය	-8732
ොව්	-8733
ඩ්ස්	-8734
▁වාරික	-8735
▁ක්ෂණික	-8736
▁භූමියට	-8737
▁සහතිකය	-8738
යාර	-8739
▁කදී	-8740
▁සිත	-8741
▁ඒවාට	-8742
▁දිඹු	-8743
▁විහි	-8744
නෝමතික	-8745
▁වීදිය	-8746
▁පත්වීමට	-8747
▁වැඩිවීම	-8748
▁තත්ත්වයත්	-8749
▁පදිංචිකාර	-8750
▁කටයුතුවලින්	-8751
▁ෆෝ	-8752
ාතික	-8753
න්ඩර්	-8754
▁දෙස්	-8755
▁විධාන	-8756
▁සමස්ථ	-8757
▁සෙල්ල	-8758
▁පුරවැසියන්	-8759
පැල	-8760
▁ෆෙ	-8761
▁ගෝන	-8762
▁යුවළ	-8763
▁අවමංග	-8764
▁නින්ද	-8765
▁නිවීමේ	-8766
▁නාලිකාව	-8767
▁වාර්තාවල	-8768
▁ආචාර්යවරුන්ගේ	-8769
ළී	-8770
හැකි	-8771
▁250	-8772
▁පවුල	-8773
▁මසකට	-8774
▁යැවීම	-8775
▁නිරතවන	-8776
▁ඩොනල්ඩ්	-8777
▁සේමසිංහ	-8778
▁දුම්රියක	-8779
▁වටිනාකමින්	-8780
▁2005	-8781
▁නොදී	-8782
▁රග්බි	-8783
▁වැඩක්	-8784
▁හෙළිව	-8785
▁ඉක්මවූ	-8786
▁පැනවීමට	-8787
බේ	-8788
කයක්	-8789
ධර්ම	-8790
සිත්	-8791
▁තිබි	-8792
▁ධම්ම	-8793
▁නමක්	-8794
▁පාප්	-8795
▁ඉතින්	-8796
▁ගැණුනා	-8797
▁දර්ශකය	-8798
▁බෙදුම්	-8799
▁පවුල්වල	-8800
▁වර්ජනයක	-8801
▁අධිරාජ්ය	-8802
▁සුරැකීමේ	-8803
▁රාජකාරියේ	-8804
▁සැකකටයුතු	-8805
▁ව්යවස්ථාදායක	-8806
▁පාරිභෝගිකයින්	-8807
ෆි	-8808
▁කප	-8809
▁ඒජන්	-8810
▁ශල්යක	-8811
▁හැසිරීම	-8812
▁අභියෝගයට	-8813
ur	-8814
▁ගණිකා	-8815
▁අදහසක්	-8816
▁කුවේට්	-8817
▁දක්ෂතා	-8818
▁අයදුම්ප	-8819
09	-8820
▁s	-8821
ංජන්	-8822
කාංග	-8823
බිමට	-8824
▁ගමට	-8825
▁දක්ව	-8826
▁අඛන්ඩ	-8827
▁මැරෙන	-8828
▁පූජිත්	-8829
▁විනාශයට	-8830
▁අනුපාතික	-8831
▁උසස්වීම්	-8832
▁අපහසුතාවයට	-8833
▁ආධාරකරුවන්	-8834
▁ඔන්	-8835
▁ජින්	-8836
නොෆාම්	-8837
▁ඇතිවී	-8838
▁මහමැති	-8839
▁යුක්තිය	-8840
▁හිමිවිය	-8841
▁මුදාහැරීමට	-8842
▁නේවාසිකාගාර	-8843
▁මධ්යස්ථානයට	-8844
▁ජනාධිපතිවරණයට	-8845
රූ	-8846
▁ඉඩම	-8847
▁නිස	-8848
▁පටි	-8849
▁අත්ව	-8850
▁හංදිය	-8851
▁කැපවීම	-8852
▁මොහොතකට	-8853
69	-8854
රජයේ	-8855
▁කළහ	-8856
▁වැඳ	-8857
ල්ලන්	-8858
්රාල්	-8859
▁බොරල	-8860
යාමෙන්	-8861
▁මුදලට	-8862
▁සතියේදී	-8863
▁හංවැල්ල	-8864
▁පිළිගැනීම	-8865
ශි	-8866
සාධක	-8867
▁එනු	-8868
▁වැලිමඩ	-8869
▁ඉතාලියේ	-8870
▁පිවිතුරු	-8871
▁පරිභෝජනයට	-8872
පෙළ	-8873
බ්ද	-8874
▁කුළ	-8875
▁සටන	-8876
▁ගැහැ	-8877
▁පෙළෙන	-8878
▁ප්රදාන	-8879
▁අමරසිංහ	-8880
▁අවමංගල්ය	-8881
▁දෝ	-8882
වකාශ	-8883
වියේ	-8884
▁ගනි	-8885
▁කියු	-8886
▁සෙවීම	-8887
▁ප්රහාරක	-8888
▁වෙළඳුන්	-8889
▁සමාජයක්	-8890
▁මිලිමීටර	-8891
▁දායකත්වයක්	-8892
▁නොසන්සුන්කාරී	-8893
කුට	-8894
▁88	-8895
අත්තේ	-8896
න්කන්	-8897
▁අයර්	-8898
▁ඉසව්	-8899
▁නිවෙස	-8900
▁ගම්පොළ	-8901
▁යොවුන්	-8902
▁කබ්රාල්	-8903
▁පැමිණීමේ	-8904
▁කොට්ඨාසයට	-8905
▁වෙරළාරක්ෂක	-8906
▁87	-8907
▁භෞ	-8908
ද්දි	-8909
▁රවි	-8910
▁වින	-8911
ාවරණය	-8912
▁නිකු	-8913
▁පරමා	-8914
▁මරාගෙන	-8915
▁චීනයෙන්	-8916
▁ජාතිකයා	-8917
▁යොමුකරන	-8918
▁සම්ප්රදා	-8919
▁ප්රතිසන්ධ	-8920
ංජය	-8921
▁යථ	-8922
▁කමල්	-8923
ිකිරීම	-8924
▁තෝරාගත්	-8925
▁වාහනයක්	-8926
▁දේශපාලනික	-8927
බ්බැ	-8928
ිතාය	-8929
▁පසුපස	-8930
▁පෝෂණය	-8931
▁දැරීමට	-8932
▁විසඳීම	-8933
▁පෙරාතුව	-8934
▁ගොඩනැගීමට	-8935
▁පත්වීමෙන්	-8936
▁සාකච්ඡාවල	-8937
සිනෝ	-8938
ෆික්	-8939
▁දහම්	-8940
▁හැරි	-8941
▁හොත්	-8942
▁තැන්ප	-8943
▁යානයේ	-8944
▁ලාංකීය	-8945
▁විනිශ්ච	-8946
▁අභ්යවකාශ	-8947
▁නියෝජිතාය	-8948
▁හැඳුනුම්පත්	-8949
සිත	-8950
▁කොම	-8951
▁වාච	-8952
ල්ගොඩ	-8953
▁හැරී	-8954
ාන්තික	-8955
▁කොත්ම	-8956
▁විතරයි	-8957
▁කුසලානය	-8958
▁ජනතාවක්	-8959
▁ශාස්ත්ර	-8960
▁පෙද	-8961
වරයාව	-8962
▁ඉල්ලූ	-8963
▁සංවේදී	-8964
▁අතුරින්	-8965
▁පරිශ්රය	-8966
▁උද්ඝෝෂණයක	-8967
▁බම්බලපිටිය	-8968
ජිණ	-8969
▁83	-8970
▁99	-8971
කොට්	-8972
▁එයා	-8973
ට්සර්	-8974
සියක්	-8975
යන්ගොඩ	-8976
▁දැකගත	-8977
▁සිරවී	-8978
▁නොසිටි	-8979
▁නොහොත්	-8980
▁පුටින්	-8981
▁මෑතකදී	-8982
▁වැඩමුළ	-8983
▁වශයෙන්ම	-8984
▁කිරිබත්ගොඩ	-8985
49	-8986
කන්	-8987
▁අවත	-8988
කරුවා	-8989
වයින්	-8990
▁හිසට	-8991
▁ලද්දේ	-8992
▁ප්රමිත	-8993
▁භික්ෂු	-8994
▁දේශපාලඥ	-8995
▁බහාලුම්	-8996
▁ස්තූතිය	-8997
▁කිලිනොච්චි	-8998
▁පරිශ්රයේදී	-8999
▁බලධාරීන්ගේ	-9000
▁ජනාධිපතිවරණයේදී	-9001
▁චමල්	-9002
▁ඇබ්බැ	-9003
▁කට්ටල	-9004
▁ජවිපෙ	-9005
▁බොක්ක	-9006
▁භාෂාව	-9007
▁ඇගයීමට	-9008
▁ඔබතුමා	-9009
▁ගින්නට	-9010
▁සිව්වන	-9011
▁අවභාවිත	-9012
▁විදුහලේ	-9013
▁අත්තනෝමතික	-9014
▁පැමිණීමෙන්	-9015
▁මීතොටමුල්ල	-9016
න්ම	-9017
ඳුරු	-9018
යිම්	-9019
▁විතා	-9020
ානුවන්	-9021
▁හිමින	-9022
▁දැමීමේ	-9023
▁දික්ඔය	-9024
▁මින්නේ	-9025
▁මොහොතක	-9026
▁උත්සාහය	-9027
▁සභානායක	-9028
▁වැලිකන්ද	-9029
▁සේවාදායක	-9030
▁කිරීම්වලදී	-9031
රාජා	-9032
▁ගවේ	-9033
pdate	-9034
▁කොමිය	-9035
▁ඉදිකෙර	-9036
▁නිකායේ	-9037
▁නිවේදන	-9038
▁විරෝධීව	-9039
▁අනුග්රහය	-9040
▁පෙරටුගාමී	-9041
har	-9042
වුම	-9043
▁ප්රභා	-9044
▁ගල්ගමුව	-9045
▁පිපිරීම	-9046
▁පුහුණුකරු	-9047
▁ඇස්තමේන්තු	-9048
03	-9049
ID	-9050
▁ඇහැ	-9051
▁හමන	-9052
▁කෞතු	-9053
▁දාලා	-9054
▁මැදව	-9055
ගස්තොට	-9056
▁අතුකෝර	-9057
▁පෙරමුණට	-9058
▁විසින්ම	-9059
▁උත්සවයකින්	-9060
▁පරා	-9061
▁පැෆ	-9062
වීදිය	-9063
▁ලොතර	-9064
▁වරයා	-9065
▁හරීන්	-9066
▁ජනහමුව	-9067
▁අධිකරණයක්	-9068
▁පහරදීමෙන්	-9069
භූ	-9070
ජිං	-9071
▁In	-9072
▁ශීත	-9073
▁අඩුම	-9074
පාර්ලි	-9075
▁කෙරිණ	-9076
▁ජාලයේ	-9077
▁දඩයක්	-9078
▁කැසිනෝ	-9079
▁රථයෙන්	-9080
▁මිතුරන්	-9081
▁සේවයෙන්	-9082
තාන්ත්රික	-9083
▁පහසුවෙන්	-9084
▁අතුරුගිරිය	-9085
▁ක්රියාකලාප	-9086
එෆ්	-9087
හැන්	-9088
▁ඔසවා	-9089
▁බෝවන	-9090
▁රන්ද	-9091
▁යන්නට	-9092
▁නිශ්ශංක	-9093
▁සුබසාධන	-9094
▁බහින්බස්	-9095
▁ඇග	-9096
කඩුව	-9097
▁ගෙළ	-9098
▁ගණනක	-9099
▁මීටර	-9100
ියකින්	-9101
▁නැරඹීම	-9102
▁කාර්යාංශ	-9103
▁සංරක්ෂණය	-9104
▁සංවර්ධනයට	-9105
තනයේ	-9106
ගන්නේ	-9107
ගාටුව	-9108
▁ඇවන්	-9109
▁මුතු	-9110
▁අලින්	-9111
▁ගොවිත	-9112
▁සීමිත	-9113
▁පදක්කම	-9114
▁සතියකට	-9115
▁කිසිසේත්ම	-9116
▁සාක්ෂිකරු	-9117
▁විග්නේෂ්වරන්	-9118
ිති	-9119
▁එනවා	-9120
▁නත්ත	-9121
▁හබරණ	-9122
▁සුළගේ	-9123
ක්කුලිය	-9124
▁ප්රධානතම	-9125
▁වේලාවෙන්	-9126
▁සහයෝගයෙන්	-9127
▁දැනුම්දීමේ	-9128
▁දිවුලපිටිය	-9129
දමා	-9130
ණුමේ	-9131
▁නවර	-9132
▁පොහො	-9133
▁අංගොඩ	-9134
▁නිරූප	-9135
▁කහවත්ත	-9136
▁ගෙන්වන	-9137
▁වතාවක්	-9138
▁විවාහක	-9139
▁ජයග්රහණ	-9140
▁බුද්ධික	-9141
▁වතුයායේ	-9142
▁කාන්තාවන්ට	-9143
▁ක්රියාකාරීන්	-9144
ර්ථ	-9145
ංකොං	-9146
කුණේ	-9147
▁20ක	-9148
▁උඩවල	-9149
▁කෙසේද	-9150
▁ක්රීඩාව	-9151
▁සිලින්ඩර	-9152
▁කුමාරසිංහ	-9153
▁වනෝද්යානය	-9154
01	-9155
▁ගමේ	-9156
▁පාළ	-9157
▁රංගේ	-9158
ගාවත්ත	-9159
▁ජලාශය	-9160
▁නුවරදී	-9161
▁බහුදින	-9162
▁සමාගමකට	-9163
▁තායිලන්ත	-9164
▁ද්වීපාර්	-9165
▁දැනුම්දීමක්	-9166
06	-9167
▁f	-9168
▁අග්	-9169
▁හයේ	-9170
දෙනිය	-9171
▁අමුද	-9172
▁ශතකය	-9173
▁මොනවා	-9174
▁විසඳා	-9175
▁මුස්තා	-9176
▁ඇබ්බැහි	-9177
▁මුහුණදී	-9178
▁සංවත්සරය	-9179
▁ආයෝජකයින්	-9180
▁ආරක්ෂාවක්	-9181
▁කාන්තාවකට	-9182
ංගි	-9183
▁රැස	-9184
▁යැවූ	-9185
▁මියයන	-9186
▁ලන්කන්	-9187
▁රාජකාරියට	-9188
▁ලබාදීමෙන්	-9189
▁සම්බන්ධන්	-9190
▁අයදුම්කරුවන්	-9191
ිනො	-9192
පාලි	-9193
▁50ක	-9194
සුරිය	-9195
▁ගිණුමේ	-9196
▁කැස්බෑව	-9197
▁ස්වල්පයක	-9198
▁එක්වෙමිනි	-9199
▁ප්රහාරයකට	-9200
▁පැවැත්විණි	-9201
ෙමු	-9202
වුස්	-9203
▁600	-9204
▁කලු	-9205
▁ගිල	-9206
▁පාරට	-9207
ස්ට්රා	-9208
▁දන්නා	-9209
▁නොදීම	-9210
▁එකහමාර	-9211
▁සීගිරිය	-9212
▁කාර්යයන්	-9213
▁සංවිධානයක්	-9214
▁පෙන්වාදෙන්නේ	-9215
▁දිස්ත්රීක්කයේ	-9216
ul	-9217
▁ඛේ	-9218
ුණ්ය	-9219
▁හිග	-9220
ිරාන්	-9221
ුවත්ත	-9222
▁අශෝක	-9223
▁එතැන	-9224
▁ගැනිම	-9225
▁ධනංජය	-9226
▁ගලේවෙල	-9227
▁රැහැන්	-9228
▁අපහසුතා	-9229
▁මින්නේරිය	-9230
ජ්ජ	-9231
ී්ර	-9232
▁වක	-9233
යාර්	-9234
▁අඹු	-9235
තාපල්	-9236
මාන්න	-9237
ෂරීස්	-9238
▁ඩිල්	-9239
මල්විල	-9240
▁ඇතිවු	-9241
▁සතියක්	-9242
▁ඉස්ලාම්	-9243
▁පළාතෙන්	-9244
▁සැලසීමට	-9245
▁ජනබලවේගය	-9246
▁නිරාකරණය	-9247
▁මස්කෙළිය	-9248
▁ලබාදෙන්න	-9249
▁සිංගප්පූරුව	-9250
පැය	-9251
ාවා	-9252
▁බ්	-9253
▁භු	-9254
▁බද්ධ	-9255
ාභියෝග	-9256
▁නඩුවට	-9257
▁වතාවට	-9258
▁විකුණු	-9259
▁විශිෂ්ඨ	-9260
▁වෙළඳපොල	-9261
▁කොමියුනි	-9262
▁පරිභෝජනය	-9263
▁පරිවර්තනය	-9264
▁සම්මන්ත්රණය	-9265
කප්ප	-9266
▁රෝගිය	-9267
මේන්තුව	-9268
▁අසලින්	-9269
▁දක්වයි	-9270
▁නාමලේඛ	-9271
▁සුරේෂ්	-9272
▁අවතීර්ණ	-9273
▁දිනවලදී	-9274
▁යාත්රාවේ	-9275
▁විරෝධයක්	-9276
▁අබේගුණවර්ධන	-9277
04	-9278
ලීමේ	-9279
▁ආදරය	-9280
▁පාදු	-9281
▁අනුස්ම	-9282
▁නිදහසේ	-9283
▁කොත්මලේ	-9284
▁හිමිවුණා	-9285
▁දෝෂාභියෝග	-9286
▁සංස්කෘතිය	-9287
▁අවස්ථාවකදී	-9288
හ්	-9289
▁වෑ	-9290
▁අසු	-9291
▁කූඩ	-9292
▁හදා	-9293
නාදන්	-9294
▁අවන්	-9295
▁ඔක්ට	-9296
පිටියේ	-9297
▁කැදවූ	-9298
▁පනතක්	-9299
▁පීඩනය	-9300
▁පොහොය	-9301
▁වරින්	-9302
▁බවුසර්	-9303
න්නෙත්ති	-9304
▁පෙත්සම්කාර	-9305
37	-9306
day	-9307
▁වාල	-9308
▁බෙල්	-9309
▁හෙලි	-9310
▁අපරාධය	-9311
▁සුදර්ශ	-9312
▁ඇසුරුම්	-9313
▁අභියෝගයක්	-9314
▁අමුද්රව්ය	-9315
▁බලධාරීන්ගෙන්	-9316
ඊට	-9317
▁ගසක	-9318
▁06ක්	-9319
▁දැක්ම	-9320
▁රැස්වන	-9321
▁දුප්පත්	-9322
▁මර්වින්	-9323
▁රාජ්යයක්	-9324
▁එංගලන්තයේ	-9325
▁වික්රමසිංහගේ	-9326
ඩන	-9327
ාවර	-9328
▁දාන	-9329
▁බිළි	-9330
▁එල්ලවන	-9331
▁රැස්වී	-9332
▁විෂමතා	-9333
▁සීමාවට	-9334
▁සමුද්රීය	-9335
▁නිලධාරියෙක්	-9336
වුල	-9337
හෙස	-9338
ළුම්	-9339
▁නැක	-9340
▁මඩු	-9341
▁මතභ	-9342
▁වනඅ	-9343
දහසක්	-9344
මික්ර	-9345
▁දියර	-9346
▁තුෂාර	-9347
▁වරටත්	-9348
▁අර්තාපල්	-9349
▁මන්ත්රීවරයාගේ	-9350
67	-9351
ෆෝ	-9352
▁ආචාර	-9353
▁මවගේ	-9354
▁https	-9355
▁කාලයකට	-9356
▁චාල්ස්	-9357
▁ඩේවිඩ්	-9358
▁සංකීර්ණ	-9359
▁කාන්තාවකගේ	-9360
▁සග	-9361
ුරුව	-9362
▁මෝදර	-9363
▁දුෂණය	-9364
▁ඔමික්ර	-9365
▁යැවීමේ	-9366
▁මුල්ලේර	-9367
▁ලක්ෂයකට	-9368
▁නොකිරීමට	-9369
▁හමුවකදීය	-9370
▁වර්ෂාපතනයක්	-9371
07	-9372
▁සුල	-9373
▁හක්	-9374
▁ඇසුර	-9375
▁සැඟව	-9376
▁වෙලාවේ	-9377
▁හොංකොං	-9378
අනතුරෙන්	-9379
▁විදෙස්ගත	-9380
▁දිගුකාලීන	-9381
▁ග්රෑන්ඩ්පාස්	-9382
CT	-9383
ටයි	-9384
ාම්	-9385
ප්රස්	-9386
සිංහල	-9387
ිරියේ	-9388
▁කල්ම	-9389
▁ලැබි	-9390
▁අමානු	-9391
▁බැලිය	-9392
▁මෙයයි	-9393
▁නවරත්න	-9394
▁ඇතිවීමේ	-9395
▁වර්ෂයේදී	-9396
හලක	-9397
▁බිරිද	-9398
▁ලන්ඩන්	-9399
▁වැලැක්	-9400
▁වැසිකි	-9401
▁නවීකරණය	-9402
▁පෝස්ටර්	-9403
▁ප්රහාරයේ	-9404
▁වැඩසටහනකට	-9405
▁වාර්තාවනවා	-9406
ූරු	-9407
ලිතා	-9408
▁2006	-9409
▁නිවන	-9410
▁පැති	-9411
▁බිලි	-9412
▁උඩවලව	-9413
▁ගලගොඩ	-9414
▁ගැටලූව	-9415
▁පැදියක්	-9416
▁පිවිසෙන	-9417
▁තණමල්විල	-9418
▁අප්රිකාවේ	-9419
▁කොමියුනිස්ට්	-9420
▁කොස්තාපල්වරයා	-9421
ිවර	-9422
ෙව්	-9423
▁කලක	-9424
කයන්ට	-9425
පුරම්	-9426
▁රමේෂ්	-9427
ගැනීමක්	-9428
▁ප්රංශය	-9429
▁මොකක්ද	-9430
▁යූරියා	-9431
▁වේයන්ගොඩ	-9432
▁සමත්වුණා	-9433
▁මාරාන්තික	-9434
▁ලබාදුන්නේ	-9435
▁ස්විට්සර්	-9436
▁වළක්වාලමින්	-9437
▁V	-9438
▁ඔර	-9439
විදු	-9440
වත්තේ	-9441
▁නොවු	-9442
▁රාහු	-9443
▁ස්තු	-9444
▁පුස්ත	-9445
▁ගිහාන්	-9446
▁දෝෂයක්	-9447
▁පත්රයේ	-9448
▁විකෘති	-9449
▁හිමිවූ	-9450
▁උපකුලපති	-9451
▁දික්වැල්ල	-9452
▁යොදාගනිමින්	-9453
▁සාම්ප්රදායික	-9454
68	-9455
▁ගනේ	-9456
ුණහොත්	-9457
ුන්දලම	-9458
▁යොමුවී	-9459
▁ගණනාවකට	-9460
▁ප්රංශයේ	-9461
▁පාදුක්ක	-9462
▁වර්ජනයේ	-9463
▁ඉදිරියටත්	-9464
▁ප්රිශාන්ත	-9465
▁සයිනොෆාම්	-9466
▁සාකච්ඡාවෙන්	-9467
▁පරීක්ෂකවරුන්ගේ	-9468
38	-9469
ch	-9470
නව	-9471
බො	-9472
මෙර	-9473
▁දවස්	-9474
▁භාරත	-9475
දෙනෙක්	-9476
▁අවසානය	-9477
▁කැනඩාව	-9478
▁තුලින්	-9479
▁දමමින්	-9480
▁සෙනරත්	-9481
▁සේවකයෙකු	-9482
▁හුවමාරුව	-9483
▁විජේවර්ධන	-9484
▁විරෝධතාවයක	-9485
▁හඳුන්වාදීමට	-9486
▁ව්යා	-9487
▁ඇතුල්	-9488
▁පස්වන	-9489
▁සමීපත	-9490
▁පසුබිම	-9491
▁බැහැරව	-9492
▁හැකිවූ	-9493
▁යැවීමේදී	-9494
▁මැදිහත්වීම	-9495
▁සම්බන්ධයක්	-9496
▁ගොඩනැගිල්ලේ	-9497
හට	-9498
▁කාළ	-9499
▁සනි	-9500
ිටියේ	-9501
▁කාලේ	-9502
▁මියග	-9503
▁යාබද	-9504
▁පුජ්ය	-9505
▁ක්රිඩා	-9506
▁බැරලයක	-9507
▁මට්ටමට	-9508
▁සංඛ්යාත	-9509
▁පර්යන්තය	-9510
ස්ට්රේලියා	-9511
ගයේ	-9512
▁උර	-9513
▁නෛ	-9514
ංකාර	-9515
කප්පල්	-9516
ගාටුවට	-9517
▁අත්හැර	-9518
▁කොල්ලකරුවන්	-9519
ov	-9520
▁ජො	-9521
▁මිළ	-9522
▁හිංස	-9523
▁අක්ෂි	-9524
▁දකුණේ	-9525
▁යාවත්	-9526
▁මහානායක	-9527
▁ජයවික්රම	-9528
▁සිදුවනවා	-9529
▁පැමිණිල්ලේ	-9530
ඉරි	-9531
යිල්	-9532
▁කෝපා	-9533
නියාවේ	-9534
▁අයුතු	-9535
▁නිරතවූ	-9536
▁නීතියක්	-9537
▁නොගැනීම	-9538
▁අනුරුද්ධ	-9539
▁කුමන්ත්රණය	-9540
▁ග්රී	-9541
▁පුවත	-9542
▁හතළි	-9543
▁පොකුර	-9544
▁කෝවිඩ්	-9545
▁පරිසරයට	-9546
▁පාඨමාලා	-9547
▁මංසන්ධියේ	-9548
▁අවාසනාවන්ත	-9549
පාර	-9550
▁රළ	-9551
▁සත්	-9552
වැනිදා	-9553
▁සංසරණය	-9554
▁සීමාවන්	-9555
▁මැදවච්චිය	-9556
▁ත්රිකුණාමල	-9557
▁සැලකිලිමත්	-9558
▁ජනාධිපතිවරණයේ	-9559
▁කොස්තාපල්වරයෙකු	-9560
දිව	-9561
ඇමති	-9562
▁කාට	-9563
▁ටයර්	-9564
▁ධිවර	-9565
▁දන්නේ	-9566
▁නවීන්	-9567
▁ලාංකේය	-9568
වේදීන්ගේ	-9569
▁කලාපයක්	-9570
▁පිස්තෝල	-9571
▁විකුණුම්	-9572
මො	-9573
▁තරංග	-9574
▁වානි	-9575
ානුකූල	-9576
▁අදාලව	-9577
▁ගැහැණු	-9578
▁හෝටලයක	-9579
▁කවුරුන්	-9580
▁නේවාසිකව	-9581
▁පොල්තෙල්	-9582
▁ශල්යකර්ම	-9583
▁කඩාකප්පල්	-9584
සාදය	-9585
▁ජයල	-9586
▁මහරෝ	-9587
▁මෘදු	-9588
▁ලැබීමෙන්	-9589
▁හදුනාගෙන	-9590
▁කටුගස්තොට	-9591
em	-9592
▁පැර	-9593
▁අරුණ	-9594
▁රථවල	-9595
▁සංසද	-9596
▁කැබලි	-9597
▁ග්රන්	-9598
▁නිලමේ	-9599
▁පැකට්	-9600
▁රංජන්	-9601
▁ලක්ෂය	-9602
▁පාර්සල	-9603
▁අබ්දුල්	-9604
▁නොදන්නා	-9605
▁රාශියක්	-9606
▁පැවැත්වෙනු	-9607
▁ලබාගනිමින්	-9608
▁සැකකරුවන්ට	-9609
▁w	-9610
ධනය	-9611
ර්ය	-9612
ාරණ	-9613
▁පුදු	-9614
▁ස්පා	-9615
▁පටිපා	-9616
▁පවසති	-9617
▁විමසූ	-9618
▁තියෙන්න	-9619
▁අමානුෂික	-9620
▁තුන්දෙනා	-9621
▁71	-9622
▁පැදි	-9623
▁මහනා	-9624
▁භාරදෙන	-9625
සැකකරුවන්	-9626
▁තමිල්නාඩුවේ	-9627
▁කලබල	-9628
▁වන්දන	-9629
▁ගැනුනා	-9630
▁සිටිති	-9631
▁ඔක්ටේන්	-9632
▁විකිණීම	-9633
▁ලබාගත්තා	-9634
▁මැදිරිගිරිය	-9635
ගං	-9636
ගේම	-9637
▁උග	-9638
▁චාමර	-9639
▁ශ්රම	-9640
▁අංශවල	-9641
▁අවකාශ	-9642
▁නෛතික	-9643
▁ව්යාපාරිකයන්	-9644
ir	-9645
▁79	-9646
▁තත්	-9647
▁දේශන	-9648
▁තමන්ව	-9649
▁බඩඉරි	-9650
▁එල්ලවූ	-9651
▁කොටුවේ	-9652
▁දෙනෙකුද	-9653
▁සහභාගිත්වයෙන්	-9654
▁ආන	-9655
ගාඩ්	-9656
ාවලි	-9657
ලියම්	-9658
▁අතුල	-9659
▁ජාඇල	-9660
මෙහිදී	-9661
▁නිමාව	-9662
▁මුහුදට	-9663
▁වංචනික	-9664
▁අනුපාතය	-9665
▁ගිනිගත්	-9666
▁ස්වභාවය	-9667
▁අතුරලියේ	-9668
අන	-9669
ණී	-9670
▁84	-9671
▁කමා	-9672
▁මැන	-9673
කයෙකු	-9674
▁ස්වර	-9675
▁අසමත්	-9676
ුරක්ගොඩ	-9677
▁ගොනුකළ	-9678
▁පැවරීම	-9679
▁ශූරතාව	-9680
▁ලක්වීමෙන්	-9681
▁අවශ්යතාවයක්	-9682
▁පාලනාධිකාරිය	-9683
කයි	-9684
්පු	-9685
ර්ස්	-9686
වන්ට	-9687
▁16ක්	-9688
▁මණ්ඩ	-9689
▁හයක්	-9690
කරණයක්	-9691
▁මොරගහ	-9692
▁ජයසුමන	-9693
▁ඇස්ට්රා	-9694
▁ජර්මනිය	-9695
▁කිසිවෙකුට	-9696
▁චන්ද්රසිරි	-9697
ාමය	-9698
▁කොටු	-9699
▁අසාද්	-9700
▁සැරසී	-9701
ැස්ගමුව	-9702
▁බැහැදැක	-9703
▁ක්රීඩකයා	-9704
▁විරෝධතාවට	-9705
බාන්	-9706
ිරීම	-9707
▁අහි	-9708
▁ගන්	-9709
▁ආසන්	-9710
▁මිලිය	-9711
▁යාමක්	-9712
▁රෝහලක	-9713
▁නිවාඩ්	-9714
▁නායකත්ව	-9715
▁ප්රාර්ථ	-9716
▁සංවාදයක්	-9717
▁සමරවික්රම	-9718
▁ආචාර්යවරුන්	-9719
නික්	-9720
ප්රේ	-9721
බුන්	-9722
▁13ක්	-9723
▁කුරේ	-9724
න්ගෙන්	-9725
▁අසුන්	-9726
▁ලෝකයට	-9727
▁වගාවට	-9728
▁සනිටු	-9729
▁වෙමිනි	-9730
▁කාන්තාවට	-9731
▁ප්රශ්නයට	-9732
▁අනිවාර්යයෙන්ම	-9733
පණ	-9734
▁m	-9735
හලට	-9736
ාගේ	-9737
හානි	-9738
▁දූපත්	-9739
▁පත්වු	-9740
▁වානිජ	-9741
▁විත්ත	-9742
▁දෙකෙහි	-9743
▁නොතිබූ	-9744
▁සපුරාල	-9745
▁ජයලලිතා	-9746
▁මව්වරුන්	-9747
▁කොල්ලකෑම්	-9748
▁පිළිබඳවත්	-9749
▁විශේෂඥයින්	-9750
▁මුල්ලේරියාව	-9751
ජයන්	-9752
පාල්	-9753
▁නරඹ	-9754
▁යාල	-9755
▁යෑමේ	-9756
▁එන්නේ	-9757
▁වෙල්ල	-9758
▁ආණමඩුව	-9759
▁බුත්තල	-9760
▁පාර්සල්	-9761
▁විකිණීමට	-9762
▁දිස්ත්රීක්	-9763
▁ක්රියාවලියට	-9764
▁දිස්ත්රික්වලත්	-9765
▁අග්රාමාත්යවරයාට	-9766
ොම	-9767
▁දෙව	-9768
▁ධර්	-9769
▁වදින	-9770
▁වෙනස	-9771
▁ස්වෛ	-9772
ස්ටේ්ර	-9773
▁වයිරස	-9774
▁ගැනීමක්	-9775
▁ලීටරයක්	-9776
▁ලොතරැයි	-9777
▁ස්ථාපනය	-9778
▁හමුවුණා	-9779
▁සනිටුහන්	-9780
▁අවසානයේදී	-9781
▁නිලධාරීවරයා	-9782
දුරේ	-9783
▁සනීප	-9784
▁පුවරු	-9785
▁රැජිණ	-9786
▁අඩවියට	-9787
▁තහනමක්	-9788
▁නත්තල්	-9789
▁මණ්ඩලීය	-9790
▁මුන්දලම	-9791
▁අනන්යතාව	-9792
▁ඉවත්වීමට	-9793
▁සහනාධාරය	-9794
▁සිදුවූයේ	-9795
▁පසුවන්නන්	-9796
▁මාලදිවයින්	-9797
▁යතුරුපැදියේ	-9798
▁වචන	-9799
දුමක්	-9800
▁කබීර්	-9801
▁තුර්ක	-9802
▁ප්රාග	-9803
▁ගෙවීමේ	-9804
▁පිහිටුවන	-9805
▁පෙන්වාදී	-9806
යකම	-9807
▁පථ	-9808
ඩ්න්	-9809
▁දුව	-9810
ෝත්සවය	-9811
▁කුඹුර	-9812
▁ශුද්ධ	-9813
▁ලැබිණි	-9814
▁කිහිපයේ	-9815
▁දීමනාවක්	-9816
බල්	-9817
ෝපාය	-9818
▁125	-9819
▁නංවන	-9820
▁වනජි	-9821
▁ශල්ය	-9822
▁වර්ජන	-9823
▁විනෝද	-9824
▁ග්රන්ථ	-9825
▁බිරිඳට	-9826
▁විතානගේ	-9827
▁කේන්ද්රය	-9828
▁නිරතවීමට	-9829
▁ප්රමාණයේ	-9830
▁භික්ෂුන්	-9831
▁වගකීමෙන්	-9832
▁කෞතුකාගාර	-9833
▁රැකියාවක්	-9834
මාල	-9835
ලීම්	-9836
වරුව	-9837
පැන්න	-9838
▁කෑමට	-9839
▁තුඩු	-9840
▁නවදි	-9841
▁බි්ර	-9842
▁ලීටර	-9843
▁සඳහාද	-9844
▁ආහාරයට	-9845
▁සබඳතාව	-9846
▁ගුවන්යා	-9847
▁පෙත්සමේ	-9848
▁නිවෙස්වල	-9849
▁විශ්වාසයක්	-9850
නර්	-9851
පස්	-9852
▁හසර	-9853
▁අයථා	-9854
ාගැනීම	-9855
▁ගම්වැ	-9856
▁නිරෝෂ	-9857
▁ප්රපාත	-9858
▁සටහන්ව	-9859
▁පවත්වනවා	-9860
▁වාර්තාවූ	-9861
▁වෙළඳපොළේ	-9862
▁පිළිගන්නා	-9863
▁විත්තිකාර	-9864
පිරි	-9865
▁කෘත	-9866
▁තියා	-9867
▁පුත්	-9868
ගොල්ලෑව	-9869
▁මැයෙන්	-9870
▁මුද්රා	-9871
▁හිටියා	-9872
▁අභියෝගය	-9873
ිකු	-9874
▁හඹා	-9875
▁ඉහතදී	-9876
▁උපාංග	-9877
▁සවිබල	-9878
▁සැකකර	-9879
▁ඒකමතික	-9880
▁ලක්වීම	-9881
▁සබඳතාවක්	-9882
▁අලෙවිසැල්	-9883
▁ලේකම්වරිය	-9884
▁මට්ටක්කුලිය	-9885
▁පම	-9886
▁මීගහ	-9887
▁රෝගයට	-9888
ිප්පිලි	-9889
▁ජාතින්	-9890
▁විනාශය	-9891
▁කොල්ලකා	-9892
▁ගම්මානය	-9893
▁යහපාලනය	-9894
▁ඔන්ලයින්	-9895
▁යානයකින්	-9896
▁කොට්ඨාශයට	-9897
කිසි	-9898
▁හෘදයා	-9899
▁අරාබියේ	-9900
▁මාර්ගයක	-9901
▁අඩුවීමක්	-9902
▁සොහොයුරා	-9903
▁ප්රතිශක්ති	-9904
▁ලේකම්වරයාගේ	-9905
ot	-9906
▁සමථ	-9907
ණ්ඩුව	-9908
තුමිය	-9909
හුගිය	-9910
ෑමෙන්	-9911
▁ව්ලැ	-9912
▁බිඳවැට	-9913
▁ගලගොඩඅත්තේ	-9914
මකට	-9915
මස්	-9916
▁96	-9917
▁195	-9918
▁www	-9919
▁ෆ්ර	-9920
▁ඉඩක්	-9921
▁රජරට	-9922
▁බාරදී	-9923
▁සිතිය	-9924
▁සංඛ්යා	-9925
▁සංගමයට	-9926
▁හිමිවී	-9927
▁හුදකලා	-9928
▁අපයෝජනය	-9929
▁ගැටළුවට	-9930
▁දුම්කොළ	-9931
▁වැඩිහිට	-9932
▁ප්රමුඛතම	-9933
▁බෙලිඅත්ත	-9934
▁පෙරළීමෙන්	-9935
▁ක්රියාකාරි	-9936
▁අමාත්යාංශයේදී	-9937
▁ඇර	-9938
ඩ්නි	-9939
පොලට	-9940
▁119	-9941
▁ෆෙඩ	-9942
ෝර්ක්	-9943
▁රීති	-9944
▁වට්ට	-9945
▁ආරම්භයේ	-9946
▁තැන්පතු	-9947
▁හදුන්වා	-9948
▁කොම්පඤ්ඤ	-9949
▁පුස්තකාල	-9950
ීර්ෂ	-9951
▁ඔයේ	-9952
▁ජෝස	-9953
▁අභිය	-9954
▁මිහි	-9955
එක්සත්	-9956
▁විඳින	-9957
▁අක්රිය	-9958
▁කිලෝවක	-9959
▁ගතයුතු	-9960
▁සැකසීම	-9961
▁හැකිවී	-9962
▁ප්රසාදය	-9963
▁ලක්වුණා	-9964
▁ඇලෝසියස්	-9965
අමාත්යවරයා	-9966
▁දුරකථනයෙන්	-9967
02	-9968
ත්රා	-9969
නිත්	-9970
▁අසූ	-9971
▁පංති	-9972
▁නැතුව	-9973
▁අංශයෙන්	-9974
▁කියැවෙයි	-9975
▁දෙදෙනෙකුගේ	-9976
▁මූලස්ථානයේදී	-9977
සබ	-9978
තුළ	-9979
▁89	-9980
විමට	-9981
▁වාස්	-9982
▁දියුණ	-9983
▁උපක්රම	-9984
▁තුර්කි	-9985
▁දිල්ලි	-9986
▁ෂෙහාන්	-9987
▁අලියෙකු	-9988
▁වංචාවක්	-9989
▁වරෙන්තුව	-9990
▁පකිස්ථානු	-9991
▁කොන්දොස්තර	-9992
▁ඔස්ට්රේලියාවේ	-9993
ිල	-9994
ූෂ	-9995
යක්ම	-9996
බන්දු	-9997
▁මූන්	-9998
▁ඉස්සර	-9999
▁වත්තේ	-10000
▁සුන්දර	-10001
▁කැමතියි	-10002
▁ප්රකාරව	-10003
▁මෙහෙයවන	-10004
▁ස්පාඤ්ඤ	-10005
▁ප්රවෘත්ත	-10006
ank	-10007
බ්ර	-10008
▁නූ	-10009
▁තාප	-10010
එහෙත්	-10011
▁ආකර්	-10012
▁ආභරණ	-10013
▁මතුවන	-10014
▁සබදතා	-10015
▁කරවීමට	-10016
▁සමාජික	-10017
▁ප්රධානි	-10018
▁සොහොයුර	-10019
▁ගුරුවරයා	-10020
▁දේවස්ථාන	-10021
▁පළකරමින්	-10022
▁රූපවාහිනි	-10023
▁කොඩිප්පිලි	-10024
▁හේතුවෙනුයි	-10025
▁පාරිභෝගිකයන්	-10026
▁ඛා	-10027
ණ්ඩිය	-10028
හිටපු	-10029
▁ඖෂධය	-10030
ංකොටුව	-10031
▁ලසිත්	-10032
▁හානියට	-10033
▁පැවැත්ම	-10034
▁බීමතින්	-10035
▁මුදලිගේ	-10036
▁සංචාරයට	-10037
39	-10038
බීජ	-10039
▁ඌර	-10040
▁දොළ	-10041
▁උවදුර	-10042
▁ගබඩාව	-10043
▁මළසිර	-10044
▁ඉවත්කර	-10045
▁ස්ත්රී	-10046
▁ආසාදිතව	-10047
▁එකඟත්වය	-10048
▁පරිපූරක	-10049
ිනව	-10050
▁අරඹ	-10051
▁බිබිල	-10052
▁යෝග්ය	-10053
▁රැහැන	-10054
▁අසාධ්ය	-10055
▁ගැලීම්	-10056
▁මාලිංග	-10057
▁දෙදෙනාම	-10058
▁නියාමනය	-10059
▁සිටියාය	-10060
▁පිළිගැන්	-10061
▁සන්ධානයට	-10062
▁ප්රිමියර්	-10063
▁ලැයිස්තුවේ	-10064
▁ත්රීකුණාමලය	-10065
▁නිලධාරීන්ගෙන්	-10066
▁ක්රියාමාර්ගයකට	-10067
▁චූ	-10068
ක්කල	-10069
න්ග්	-10070
ලික්	-10071
▁800	-10072
▁වයසේ	-10073
▁ආර්යා	-10074
▁පැනවූ	-10075
▁සමීපතම	-10076
▁තොටුපලේ	-10077
▁පාසල්වලට	-10078
▁වෛද්යවරු	-10079
▁ප්රේමරත්න	-10080
▁කන්කසන්තුරේ	-10081
▁ද්විපාර්ශ්වික	-10082
ut	-10083
කරා	-10084
තිඥ	-10085
▁4ක	-10086
▁6ක	-10087
▁යේ	-10088
▁අතරේ	-10089
▁පසුබ	-10090
දුරුතු	-10091
▁අක්රීය	-10092
▁වැදුණු	-10093
▁මාර්ගගත	-10094
ස්ටේ්රලිය	-10095
▁සැළකිල්ලට	-10096
▁ප්රවේශපත්ර	-10097
gle	-10098
▁පෙළඹ	-10099
▁කසුන්	-10100
▁කුමක්	-10101
▁නල්ලත	-10102
▁භූමික	-10103
▁මුතුර	-10104
▁කිරීමද	-10105
▁ජයතිලක	-10106
▁දිමුත්	-10107
▁සායනික	-10108
▁ජීවිතයේ	-10109
▁ජාතිවාදය	-10110
▁වැලලාගෙන	-10111
▁යාවත්කාලීන	-10112
භව	-10113
ඇති	-10114
වසන	-10115
නුකූලව	-10116
▁කොටගල	-10117
▁මාලාව	-10118
▁අවශ්යව	-10119
▁නිවාරණ	-10120
▁පියාසර	-10121
▁සැත්කම්	-10122
▁පදිංචිකරුවෙකි	-10123
ප්ති	-10124
▁කණි	-10125
▁දීයි	-10126
ංකොල්ල	-10127
සිෆික්	-10128
▁10000	-10129
▁තලංගම	-10130
▁අතීතයේ	-10131
▁බොදුබල	-10132
▁මෙහෙයු	-10133
▁හපුතලේ	-10134
▁කොස්ගොඩ	-10135
▁ජීවිතයට	-10136
▁පිතිකරු	-10137
▁Q	-10138
කළේ	-10139
ිකළ	-10140
කුළු	-10141
▁ලත්	-10142
▁මන්ත	-10143
▁පාඩුව	-10144
▁පැල්ම	-10145
වැන්නක්	-10146
▁ගාන්ධි	-10147
▁පිරිවැය	-10148
▁නීතිපතිවරයාගේ	-10149
fi	-10150
සස්	-10151
▁98	-10152
▁කරල	-10153
▁ඩ්රෝ	-10154
▁සෙවන	-10155
▁වර්ධන	-10156
▁හසරංග	-10157
▁වෛරසයට	-10158
▁ආර්ථිකයේ	-10159
▁පත්රිකාව	-10160
▁උද්ඝෝෂණයේ	-10161
▁පර්යන්තයේ	-10162
▁යොදාගන්නා	-10163
▁එක්ස්ප්රස්	-10164
▁නිවේදනයෙන්	-10165
▁පුනරුත්ථාපනය	-10166
ීක	-10167
▁යෞ	-10168
▁ඉවර	-10169
භාග්ය	-10170
▁ඉඩමක	-10171
▁මෙල්	-10172
විද්යා	-10173
▁නිර්ණ	-10174
▁දැමුණු	-10175
▁පියෙක්	-10176
▁කියවීමේ	-10177
▁නායයෑම්	-10178
▁පන්තියේ	-10179
▁සංශෝධිත	-10180
▁කාර්යංශය	-10181
▁සම්බන්ධය	-10182
▁සිව්දෙනා	-10183
▁සේවකයන්ට	-10184
වරට	-10185
▁ඉව	-10186
ටිගල	-10187
▁10ට	-10188
සුමක්	-10189
▁පොහෝ	-10190
▁අතරමැ	-10191
▁පාත්ර	-10192
▁පින්න	-10193
▁ශීර්ෂ	-10194
▁ඇත්තටම	-10195
▁දැරියක	-10196
▁පලාගිය	-10197
▁ස්කොට්	-10198
▁අවුරුද්	-10199
▁පෙරමුණු	-10200
▁රත්නප්රිය	-10201
චෝද	-10202
ෙස්	-10203
▁2ක	-10204
▁උක	-10205
▁තරු	-10206
▁පිටු	-10207
වාදීන්	-10208
▁වෙහෙස	-10209
පැලැස්ස	-10210
▁මහීපාල	-10211
▁සමාජයට	-10212
▁ස්වෛරී	-10213
▁අබේරත්න	-10214
▁අවබෝධයක්	-10215
▁අසල්වැසි	-10216
▁පහරදීමක්	-10217
▁සාක්ෂිකරුවන්	-10218
ෝනි	-10219
▁කැඩ	-10220
▁දියන	-10221
▁පහන්	-10222
ක්කොඩි	-10223
▁මිත්ත	-10224
▁පුහුණුවක්	-10225
ලන්ද	-10226
ියගේ	-10227
▁අම්	-10228
▁තරා	-10229
▁දූප	-10230
▁පටු	-10231
▁විල	-10232
▁සහයක	-10233
ල්වින්	-10234
▁200ක්	-10235
▁එමෙන්	-10236
▁ගම්පොල	-10237
▁තල්දූව	-10238
▁ජාවාරමක	-10239
▁නගරයෙන්	-10240
▁ප්රාග්ධ	-10241
▁මංකොල්ල	-10242
▁ගනුදෙනුව	-10243
▁අත්හිටුවනු	-10244
▁දේවස්ථානයේ	-10245
ag	-10246
▁ඔරු	-10247
oogle	-10248
ගමුවේ	-10249
▁2007	-10250
▁අනුශා	-10251
▁සහායක	-10252
▁ඉන්පසු	-10253
▁කියලයි	-10254
▁ලක්විය	-10255
▁සැරිසර	-10256
▁නිරතවුණා	-10257
▁පෙම්වතිය	-10258
▁මඩුල්ලක්	-10259
▁කුමන්ත්රණ	-10260
▁අර්බුදයෙන්	-10261
ඬු	-10262
▁ටො	-10263
▁පහක	-10264
▁පළවන	-10265
▁අහමඩ්	-10266
▁කාලසට	-10267
▁පස්සර	-10268
▁වාරිය	-10269
▁ඉදිකරන	-10270
▁ගෙවන්න	-10271
▁පහුගිය	-10272
▁විජිත්	-10273
▁සෘජුවම	-10274
▁දංකොටුව	-10275
▁රවීන්ද්ර	-10276
▁අධ්යාපනයට	-10277
▁සංචාරයේදී	-10278
▁අමාත්යංශයට	-10279
▁වික්රමනායක	-10280
▁බොරලැස්ගමුව	-10281
▁ළි	-10282
පුවේ	-10283
▁ඇදහ	-10284
ෆ්ටර්	-10285
▁2004	-10286
▁තනිව	-10287
කෝට්ටේ	-10288
ේන්ද්ර	-10289
▁කැරට්	-10290
▁නොදුන්	-10291
▁ප්රශ්ණ	-10292
▁ශිල්පී	-10293
▁සදාචාර	-10294
▁පිපිරීම්	-10295
▁පේදුරුතු	-10296
▁මෘදුකාංග	-10297
▁එදිරිසිංහ	-10298
▁ඇස්ට්රාසෙන	-10299
▁බුලත්සිංහල	-10300
75	-10301
ංකර	-10302
ඳුනන	-10303
▁උමා	-10304
▁සාර	-10305
ම්පන්න	-10306
▁වේදිකාවේ	-10307
▁නීතීඥවරයා	-10308
▁ඉංජිනේරුවර	-10309
▁කාර්යාලයෙන්	-10310
▁ජාවාරම්කරුවෙකු	-10311
▁ඝන	-10312
▁රද	-10313
ිකරණ	-10314
▁අයක	-10315
▁ඇතා	-10316
ුණිකා	-10317
▁දෙපස	-10318
▁ගොඩක්	-10319
▁වෙහෙර	-10320
▁කර්නල්	-10321
▁සුමංගල	-10322
▁ඇතිවුණා	-10323
▁කිහිපයේදී	-10324
▁දේශපාලනයට	-10325
▁විමර්ශනවල	-10326
▁විරෝධතාවයක්	-10327
▁ගොඩනැගිල්ලක්	-10328
රාම්	-10329
ුවිට	-10330
ලන්ඩ්	-10331
▁කෙන්	-10332
▁ප්රඥ	-10333
▁විප්	-10334
▁එමින්	-10335
▁පලාත්	-10336
▁පොම්ප	-10337
▁බවුසර	-10338
▁ස්මාර	-10339
▁පියාගේ	-10340
▁කැනඩාවේ	-10341
▁සොරාගෙන	-10342
▁අනුස්මරණ	-10343
▁සිදුකිරීමේ	-10344
▁ක්රීඩාංගනයේ	-10345
▁ප්රදේශවාසින්	-10346
66	-10347
කේන්	-10348
වන්නට	-10349
▁අරන්	-10350
▁තුළම	-10351
▁අලගිය	-10352
▁කරවීම	-10353
▁කැපවී	-10354
▁ජයලත්	-10355
▁ධූරයට	-10356
▁වාද්ද	-10357
▁සීග්ර	-10358
▁හරියට	-10359
▁ප්රසංග	-10360
▁පැවසිය	-10361
▁භාරදීම	-10362
▁අල්විස්	-10363
▁පළමුවරට	-10364
▁යුරෝපයේ	-10365
▁සිසුවාගේ	-10366
▁වටිනාකමක්	-10367
▁ව්යාපාරයට	-10368
▁විද්යාලයීය	-10369
ap	-10370
ig	-10371
im	-10372
▁ඇඳුම	-10373
▁වීදි	-10374
ල්ලෙන්	-10375
▁බියක්	-10376
▁වනදාට	-10377
▁වයිස්	-10378
▁ජනශක්ති	-10379
▁විෂයභාර	-10380
▁මිනිත්තු	-10381
▁වැඩිමහල්	-10382
▁හෙලිකොප්ටර්	-10383
▁ජාන	-10384
▁තාම	-10385
▁ගිළී	-10386
▁තලවක	-10387
▁සැමට	-10388
▁ඇතුලුව	-10389
▁ඉතාලිය	-10390
▁කොටහේන	-10391
▁ගෙවුණු	-10392
▁සෙවීමට	-10393
▁උත්සවයේ	-10394
▁ප්රභාකර	-10395
▁බස්නායක	-10396
▁විජයදාස	-10397
▁මුද්රණාල	-10398
▁ප්රදේශවලත්	-10399
▁පිතිකරුවන්	-10400
බාද්	-10401
▁මහව	-10402
▁වැර	-10403
▁හමා	-10404
▁18ක්	-10405
▁ඔක්සි	-10406
▁පර්ල්	-10407
▁දරුවාට	-10408
▁යවන්නන්	-10409
▁සමාලෝචනය	-10410
▁ශීඝ්රයෙන්	-10411
▁තායිලන්තයේ	-10412
▁ප්රතිපත්තිමය	-10413
දුක්	-10414
හලක්	-10415
▁නෙර	-10416
න්දිර	-10417
▁60ක්	-10418
▁වනාත	-10419
▁ව්යස	-10420
▁අසළදී	-10421
▁ඇණවුම්	-10422
▁කොච්චික	-10423
▁හෙදියන්	-10424
▁ගිහිල්ලා	-10425
▁චාරිකාවක	-10426
▁පරික්ෂණය	-10427
▁ලබාදෙන්නේ	-10428
▁හිමිකරගෙන	-10429
▁නගරාධිපතිවරයා	-10430
සියට	-10431
යන්ති	-10432
රියාව	-10433
▁කරවන	-10434
ජයන්ත්	-10435
▁මතයක්	-10436
▁වාචික	-10437
▁කම්පනය	-10438
▁විෂබීජ	-10439
▁විසඳුම	-10440
▁වැඩිපුර	-10441
▁චිත්රපටය	-10442
▁පැසිෆික්	-10443
▁පරීක්ෂණවල	-10444
▁සුරක්ෂිතතාව	-10445
භ්ය	-10446
ානේ	-10447
▁තෑ	-10448
ංගණය	-10449
▁ගඟට	-10450
▁සල්	-10451
▁දියව	-10452
▁පතුර	-10453
▁සතියක	-10454
ිකරුවෙකු	-10455
▁පසුබිමක්	-10456
▁මහත්මියට	-10457
▁කලාකරුවන්	-10458
▁අධිකරණයේදී	-10459
▁ප්රසිද්ධියේ	-10460
ෙති	-10461
ත්තම	-10462
▁15ක	-10463
▁සමූ	-10464
▁භාජනය	-10465
▁සිරගත	-10466
▁නිල්වලා	-10467
▁පැදිකරු	-10468
▁ලබාදෙනු	-10469
▁දෙපාර්ශවය	-10470
▁and	-10471
▁මලල	-10472
ගත්තා	-10473
▁කර්ත	-10474
▁පෙති	-10475
▁ලහිරු	-10476
▁සම්පාද	-10477
▁හතලිස්	-10478
▁අනතුරකට	-10479
▁ප්රජාවට	-10480
▁ඇමතිතුමා	-10481
▁හිරුණිකා	-10482
▁ආසාදිතයෙකු	-10483
▁වැඩිහිටියන්	-10484
ගසා	-10485
ුමු	-10486
පෙන්	-10487
ියකට	-10488
▁පෘථි	-10489
▁මයික	-10490
ියාගොඩ	-10491
▁සුමති	-10492
▁උද්යාන	-10493
▁බීමත්ව	-10494
▁සඳහාත්	-10495
▁හැකිවන	-10496
▁අනුනායක	-10497
▁විසදුමක්	-10498
▁කාන්තාවකි	-10499
චර්	-10500
▁උම	-10501
▁සෑහ	-10502
▁2030	-10503
▁දූපත	-10504
තුරෙයි	-10505
▁කියුබ	-10506
▁සභාවල	-10507
▁කරද්දී	-10508
▁කොකේන්	-10509
▁ඩෙල්ටා	-10510
▁නාහිමි	-10511
▁පාපැදි	-10512
▁පොරොන්දුව	-10513
▁මාලදිවයින	-10514
සමා	-10515
සැර	-10516
කාඩු	-10517
ැන්න	-10518
ිමත්	-10519
▁30ක	-10520
▁එවක	-10521
▁දමි	-10522
▁බංක	-10523
▁ඇන්ට	-10524
▁ගණිත	-10525
ාචාර්ය	-10526
▁බීමත්	-10527
▁Update	-10528
▁කිතුල්	-10529
▁පැවසුව	-10530
▁ලැබීමේ	-10531
▁වනජිවි	-10532
▁තෝරාගෙන	-10533
▁නිලවරණය	-10534
▁සංකල්පය	-10535
▁කරගැනීමේ	-10536
▁නොකළහොත්	-10537
▁ගින්නකින්	-10538
▁රියදුරෙකු	-10539
▁සම්බන්ධීකරණය	-10540
මීය	-10541
▁86	-10542
▁ඞී	-10543
කච්ච	-10544
වැරට	-10545
▁උල්	-10546
▁දහස	-10547
ංග්ස්	-10548
රණායක	-10549
▁සුමන	-10550
පත්තුව	-10551
▁අඩුකර	-10552
▁සාධනීය	-10553
▁අබේසේකර	-10554
▁එන්ජින්	-10555
▁පිරිසක්ද	-10556
▁ගිනිගත්හේන	-10557
▁මධ්යස්ථානවල	-10558
ter	-10559
▁SL	-10560
▁ෆර්	-10561
▁ජෝසප්	-10562
▁සටහනේ	-10563
▁පිදුම්	-10564
▁මාධ්යය	-10565
▁ආපනශාලා	-10566
▁රෝගාතුර	-10567
▁අලගියවන්න	-10568
▁වීරක්කොඩි	-10569
▁සාධාරණයක්	-10570
▁වාර්තාවෙන්	-10571
▁මාධ්යවේදීන්ට	-10572
නල	-10573
200	-10574
▁in	-10575
▁ඊජ	-10576
ද්වී	-10577
මෙලෙස	-10578
▁07ක්	-10579
▁10කට	-10580
▁අනුක	-10581
▁ජානක	-10582
▁සිත්	-10583
▁40000	-10584
ිකිරීමට	-10585
▁කල්පනා	-10586
▁දරමින්	-10587
▁සංචිතය	-10588
▁හැරුණු	-10589
▁නිකවැරට	-10590
▁පිළිතුරක්	-10591
▁මන්ත්රීවර	-10592
▁සිදුවෙමින්	-10593
▁ඇෆ්ගනිස්ථානය	-10594
▁දඟ	-10595
පාතී	-10596
ගහවෙල	-10597
තාන්ය	-10598
▁අමල්	-10599
▁ලාෆ්	-10600
▁පැදවූ	-10601
▁පිටිය	-10602
මන්නාරම	-10603
▁යෙදුණු	-10604
▁ස්වර්ණ	-10605
▁ආධිපත්ය	-10606
▁පැටවුන්	-10607
▁රාත්රිය	-10608
▁හඳුන්වන	-10609
▁ඇතුළුවීමට	-10610
▁සිටියදීයි	-10611
▁ඇෆ්ගනිස්ථාන	-10612
▁ශ්රේෂ්ඨාධිකරණයේ	-10613
id	-10614
ෙළ	-10615
කයට	-10616
▁17ක්	-10617
▁කරවා	-10618
▁නාමය	-10619
▁එක්නැ	-10620
▁අතරවාර	-10621
▁බැංකුවට	-10622
▁යුරෝපීය	-10623
▁ට්රැක්ටර්	-10624
▁සිදුකරගෙන	-10625
▁හඳුනාගැනීම	-10626
▁කන්කසන්තුරය	-10627
▁පාකිස්ථානයේ	-10628
භි	-10629
▁බෙල	-10630
ච්චේන	-10631
▁2024	-10632
▁ජනගහ	-10633
▁යමක්	-10634
▁දඩයම්	-10635
▁පළාතට	-10636
▁නාඳුනන	-10637
▁පිටපත්	-10638
▁පිලිබඳව	-10639
▁ජලාපවාහන	-10640
▁විපක්ෂයට	-10641
▁සිදුකරන්නේ	-10642
▁කුමන්ත්රණයක්	-10643
ශීල	-10644
ලාභය	-10645
▁ගිං	-10646
▁ගායනා	-10647
▁ගියේය	-10648
▁ජෙනරල්	-10649
▁පළතුරු	-10650
▁පෙට්ටි	-10651
▁මයිකල්	-10652
▁ශාලාවක	-10653
▁පත්වෙලා	-10654
▁මියයාමේ	-10655
▁සිදුකළේ	-10656
▁තරුණයෙකි	-10657
▁සංක්රමණය	-10658
▁ස්ථාවරත්වය	-10659
77	-10660
lo	-10661
ශාන්	-10662
ස්කි	-10663
▁2500	-10664
▁කෝවි	-10665
▁පණ්ඩ	-10666
▁මූලා	-10667
▁ඇපයක්	-10668
▁දෙගුණ	-10669
▁දේශිය	-10670
▁වගන්ත	-10671
තුවක්කු	-10672
සම්මිල්	-10673
▁යටතේයි	-10674
▁සිඩ්නි	-10675
▁සේවාවේ	-10676
▁තැනැත්තා	-10677
▁වන්දියක්	-10678
▁හැසිරුණු	-10679
▁අනතුරුවලින්	-10680
▁පරීක්ෂකවරයෙකු	-10681
ියාය	-10682
▁උන්	-10683
මාලිය	-10684
ාගාරය	-10685
▁අංශක	-10686
▁අදයි	-10687
▁ඍජුව	-10688
▁නොගැ	-10689
▁මෙතන	-10690
▁දේශනය	-10691
▁ඇඟලුම්	-10692
▁ඉතිරිව	-10693
▁කිව්වේ	-10694
▁කීපයක්	-10695
▁ජනපතිවරයා	-10696
▁නීතිඥයින්	-10697
▁පාරිභෝගිකයන්ට	-10698
ඉර	-10699
විටම	-10700
▁ටේර	-10701
▁බැට	-10702
මාන්ය	-10703
▁දිලී	-10704
▁මහේෂ්	-10705
▁ගසාගෙන	-10706
▁භාරකාර	-10707
▁ෆීල්ඩ්	-10708
▁තුනකින්	-10709
▁සියල්ලම	-10710
▁ඇතුළුවීම	-10711
▁කොංග්රස්	-10712
▁මවට	-10713
▁3000	-10714
▁අපවත්	-10715
▁ගැඹුර	-10716
▁තායිවා	-10717
▁ලොකුගේ	-10718
▁පළාතේත්	-10719
▁උපවාසයක්	-10720
▁නල්ලතන්න	-10721
▁උත්සාහයක්	-10722
▁අරගලකරුවන්	-10723
▁සැකකරුගෙන්	-10724
▁මන්ත්රීවරයාට	-10725
ක්කෝ	-10726
සෙන්	-10727
මානයට	-10728
වෘද්ධ	-10729
▁24ක්	-10730
▁චෙක්	-10731
▁ලෝකඩ	-10732
▁වසන්	-10733
ස්ථාන්	-10734
▁කාලයට	-10735
▁තොණ්ඩ	-10736
▁පුණ්ය	-10737
▁නන්දලාල්	-10738
▁සහතිකයක්	-10739
▁ව්යාපෘතියට	-10740
▁දිස්ත්රික්කයේත්	-10741
ධා	-10742
ඩින්	-10743
සාන්	-10744
පෙරදිග	-10745
▁උඩුගම	-10746
▁හදනවා	-10747
▁ෂාෆ්ටර්	-10748
▁සෙල්ලම්	-10749
▁සුන්බුන්	-10750
▁පිරිනැමීම	-10751
▁සොයාබැලීම	-10752
ගරු	-10753
තන්	-10754
සම්බ	-10755
ුන්ට	-10756
ෙණිය	-10757
ෙන්ද	-10758
ේඩිය	-10759
▁සරි	-10760
▁ඇත්ද	-10761
▁දීමක්	-10762
▁සීඝ්ර	-10763
▁අනාවැක	-10764
▁තබාගත්	-10765
▁මරණයක්	-10766
▁හෙළිකර	-10767
▁නිපුණතා	-10768
▁පහරදීම්	-10769
▁යම්කිසි	-10770
▁කමාන්ඩර්	-10771
▁යාන්ත්රණය	-10772
▁සැසිවාරයට	-10773
▁පැල්මඩුල්ල	-10774
46	-10775
led	-10776
ගාම	-10777
▁සැළක	-10778
▁කන්නය	-10779
▁දැකිය	-10780
▁පවුම්	-10781
▁එක්විය	-10782
▁දර්ශනය	-10783
▁මගීන්ට	-10784
▁උත්සන්න	-10785
▁කාරණයක්	-10786
▁තලවකැලේ	-10787
▁බෝට්ටුව	-10788
▁වරායෙන්	-10789
▁මංසන්ධිය	-10790
▁හිමිවරුන්	-10791
▁කැදවුම්කරු	-10792
ෆ්ල	-10793
ත්තෙ	-10794
ඳුරේ	-10795
සිස්	-10796
▁පොර	-10797
ප්රමා	-10798
සබෙත්	-10799
▁ශබ්ද	-10800
▁අඩුවී	-10801
▁අසභ්ය	-10802
▁ලේඛනය	-10803
▁මයික්ර	-10804
▁හොරොව්	-10805
▁93	-10806
▁දෘ	-10807
▁බලශ	-10808
ලිගොඩ	-10809
▁ඇන්ත	-10810
▁බැව්	-10811
▁සමඟම	-10812
▁එතැන්	-10813
▁නම්කර	-10814
▁කෙනෙකු	-10815
▁වැලිවේ	-10816
▁ස්ටාර්	-10817
▁හිටියේ	-10818
▁ජයග්රාහී	-10819
▁ස්වාමින්	-10820
▁පිරවුම්හල	-10821
▁පිළිබඳවයි	-10822
▁බි්රතාන්ය	-10823
ස්ති	-10824
▁අසන	-10825
▁සැප	-10826
▁කැළඹ	-10827
▁පෝලි	-10828
▁යෞවන	-10829
▁බිස්ක	-10830
▁මර්ධන	-10831
▁කෙරෙයි	-10832
▁ප්රවාහ	-10833
▁පැනවීම	-10834
▁සමාලෝචන	-10835
▁ටිල්වින්	-10836
▁වන්දනාවේ	-10837
▁ශක්තියක්	-10838
▁නිකවැරටිය	-10839
▁අධ්යක්ෂිකා	-10840
▁කථිකාචාර්ය	-10841
▁දිනාගැනීමට	-10842
▁භයා	-10843
▁උපයන	-10844
▁නියඟ	-10845
▁ශානක	-10846
▁හාල්	-10847
▁අස්ථි	-10848
▁හැදෑර	-10849
▁එළඹීමට	-10850
▁දැක්වේ	-10851
▁ධනුෂ්ක	-10852
▁පදනම්ව	-10853
▁දියුණුව	-10854
▁ධනාත්මක	-10855
▁වෙඩිතැබ	-10856
▁සෞභාග්ය	-10857
▁නුවරඑලිය	-10858
යාම්	-10859
▁අවංක	-10860
▁කැමැ	-10861
▁තිලි	-10862
▁ශානි	-10863
▁සාලි	-10864
▁පන්දහ	-10865
▁ඔවුන්ව	-10866
▁පවතිනු	-10867
▁බලමින්	-10868
▁වැඩපිලි	-10869
▁විමසීම්	-10870
▁හිතන්නේ	-10871
▁නායකයින්ගේ	-10872
▁පිපිරීමෙන්	-10873
▁ඔස්ට්රේලියාවට	-10874
බවා	-10875
ීතර	-10876
▁චැන	-10877
▁රක්	-10878
චෝදනා	-10879
▁කොටා	-10880
▁පිංක	-10881
ම්පාදන	-10882
▁නියමු	-10883
▁පුරාණ	-10884
▁බහුලව	-10885
▁මංජුල	-10886
▁මෙහෙවර	-10887
▁සිටිමු	-10888
▁ජාතින්ගේ	-10889
▁සැකකෙරෙන	-10890
▁ආයුධවලින්	-10891
▁ආරම්භවීමට	-10892
▁පරීක්ෂණවලට	-10893
▁අපේක්ෂකයෙකු	-10894
▁අතුරුදන්වූවන්	-10895
▁එල	-10896
යිකා	-10897
ලියන්	-10898
▁සාර්	-10899
▁අනිත්	-10900
▁පැවසු	-10901
▁ළමයෙකු	-10902
▁අස්වීමේ	-10903
▁පරාක්රම	-10904
▁සැපයීමේ	-10905
▁උත්තරීතර	-10906
▁මුස්තාෆා	-10907
▁රාජ්යයන්	-10908
▁මැදපෙරදිග	-10909
▁සිසුවියක්	-10910
▁ගැටුම්කාරී	-10911
▁ක්රියාවලියක්	-10912
59	-10913
ණුම්	-10914
සේන්	-10915
ිතාව	-10916
ිනයේ	-10917
▁ස්වේ	-10918
▁ගෙවල්	-10919
▁මුරලි	-10920
▁අඛන්ඩව	-10921
▁නෝර්වේ	-10922
▁මාසිකව	-10923
▁මෙනවිය	-10924
▁අනාගතයේ	-10925
▁කිසිවිට	-10926
▁සුවදුක්	-10927
▁රැදවියන්	-10928
▁වැඩියෙන්	-10929
▁අවුරුද්දේ	-10930
▁ගැටුමකින්	-10931
▁විභාගයෙන්	-10932
▁පේදුරුතුඩුව	-10933
ීමය	-10934
▁ළග	-10935
ිල්ල	-10936
▁තෙර	-10937
▁හැඩ	-10938
ෝත්සව	-10939
ප්පාවල	-10940
▁කි්රය	-10941
▁චින්තක	-10942
▁හතළිස්	-10943
▁කල්මුණේ	-10944
▁මුතුරාජ	-10945
▁වැටලීමට	-10946
▁තරුණියගේ	-10947
▁ක්ෂේත්රවල	-10948
▁සමාගම්වලට	-10949
▁පන්නිපිටිය	-10950
▁මහාධිකරණයේ	-10951
▁සිලින්ඩරයක	-10952
▁මහජනතාවගෙන්	-10953
▁ලියාපදිංචිය	-10954
බෙ	-10955
වැඩ	-10956
ිනම්	-10957
▁සිව	-10958
▁1500	-10959
▁ඒකරා	-10960
▁500ක්	-10961
▁ඩ්රෝන	-10962
▁උපදේශන	-10963
▁උදාහරණය	-10964
▁දියනෑමට	-10965
▁ස්ථානයකට	-10966
▁හැකිවූයේ	-10967
▁මුසම්මිල්	-10968
33	-10969
යාන්	-10970
▁70ක්	-10971
▁නාවල	-10972
▁මෙක්	-10973
▁සෝදි	-10974
▁කඳුකර	-10975
▁සතුටට	-10976
▁අධිකයි	-10977
▁ප්රකාශකයා	-10978
▁ප්රාර්ථනා	-10979
▁රාජධානියේ	-10980
▁බ්රිතාන්යය	-10981
▁සහා	-10982
කාර්ය	-10983
ාත්තා	-10984
▁ඉසුර	-10985
▁කඹුර	-10986
▁සමිත	-10987
▁ඉඩමක්	-10988
▁ට්රක්	-10989
▁භෞතික	-10990
▁උපවාසයේ	-10991
▁තනතුරෙන්	-10992
▁සුළංවලින්	-10993
view	-10994
▁011	-10995
▁ශෂී	-10996
▁ඔබගේ	-10997
▁කොහො	-10998
▁දිල්	-10999
▁පෙරහ	-11000
පීරිස්	-11001
▁එතරම්	-11002
▁නොසැල	-11003
▁සිටයි	-11004
▁කැනීම්	-11005
▁කැස්බෑ	-11006
▁බද්දක්	-11007
▁අප්රසාදය	-11008
▁අලුත්කඩේ	-11009
▁බෝම්බයක්	-11010
▁ශාලාවේදී	-11011
▁ධීවරයින්ට	-11012
▁ජාත්යන්තරය	-11013
▁ඇස්ට්රාසෙනෙකා	-11014
ඩො	-11015
▁100ක	-11016
▁තාප්	-11017
▁තිසර	-11018
▁නොදැන	-11019
▁පරම්ප	-11020
▁පෙදෙස	-11021
▁සොරකම	-11022
▁සිරුරට	-11023
▁එකඟතාවය	-11024
▁එකිනෙකා	-11025
▁ගණුදෙනු	-11026
▁ඔක්සිජන්	-11027
▁ඡන්දයෙන්	-11028
▁ඩිල්ෂාන්	-11029
▁හෘදයාබාධ	-11030
මුහ	-11031
පතාන	-11032
යිස්	-11033
▁ස්ප	-11034
▁තීරය	-11035
කයින්ට	-11036
▁ධූරයේ	-11037
▁සර්වඥ	-11038
▁මහතායි	-11039
▁සූක්ෂම	-11040
කාරීත්වය	-11041
▁අබේසිංහ	-11042
▁පැෆ්රල්	-11043
▁ගැටළුවලට	-11044
▁තත්ත්වයක	-11045
▁පරිශ්රයට	-11046
▁ලාංකිකයෙකු	-11047
සභ	-11048
▁තවම	-11049
▁හිතා	-11050
▁අභියස	-11051
▁ටිකට්	-11052
▁මලික්	-11053
▁මාලිග	-11054
▁පල්ලෙක	-11055
▁පුරාවට	-11056
▁අසාධාරණය	-11057
▁ඉංජිනේරුවන්	-11058
▁ත්රස්තවාදීන්	-11059
▁කෘෂිකර්මාන්තය	-11060
ීටී	-11061
▁මද	-11062
ක්රී	-11063
තාවක	-11064
▁බහුල	-11065
▁යෙදීම	-11066
▁ගැබිණි	-11067
▁තනතුරේ	-11068
▁තාත්තා	-11069
▁පදනමක්	-11070
ස්ථානයක්	-11071
▁අමෙරිකා	-11072
▁අරමුණක්	-11073
▁අර්ථසාධක	-11074
▁බොහොමයක්	-11075
▁ශ්රීලංකා	-11076
▁කාර්යාලවල	-11077
▁සාමාන්යාධිකාරි	-11078
▁82	-11079
rive	-11080
ට්ටා	-11081
නාමය	-11082
ජීවනය	-11083
▁කැලි	-11084
▁ගසක්	-11085
▁ගීතා	-11086
▁නිදා	-11087
▁සගවා	-11088
▁පොකුණ	-11089
▁මැණික	-11090
ේඩියානු	-11091
▁අරණායක	-11092
▁දෙකකදී	-11093
▁නිගමනය	-11094
▁වනතෙක්	-11095
▁වැඩකරන	-11096
▁මොනරාගල	-11097
▁මාර්ගයේදී	-11098
▁සමුළුවේදී	-11099
▁මූලස්ථානයට	-11100
ce	-11101
▁Z	-11102
ෙවි	-11103
ුන්ගේ	-11104
▁ඊසාන	-11105
▁කච්ච	-11106
▁භාරව	-11107
▁අවපාත	-11108
▁ඉවහල්	-11109
▁පසුකර	-11110
▁බවත්ඒ	-11111
▁විවේච	-11112
▁මන්නාර	-11113
▁සංසදයේ	-11114
▁මන්තී්ර	-11115
▁එකඟතාවකට	-11116
▁ජනහමුවකට	-11117
▁නිර්දේශය	-11118
▁වෙළෙඳුන්	-11119
▁ක්රියාවන්	-11120
▁නොපැවැත්ව	-11121
▁මාලදිවයිනේ	-11122
ධම්ම	-11123
ුද්ද	-11124
▁යනා	-11125
▁යාය	-11126
▁අලස්	-11127
▁තහඩු	-11128
▁නානු	-11129
පැතුම්	-11130
▁නයිජී	-11131
▁ගැණුනු	-11132
▁ජලාශවල	-11133
▁එප්පාවල	-11134
▁කුරුවිට	-11135
▁වැඩවර්ජ	-11136
▁වෙළදපොළ	-11137
▁ශ්රීලංක	-11138
▁සභාවෙන්	-11139
▁මහියංගණය	-11140
▁පාකිස්තානය	-11141
▁කිලෝග්රෑමයක්	-11142
ටස්	-11143
්දර	-11144
ිපති	-11145
▁ගෝල්	-11146
▁විල්	-11147
ගාකන්ද	-11148
▁රහිතව	-11149
ස්මුල්ල	-11150
▁පැවසූවේ	-11151
▁විනිසුර	-11152
▁නිරිතදිග	-11153
▁කේන්ද්රයේ	-11154
▁වාතාවරණයක්	-11155
▁ආසාදිතයින්ගේ	-11156
ers	-11157
▁ගෙවී	-11158
▁මගහැර	-11159
▁ඇතිවීම	-11160
▁පිලිපී	-11161
▁විෂයන්	-11162
▁වෙනකොට	-11163
▁සියඹලා	-11164
▁දැක්විය	-11165
▁නිරෝෂන්	-11166
▁පුරුෂයා	-11167
▁පොළොන්න	-11168
▁බඩඉරිඟු	-11169
▁අවධානමක්	-11170
▁ටේරෂරීස්	-11171
▁පළමුවනදා	-11172
▁ලබාදීමටයි	-11173
▁අමාත්යවරුන්ගේ	-11174
44	-11175
ෙත	-11176
රුවේ	-11177
▁කහට	-11178
▁නොය	-11179
▁මොබ	-11180
▁බෙහෙ	-11181
▁ඉරානය	-11182
▁නොවිය	-11183
▁සමීපව	-11184
▁ආපදාවට	-11185
▁බැලීමේ	-11186
▁මෙයින්	-11187
▁නිවාසවල	-11188
▁ප්රචලිත	-11189
▁ප්රියමාලි	-11190
▁පැදියකින්	-11191
පහ	-11192
හම	-11193
කල්	-11194
▁81	-11195
පොලී	-11196
මහත්	-11197
▁24ක	-11198
▁ඩග්	-11199
▁පොත	-11200
▁ශිරා	-11201
▁අණදෙන	-11202
▁පදවිය	-11203
▁සන්නා	-11204
සම්බන්ධ	-11205
▁ගාල්ලේ	-11206
▁විසිනි	-11207
▁වෛරසයේ	-11208
▁අස්ථාවර	-11209
▁ආධාරයෙන්	-11210
▁තුර්කියේ	-11211
▁කොච්චිකඩේ	-11212
▁කැනේඩියානු	-11213
▁නියෝජිතයෙකු	-11214
78	-11215
දුණ	-11216
හදු	-11217
ගිනි	-11218
දවාච	-11219
නින්	-11220
වාදි	-11221
▁උස්	-11222
▁රටම	-11223
ර්ෂල්	-11224
▁ඉහළට	-11225
▁බැක්	-11226
▁හදලා	-11227
google	-11228
▁රත්ගම	-11229
▁වකවාන	-11230
▁ඉන්ද්ර	-11231
▁ටිරාන්	-11232
▁ඇත්දැයි	-11233
▁නොවන්නේ	-11234
▁විසිනුයි	-11235
▁ස්වල්පයක්	-11236
▁හතරදෙනෙකු	-11237
▁කර්මාන්තයට	-11238
▁පුහුණුවීම්	-11239
▁කි්රයාමාර්ග	-11240
ංසක	-11241
ගාල	-11242
▁චෛ	-11243
▁වච	-11244
යියා	-11245
කරණයට	-11246
▁ගමනට	-11247
▁මාගේ	-11248
▁රිජ්	-11249
▁25000	-11250
▁30000	-11251
▁අළුත්	-11252
▁ගැනුණේ	-11253
▁විවේචන	-11254
▁බිරිඳගේ	-11255
▁වියට්නාම	-11256
▁ස්වාධීනව	-11257
▁තිබියදීත්	-11258
▁එක්නැලිගොඩ	-11259
ෂු	-11260
ඳින	-11261
පනේ	-11262
▁350	-11263
▁කපු	-11264
▁අද28	-11265
▁මිනී	-11266
▁ඉසුරු	-11267
▁වැදීම	-11268
▁ජාසිංහ	-11269
▁පාසලක්	-11270
▁මට්ටම්	-11271
▁දේශසීමා	-11272
▁වින්දිත	-11273
▁කරමිනුයි	-11274
▁චෝදනාවලට	-11275
▁නිලධාරින	-11276
▁අත්තනගල්ල	-11277
▁ඔමික්රොන්	-11278
▁ක්රීඩාංගණය	-11279
▁සාමාජිකයින්ට	-11280
පෝෂ	-11281
ංගල්	-11282
්රදේශ	-11283
▁ටියු	-11284
▁තිරු	-11285
▁රියා	-11286
▁සායන	-11287
▁හාලි	-11288
▁ඔවුහු	-11289
▁නොච්ච	-11290
▁පුදුම	-11291
▁කොස්ගම	-11292
▁කාත්තන්	-11293
▁උද්යානයේ	-11294
▁සහභාගිවීමට	-11295
ිරු	-11296
▁91	-11297
▁දළු	-11298
කරුණා	-11299
න්ගොඩ	-11300
▁පැයක	-11301
▁පෙරද	-11302
▁හැමෝ	-11303
වතුගොඩ	-11304
▁දිනකම	-11305
▁මතුවී	-11306
▁සුළඟේ	-11307
වරයෙකුට	-11308
▁ඛේදවාච	-11309
▁තත්වයේ	-11310
▁සිටියද	-11311
▁අදාළවයි	-11312
▁පැත්තෙන්	-11313
▁හෙක්ටයාර	-11314
▁වෙළෙඳසැල්	-11315
36	-11316
ඝාත	-11317
ාවු	-11318
රාජ්	-11319
ෆ්ට්	-11320
▁130	-11321
▁ජෝශ	-11322
drive	-11323
තුඩුව	-11324
▁22ක්	-11325
▁බිල්	-11326
▁මැනි	-11327
▁තිබ්බ	-11328
▁පූජාව	-11329
▁යක්කල	-11330
▁යොදවන	-11331
▁ඇවිල්ලා	-11332
▁නිරීක්ෂ	-11333
▁අරමුණෙන්	-11334
▁කවුරුන්ද	-11335
▁ජර්මනියේ	-11336
▁පරිසරයක්	-11337
▁පිවිසුම්	-11338
▁ලිපියෙන්	-11339
▁පහරදීමකින්	-11340
▁ඇෆ්ගනිස්ථානයේ	-11341
CC	-11342
ිස්	-11343
ූපය	-11344
ස්සී	-11345
▁එලි	-11346
▁වැරැ	-11347
දාසන්න	-11348
මුල්ලේ	-11349
▁අනධ්ය	-11350
▁කාංචන	-11351
▁ප්ලස්	-11352
▁එරටින්	-11353
▁කෙතරම්	-11354
▁ඩග්ලස්	-11355
▁දූෂණයට	-11356
▁මහඇමති	-11357
▁වෙරළබඩ	-11358
▁දෙවියන්	-11359
▁ඉස්ලාමීය	-11360
▁ජාතිවාදී	-11361
▁සමාගමෙන්	-11362
▁අධ්යාපනයේ	-11363
▁සහභාගිවීම	-11364
▁නිව්යෝර්ක්	-11365
▁පෙත්සම්කරු	-11366
පාර්ලිමේන්තු	-11367
▁අත්බෝම්බයක්	-11368
▁ක්රියාකලාපය	-11369
▁අමාත්යවරයාගෙන්	-11370
අප	-11371
ිතව	-11372
▁ඉඟ	-11373
▁ජැ	-11374
▁තඹ	-11375
▁දණ	-11376
▁භී	-11377
▁ෆු	-11378
ච්ඡා	-11379
වැල්	-11380
සීමට	-11381
▁මොළ	-11382
▁08ක්	-11383
▁ගතවන	-11384
▁බැඳී	-11385
▁මර්ද	-11386
▁තීරයට	-11387
▁භයානක	-11388
▁කැබිති	-11389
▁දිලුම්	-11390
▁විධානය	-11391
▁කයිට්ස්	-11392
▁ගෙන්වීම	-11393
▁තදාසන්න	-11394
▁අපරාධයක්	-11395
▁භූමියේදී	-11396
▁වීරකැටිය	-11397
▁පාර්ශ්වයේ	-11398
▁විශිෂ්ටතම	-11399
මළ	-11400
ූණ	-11401
රීති	-11402
▁ලිබ	-11403
▁විත	-11404
▁හේම	-11405
comfi	-11406
▁තැපෑ	-11407
විදුලි	-11408
▁අභිනව	-11409
▁පහරක්	-11410
▁පැවසේ	-11411
▁මෙතැන	-11412
▁වික්ට	-11413
▁පුරුදු	-11414
▁බහුතරය	-11415
▁රිජ්වේ	-11416
comfiled	-11417
▁කිරීම්වල	-11418
▁පිරිපහදු	-11419
▁අනන්යතාවය	-11420
▁නිරීක්ෂණයට	-11421
▁පැවැත්වුණි	-11422
ැර	-11423
ුධ	-11424
රැව්	-11425
ෝරියා	-11426
▁අක්ම	-11427
▁ගැවස	-11428
▁වන්න	-11429
▁සෙවණ	-11430
▁හතරක	-11431
▁තෙදින	-11432
▁දිසාව	-11433
▁ප්රසූ	-11434
▁බංගලා	-11435
▁මතින්	-11436
▁මොහුට	-11437
▁අයවැයට	-11438
▁දෙන්නට	-11439
▁එන්නතක්	-11440
▁කොමර්ෂල්	-11441
▁ලබාදෙනවා	-11442
▁සූදානම්ව	-11443
▁httpsdrive	-11444
▁කියාසිටියා	-11445
▁බලාපොරොත්තුවෙන්	-11446
ෙදා	-11447
▁බය	-11448
▁ශ්	-11449
පත්ව	-11450
▁එහා	-11451
▁බැණ	-11452
▁මාධ	-11453
▁හදන	-11454
▁35ක්	-11455
▁ශාඛා	-11456
haring	-11457
▁අදින්	-11458
▁ඉනිමේ	-11459
▁නගරවල	-11460
▁ලැබුනු	-11461
▁සැමරීම	-11462
▁තරුණියක	-11463
▁විපක්ෂව	-11464
▁ක්රීඩාවේ	-11465
▁වෙළඳපොළට	-11466
▁සුපුරුදු	-11467
▁උනන්දුවක්	-11468
▁පාර්ශවයන්	-11469
▁පිළිගැනීමට	-11470
දම	-11471
සිං	-11472
ෝපා	-11473
▁Ch	-11474
▁හඩ	-11475
බුදු	-11476
ාලේඛ	-11477
▁අපර	-11478
▁අතරමං	-11479
▁අභිලා	-11480
▁උළෙලට	-11481
▁තහනමට	-11482
▁පිල්ල	-11483
▁විමර්	-11484
ඉරිප්පු	-11485
▁අහිංසක	-11486
▁අස්වීමට	-11487
▁තායිලන්තය	-11488
▁පරීක්ෂණයේදී	-11489
▁හඳුන්නෙත්ති	-11490
▁මන්ත්රිවරුන්	-11491
දෙණ	-11492
දේව	-11493
▁බෙද	-11494
▁අසලට	-11495
▁ආර්ථ	-11496
▁උදාකර	-11497
▁කම්පන	-11498
▁චැනල්	-11499
▁චෛත්ය	-11500
▁දේහයට	-11501
▁නුවරට	-11502
▁මොහොම	-11503
▁සම්පත	-11504
▁ආයතනික	-11505
▁කදවුරේ	-11506
▁ජේම්ස්	-11507
▁දියතලාව	-11508
▁ගෙන්වීමට	-11509
▁දේශබන්දු	-11510
▁මුහුණදෙන	-11511
▁මෙහෙයවීම	-11512
▁ප්රපාතයකට	-11513
▁ගුරුවරුන්ට	-11514
▁සුරක්ෂිතතා	-11515
▁අධ්යක්ෂවරුන්	-11516
ාංග	-11517
▁කථ	-11518
තිකා	-11519
ති්ර	-11520
වයස්	-11521
ෂින්	-11522
හුවා	-11523
▁50කට	-11524
▁දන්ත	-11525
▁හරක්	-11526
ගන්නවා	-11527
▁විකිර	-11528
▁වෙද්දී	-11529
▁වේලාවට	-11530
▁සැලසුම	-11531
▁ෆෙඩරල්	-11532
▁තරඟයේදී	-11533
▁සාධාරණය	-11534
▁ගැනීමටයි	-11535
▁පිලපිටිය	-11536
▁සැලකෙන්නේ	-11537
▁නීතිපතිවරයාට	-11538
▁පෙත්සම්කරුවන්	-11539
ia	-11540
ාට	-11541
වරම	-11542
▁ෆා	-11543
▁12ක	-11544
▁මැග	-11545
නාට්ය	-11546
▁හබරා	-11547
▁පලස්ත	-11548
▁බීජිං	-11549
▁සාමූහ	-11550
▁ඩොලරයට	-11551
▁ඵලදායි	-11552
▁එක්කෝටි	-11553
▁තරඟයෙන්	-11554
▁රක්ෂිතය	-11555
▁අධිචෝදනා	-11556
▁ක්රියාදා	-11557
▁කොන්ත්රා	-11558
▁රාජකාරිය	-11559
▁ධාරිතාවක්	-11560
▁නෙදර්ලන්ත	-11561
▁හිඟුරක්ගොඩ	-11562
▁රියදුරන්ගෙන්	-11563
ang	-11564
තාන	-11565
ස්ර	-11566
usps	-11567
පිටි	-11568
▁අරල	-11569
▁කඩඉ	-11570
▁කනි	-11571
ුන්නා	-11572
ුවෙනි	-11573
▁ආසනය	-11574
▁බෙදී	-11575
▁විටම	-11576
▁සිල්	-11577
▁ඔත්තු	-11578
▁මෙහෙම	-11579
▁රසායන	-11580
▁රියර්	-11581
▁අඩවියේ	-11582
▁පැනයකට	-11583
viewusps	-11584
▁ප්රයෝජන	-11585
▁සිටින්න	-11586
▁සෝමාලිය	-11587
▁හන්දියේ	-11588
▁අසීරුතාව	-11589
▁සංවර්ධනයක්	-11590
▁ස්වාධීනත්වය	-11591
viewuspsharing	-11592
▁කැබිතිගොල්ලෑව	-11593
ra	-11594
පරි	-11595
▁ෂැ	-11596
ඉන්ද	-11597
ගුම්	-11598
▁තටා	-11599
▁නර්	-11600
▁රෝය	-11601
ියකිය	-11602
▁බදවා	-11603
▁යුනි	-11604
▁සැහැ	-11605
▁දූපතේ	-11606
▁මාසයක	-11607
▁තැබීම්	-11608
▁ලියකිය	-11609
▁අරමුදලට	-11610
▁නායයාම්	-11611
▁පටහැනිව	-11612
▁වයස්කාර	-11613
▁විසර්ජන	-11614
▁කාර්යයක්	-11615
▁පාඨමාලාව	-11616
▁ශිල්පීන්	-11617
▁ඉගැන්වීම්	-11618
▁චාරිකාවකට	-11619
▁විද්වතුන්	-11620
▁ආදායම්ලාභී	-11621
▁ජෙනරාල්වරයා	-11622
▁සභාපතිවරයාට	-11623
අපි	-11624
පැන	-11625
▁කිං	-11626
▁කීට	-11627
▁කෙළ	-11628
▁ග්ල	-11629
▁කේරල	-11630
▁අස්වන	-11631
▁තිදරු	-11632
▁බිරිය	-11633
▁යෝෂිත	-11634
▁වැටෙන	-11635
▁පසුදින	-11636
▁රැළියට	-11637
▁පරිප්පු	-11638
▁පිළිවෙත	-11639
▁මාරසිංහ	-11640
▁ළඟාවීමට	-11641
▁කෙරෙමින්	-11642
▁දියණියගේ	-11643
▁දුම්රියට	-11644
▁පැවැත්වු	-11645
▁වැටලීමක්	-11646
▁වියදමින්	-11647
▁නිවැසියන්	-11648
▁සිරදඬුවම්	-11649
▁හමුදාවෙන්	-11650
▁කාර්යාලයක්	-11651
▁චක්රලේඛයක්	-11652
▁නොච්චියාගම	-11653
▁සිදුවීමෙන්	-11654
▁ගොඩනැගිල්ලක	-11655
79	-11656
මීර	-11657
හරු	-11658
දරන්	-11659
ස්පර	-11660
සිකෝ	-11661
ාතූන්	-11662
▁පහකට	-11663
▁ලැව්	-11664
ාගැනීමට	-11665
▁ගැලපෙන	-11666
▁ජයරාම්	-11667
▁අත්වැල්	-11668
▁කරන්නන්	-11669
▁පෙළපාලි	-11670
▁නොකරන්නේ	-11671
▁බලශක්තිය	-11672
▁ගොඩනැගීමේ	-11673
▁ලබාගත්තේය	-11674
▁මහමැතිවරණය	-11675
▁මුතුරාජවෙල	-11676
▁ප්රමාණයකින්	-11677
▁වැරදිකරුවන්	-11678
▁මූලිකත්වයෙන්	-11679
▁අමාත්යාංශයෙන්	-11680
ටර	-11681
▁b	-11682
ල්පේ	-11683
▁යාන	-11684
වින්ම	-11685
▁අද29	-11686
▁මෝඩි	-11687
▁ඉසව්ව	-11688
▁කරලීම	-11689
▁ඥාතිය	-11690
▁තිරණය	-11691
▁මරණකරු	-11692
▁වැටීමට	-11693
▁විකිරණ	-11694
▁ජොන්සන්	-11695
▁රැකවරණය	-11696
▁නිසාවෙන්	-11697
▁නීතිරීති	-11698
▁බලකරමින්	-11699
▁ඉදිකිරීමේ	-11700
▁පැහැදිලිය	-11701
▁හොරොව්පතාන	-11702
▁පොලිස්පතිවරයාගේ	-11703
ෆී	-11704
චනා	-11705
ජිය	-11706
▁CO	-11707
▁180	-11708
වෙනවා	-11709
▁සුරැ	-11710
කුමාර්	-11711
▁මෝසම්	-11712
▁විටෙක	-11713
▁ඉරුදින	-11714
▁එක්වීම	-11715
▁සමත්වී	-11716
▁දරුවෙක්	-11717
▁මිහින්ත	-11718
▁රෝගයෙන්	-11719
▁වතුකරයේ	-11720
▁ව්යවසාය	-11721
▁විද්යාය	-11722
▁නියෝජිතයා	-11723
▁ලබාදීමේදී	-11724
▁සැරයන්වරයා	-11725
▁නිලධාරියෙකුට	-11726
um	-11727
බන්ධ	-11728
මුතු	-11729
ලෝන්	-11730
සමක්	-11731
▁හේත	-11732
වතියි	-11733
▁ටෙක්	-11734
▁වාරයේ	-11735
▁බැක්ටී	-11736
▁වෙළඳසැල	-11737
▁වේලාවක්	-11738
▁බැලීමේදී	-11739
▁කිහිපයක්ම	-11740
▁පහව	-11741
▁මතක	-11742
▁නැංග	-11743
▁කින්න	-11744
▁මහජනය	-11745
▁ශිරාණි	-11746
▁කිංග්ස්	-11747
▁දෙනෙකුම	-11748
▁සම්බන්ද	-11749
▁අතිවිශේෂ	-11750
▁එකමුතුවේ	-11751
▁සමාගම්වල	-11752
▁වනාතවිල්ල	-11753
▁පැවැත්වීමේ	-11754
▁පරීක්ෂණයෙන්	-11755
▁පුද්ගලයන්ගේ	-11756
▁විද්යාඥයින්	-11757
කටා	-11758
ලිකාර	-11759
▁දිළි	-11760
▁වටයට	-11761
▁හතක්	-11762
▁ඇණහිට	-11763
▁පටිගත	-11764
▁පළකළා	-11765
▁යුගයේ	-11766
ාගැනීමේ	-11767
▁පවතියි	-11768
▁කවුරුත්	-11769
▁සැමරීමට	-11770
▁රාජධානිය	-11771
▁සුමතිපාල	-11772
▁ජනගහනයෙන්	-11773
▁වීඩියෝවක්	-11774
▁සේවකයන්ගේ	-11775
▁බංග්ලාදේශයේ	-11776
▁94	-11777
▁ආත	-11778
ගත්ත	-11779
ඳුම්	-11780
▁දස්	-11781
චිත්ර	-11782
▁අන්ය	-11783
▁තෑගි	-11784
▁හුණු	-11785
▁ඉතාලි	-11786
▁කුරුඳ	-11787
▁පිළිප	-11788
▁පුරාව	-11789
▁පෙට්ට	-11790
▁වැළඳී	-11791
▁හිංසා	-11792
▁අරගලයට	-11793
▁වෙළඳාම	-11794
▁සබරගමු	-11795
▁පකිස්තා	-11796
▁පස්වරුව	-11797
▁ප්රවේශය	-11798
▁විශුද්ධ	-11799
▁විවාදයක්	-11800
▁ප්රමාදයක්	-11801
▁සංඛ්යාලේඛ	-11802
▁නවසීලන්තයේ	-11803
▁පරීක්ෂණයකට	-11804
▁ලියකියවිලි	-11805
▁සොයාගැනීමට	-11806
▁යතුරුපැදියක	-11807
පන්	-11808
ලම්	-11809
වරම්	-11810
▁ක්ව	-11811
ෙනුත්	-11812
▁අද26	-11813
▁පතොර	-11814
▁පිරී	-11815
▁වාඩි	-11816
▁සාධන	-11817
▁පැටවා	-11818
▁පත්රයට	-11819
▁පරිවාස	-11820
▁ප්රයත්	-11821
▁සක්රිය	-11822
▁මට්ටමකට	-11823
▁විමර්ශනයට	-11824
▁ක්රමවේදයන්	-11825
▁ප්රතිපත්තියට	-11826
මිණි	-11827
▁30ට	-11828
▁ඔබා	-11829
▁අඩපණ	-11830
▁අද20	-11831
▁ගතවී	-11832
▁දිනෙක	-11833
▁පිළිස	-11834
▁ඉවත්වන	-11835
▁දෙකෙන්	-11836
▁නගරයක්	-11837
▁බලයෙන්	-11838
▁සිතාසි	-11839
▁කැදවීමට	-11840
▁කෙනෙකුට	-11841
▁වර්ගයක්	-11842
▁හිමිවනු	-11843
▁තුන්වැනි	-11844
▁සම්පුර්ණ	-11845
▁ටෙලිනාට්ය	-11846
▁අතුරුදන්වූ	-11847
▁අනතුරුදායක	-11848
▁සනීපාරක්ෂක	-11849
▁සංකීර්ණයේදී	-11850
▁අභියාචනාධිකරණයට	-11851
ඩ්ඩ	-11852
වනී	-11853
ැකෝ	-11854
කුගේ	-11855
ලිප්	-11856
▁ජෙර	-11857
▁පැස	-11858
ෙයාර්	-11859
▁පීඨය	-11860
දුන්නා	-11861
▁කුරුස	-11862
▁ජනිත්	-11863
▁පිළිවෙළ	-11864
▁සඟවාගෙන	-11865
▁ප්රදර්ශන	-11866
▁තානාපතිවරුන්	-11867
▁ක්රියාකාරීත්වය	-11868
▁උන	-11869
▁140	-11870
▁එකක	-11871
▁කාව	-11872
▁සලක	-11873
ත්මික	-11874
▁අද24	-11875
▁මෙගා	-11876
▁වරම්	-11877
▁සූදු	-11878
පුද්ගල	-11879
හෙට්ටි	-11880
▁ඇතිවේ	-11881
▁මාසයට	-11882
▁කණිෂ්ඨ	-11883
▁කතාවක්	-11884
▁කන්දක්	-11885
▁කාලීනව	-11886
▁මාසයකට	-11887
▁සාදයක්	-11888
▁ඉන්පසුව	-11889
▁ප්රචාරණ	-11890
▁මාකඳුරේ	-11891
▁යුද්ධයේ	-11892
▁ඒකාධිපති	-11893
▁කින්නියා	-11894
▁වාලච්චේන	-11895
▁ශ්රේණියට	-11896
▁ඇමැතිවරයා	-11897
▁අධිකාරීවරයා	-11898
▁ප්රසිද්ධියට	-11899
os	-11900
▁000	-11901
▁ඉවස	-11902
▁අද21	-11903
▁අරසු	-11904
තුමාගේ	-11905
▁ඩිංගි	-11906
▁නොතබන	-11907
▁කාමරයේ	-11908
▁කාළගුණ	-11909
▁නිදොස්	-11910
▁මිනිසා	-11911
▁රෝගයක්	-11912
▁රැසකින්	-11913
▁මෙක්සිකෝ	-11914
▁විත්තියේ	-11915
▁කුමක්දැයි	-11916
▁සෙල්සියස්	-11917
▁ප්රමුඛත්වය	-11918
▁යොමුකරමින්	-11919
▁සිදුකෙරුණු	-11920
65	-11921
▁එස	-11922
ාලීන	-11923
ැන්ඩ	-11924
ියර්	-11925
▁ගැළ	-11926
▁ගායන	-11927
▁ප්රභූ	-11928
▁මුදවා	-11929
▁දුරස්ථ	-11930
▁සිරුරේ	-11931
▁නොසැලකි	-11932
▁මත්පෙති	-11933
▁නිවැරදිව	-11934
▁පෙත්සමෙන්	-11935
▁කෙටුම්පතක්	-11936
▁වාර්තාවෙයි	-11937
▁වික්ටෝරියා	-11938
▁ඔස්ට්රෙලියානු	-11939
34	-11940
රෝ	-11941
ෑමක්	-11942
▁විස්	-11943
කයන්ගේ	-11944
▁ඇදුම්	-11945
▁ගැනෙන	-11946
▁වියලි	-11947
▁සුප්ර	-11948
▁එමනිසා	-11949
▁නෙවිල්	-11950
▁වීඩියෝව	-11951
▁හිමිකාර	-11952
▁පුවත්පතේ	-11953
▁බලප්රදේශ	-11954
▁කිහිපයක්ද	-11955
▁නීතීඥවරුන්	-11956
ak	-11957
▁d	-11958
ලෝර්	-11959
▁700	-11960
▁අබල	-11961
▁ගුජ	-11962
▁මවක	-11963
ුවාන්	-11964
▁අවිධ	-11965
▁කරති	-11966
▁මනූෂ	-11967
▁සංගණ	-11968
▁ඇඟිලි	-11969
▁පළකරන	-11970
▁බවත්එ	-11971
▁අරගලයේ	-11972
▁දිනයන්	-11973
▁ප්රවීන	-11974
▁ආම්පන්න	-11975
▁තුවක්කු	-11976
▁ප්රතිශෝධ	-11977
▁ගැටලුකාරී	-11978
ලයි	-11979
වැල	-11980
න්සි	-11981
▁අබු	-11982
▁දළඹ	-11983
▁පරම	-11984
ලාවන්	-11985
ෑන්ස්	-11986
▁අද16	-11987
▁රිච්	-11988
ර්මානු	-11989
▁කරුවල	-11990
▁මරණීය	-11991
▁වනුයේ	-11992
▁වෙන්ව	-11993
▁ප්රභාත්	-11994
▁බාලවයස්	-11995
▁භාෂාවෙන්	-11996
▁රාජකරුණා	-11997
▁වැසියන්ට	-11998
▁නැවතුම්පොළ	-11999
්රම	-12000
ුරම්	-12001
▁225	-12002
▁එවන	-12003
චුවල්	-12004
▁තැනට	-12005
▁දමිළ	-12006
▁වේවා	-12007
▁සංයු	-12008
▁අලාභය	-12009
▁වසරකම	-12010
▁හිතවත්	-12011
▁තොටුපළේ	-12012
▁මුණසිංහ	-12013
▁එවැන්නක්	-12014
▁දෙහිඅත්ත	-12015
▁සැකකරුවකු	-12016
▁නිෂ්පාදනයට	-12017
▁සැරයන්වරයෙකු	-12018
▁ඵ	-12019
කාව	-12020
මුල	-12021
▁ඇසූ	-12022
▁ටෝක	-12023
▁පුල	-12024
▁ළගා	-12025
▁21ක්	-12026
▁බණ්ඩ	-12027
▁ලේඛණ	-12028
▁හැදු	-12029
▁300ක්	-12030
▁උසාවි	-12031
භාවයෙන්	-12032
▁කුසලතා	-12033
▁ගැටුමට	-12034
▁සිදුවේ	-12035
▁හොරකම්	-12036
▁පත්වූයේ	-12037
▁කඹුරුපිටිය	-12038
▁පත්රිකාවක්	-12039
▁වනෝද්යානයේ	-12040
ණක	-12041
කමට	-12042
▁ඔසු	-12043
▁බෝර	-12044
▁ලෙඩ	-12045
වරියට	-12046
▁පුදා	-12047
▁ජීවන්	-12048
▁ඇඟවීම්	-12049
▁නොතිබීම	-12050
▁පත්කරනු	-12051
▁පිරිනමන	-12052
▁පිරිනමා	-12053
▁සංචිතයට	-12054
▁සෙබලුන්	-12055
▁කළමණාකරණ	-12056
▁කොමිසමක්	-12057
▁නිර්මාතෘ	-12058
▁පන්දුවක්	-12059
▁බංගලාදේශ	-12060
▁පල්ලෙකැලේ	-12061
▁උන්වහන්සේගේ	-12062
ානුක	-12063
▁ඥාණ	-12064
▁ශාස	-12065
ටර්ස්	-12066
▁අද12	-12067
▁හදාර	-12068
දානයක්	-12069
මහින්ද	-12070
▁එදිනම	-12071
▁කන්දේ	-12072
▁දැමිය	-12073
▁සංහිද	-12074
▁සරිලන	-12075
▁ක්රමයේ	-12076
▁නොවීමට	-12077
▁බලපෑමට	-12078
▁බ්රෙන්	-12079
▁බුදුන්	-12080
▁ලැගුම්	-12081
▁සැත්කම	-12082
▁පත්වීමේ	-12083
▁සරසවියේ	-12084
▁සෝදිසිය	-12085
▁වාර්තාගත	-12086
▁තෙල්දෙණිය	-12087
▁දෙපාර්ශ්ව	-12088
▁මහජනතාවගේ	-12089
▁සීඝ්රයෙන්	-12090
▁ප්රදේශවලදී	-12091
▁රැස්වීමෙන්	-12092
▁ආනයනකරුවන්ගේ	-12093
ජාබ්	-12094
ලුණු	-12095
වාජි	-12096
පන්දු	-12097
▁අටක්	-12098
▁ගොණු	-12099
▁සුගත	-12100
▁විදාන	-12101
▁හිතකර	-12102
▁අංශවලට	-12103
▁අධිෂ්ඨ	-12104
▁කාණ්ඩය	-12105
▁කුමාරි	-12106
▁රහසිගත	-12107
▁වතාවත්	-12108
▁ඉදිකිරි	-12109
▁ඒකමතිකව	-12110
▁කාර්යයේ	-12111
▁කෙහෙලිය	-12112
▁නායයෑමේ	-12113
▁රෝහල්වලට	-12114
▁නිලධාරීහු	-12115
▁වැලිවේරිය	-12116
3ක	-12117
▁3කට	-12118
▁උප්	-12119
▁තෝර	-12120
බැද්ද	-12121
▁ඇන්ඩ	-12122
▁පූජක	-12123
▁සභාප	-12124
දාත්මක	-12125
▁පරස්පර	-12126
▁පල්ලිය	-12127
▁ප්රේම්	-12128
▁ගමන්වාර	-12129
▁කොස්වත්ත	-12130
▁ප්රමාණයක	-12131
▁කාන්තාවන්ගේ	-12132
▁ග්	-12133
ෆෙන්	-12134
▁රහසේ	-12135
▁රෝහි	-12136
▁උපහාර	-12137
▁ඔබාමා	-12138
▁දඩුවම	-12139
▁පන්නල	-12140
▁පිටරට	-12141
▁අන්තයේ	-12142
▁පැරිස්	-12143
▁හුසේන්	-12144
▁දේපළවලට	-12145
▁නොමැතික	-12146
▁ලිපිනයේ	-12147
▁පාවෙමින්	-12148
▁පැවසුවාය	-12149
▁පිරිවෙන්	-12150
2ක	-12151
88	-12152
▁අගල	-12153
▁වටර	-12154
ගංවිල	-12155
▁පතිත	-12156
▁විමසන	-12157
▁අඩුවීම	-12158
▁සෙලෙන්	-12159
▁ඒජන්සිය	-12160
▁වැටුපක්	-12161
▁නිරාවරණය	-12162
▁සිදුනොවන	-12163
▁ප්රමුඛතාව	-12164
▁වැටලීමේදී	-12165
▁කාර්යාංශයට	-12166
▁පකිස්ථානයේ	-12167
ුරේ	-12168
ුවක	-12169
ර්මය	-12170
▁කුඩ	-12171
▁ධජය	-12172
ල්ටන්	-12173
▁අද19	-12174
▁ඒකීය	-12175
▁ගාල්	-12176
▁පනවන	-12177
▁සලසන	-12178
▁සැදැ	-12179
▁ජෝශප්	-12180
▁අයගෙන්	-12181
▁ඉංගිරිය	-12182
▁පල්ලේගම	-12183
▁විද්යාප	-12184
▁ජීවනෝපාය	-12185
▁වගකිවයුතු	-12186
▁විහාරස්ථානයට	-12187
ීඨ	-12188
▁3ට	-12189
▁නඟ	-12190
දහසකට	-12191
▁ජීවී	-12192
▁තාජු	-12193
▁නොයන	-12194
▁බැංග	-12195
ලාභීන්	-12196
▁නික්ම	-12197
▁වීරයා	-12198
▁ඇඟළුම්	-12199
▁විදුහල	-12200
▁කාන්දුව	-12201
▁සැකකරුව	-12202
▁තොණ්ඩමන්	-12203
▁ත්රස්තවාද	-12204
▁පොල්ගහවෙල	-12205
▁වෙළෙඳපොළේ	-12206
▁කාලගුණයෙන්	-12207
▁කර්මාන්තශාලා	-12208
හරි	-12209
ීහු	-12210
හැම්	-12211
ෛර්ය	-12212
▁උගු	-12213
▁නඟා	-12214
▁පැකේ	-12215
▁විවේක	-12216
▁නාමින්	-12217
▁පසුවිය	-12218
▁පාරම්ප	-12219
▁සමාජගත	-12220
▁අඩුවෙන්	-12221
▁ගමනාන්ත	-12222
▁ගැන්වීම	-12223
▁මන්දිරයට	-12224
▁මෙහෙයුමක	-12225
▁සුරැකුම්	-12226
▁නල්ලතන්නිය	-12227
▁විත්තිකරුට	-12228
▁අනුරාධපුරයේ	-12229
▁පෞද්ගලීකරණය	-12230
සෞ	-12231
සලක	-12232
තමන්	-12233
ල්යා	-12234
▁ඔෆ්	-12235
ගින්න	-12236
නමුත්	-12237
▁ඇදහැ	-12238
▁ක්රෙ	-12239
▁ගිලි	-12240
▁වල්ල	-12241
▁වෙලාව	-12242
▁සුදත්	-12243
විරුද්ධ	-12244
▁ගොඩනගා	-12245
▁ජලාශයට	-12246
▁නිමාවට	-12247
▁සයිබර්	-12248
▁සීතාවක	-12249
▁කොළඹින්	-12250
▁ගොඩබිමට	-12251
▁අනාගතයක්	-12252
▁වැළලාගෙන	-12253
▁වරදකරුවන්	-12254
▁විශ්ලේෂණය	-12255
▁පිරිනැමීමට	-12256
▁රුසියාවෙන්	-12257
▁ක්රියාකාරික	-12258
▁දේශපාලනඥයන්	-12259
▁තෙම	-12260
▁ලාං	-12261
▁කුඹු	-12262
▁දැවි	-12263
▁තැනක්	-12264
▁දෙකයි	-12265
▁සුරංග	-12266
▁මොවුන්ට	-12267
▁සංග්රහය	-12268
▁ගම්මානවල	-12269
▁පෙළපාලිය	-12270
▁ස්වයංක්රීය	-12271
▁වැඩපිළිවෙළට	-12272
▁සංවිධායකවරුන්	-12273
ිලා	-12274
▁ඉප	-12275
ස්කෝ	-12276
▁110	-12277
ච්චාර	-12278
▁අද23	-12279
▁කිමි	-12280
▁නේටෝ	-12281
▁බරක්	-12282
ත්යාගය	-12283
විධානය	-12284
▁කළොත්	-12285
▁පියාට	-12286
▁භුක්ති	-12287
▁මුද්දර	-12288
▁එදිනෙදා	-12289
▁අරලගංවිල	-12290
▁විදේශගතව	-12291
▁හුවමාරුවක්	-12292
දෝ	-12293
පතන	-12294
කටත්	-12295
කඩවල	-12296
විදි	-12297
▁117	-12298
▁පාදක	-12299
▁මතක්	-12300
▁වීථි	-12301
▁සෙත්	-12302
▁හොරු	-12303
තාන්තය	-12304
වරියක්	-12305
වියෙකු	-12306
▁ආකර්ශ	-12307
ගත්තේගම	-12308
▁ඩිෆෙන්	-12309
▁දැරියට	-12310
▁විප්ලව	-12311
ගාටුදායක	-12312
▁ලක්ෂපාන	-12313
▁හේතුවයි	-12314
▁තීන්දුවට	-12315
▁නවදිල්ලි	-12316
▁කාන්දුවක්	-12317
▁බාධාවකින්	-12318
▁කාත්තන්කුඩි	-12319
▁බන්ධනාගාරයට	-12320
▁යාන්ත්රණයක්	-12321
▁ආන්දෝලනාත්මක	-12322
▁ක්රියාමාර්ගයට	-12323
▁සැකකරුවන්ගෙන්	-12324
32	-12325
ow	-12326
ධී	-12327
gov	-12328
පයේ	-12329
ර්ණ	-12330
▁ඊළ	-12331
ඕවිට	-12332
දුනු	-12333
රුවන්	-12334
ොස්වක	-12335
▁අරඹා	-12336
▁ක්ෂණ	-12337
▁නොගත	-12338
▁ප්රී	-12339
▁සැල්	-12340
▁එකසිය	-12341
▁දිනයේද	-12342
▁නිපදවන	-12343
▁පිරිත්	-12344
▁මහානාම	-12345
▁මීදුම්	-12346
▁ලැබුණි	-12347
▁ටයිම්ස්	-12348
▁දිනයෙන්	-12349
▁බාරදුන්	-12350
▁ලන්ඩනයේ	-12351
▁සිටුවීම	-12352
▁තිදෙනෙක්	-12353
▁පළමුවැනි	-12354
▁මුදාහරින	-12355
▁ලේකම්වරු	-12356
▁කෙටුම්පතේ	-12357
තය	-12358
ප්ට	-12359
ෝගී	-12360
වියට	-12361
▁පුත	-12362
ිටෙල්	-12363
▁සෙයි	-12364
ගොඩවත්ත	-12365
▁ගොඩනැං	-12366
▁විකාශන	-12367
මේන්තුවේ	-12368
▁බිස්කට්	-12369
▁මූලාශ්ර	-12370
▁සිරියාවේ	-12371
වාජිලිංගම්	-12372
▁නායකත්වයට	-12373
▁ප්රසම්පාදන	-12374
▁කරුවලගස්වැව	-12375
▁වධ	-12376
▁සය	-12377
තාවන්	-12378
භාවයට	-12379
▁මැඩප	-12380
▁ආදාහන	-12381
▁කැනඩා	-12382
▁නලීන්	-12383
▁පාලම්	-12384
▁ලග්ගල	-12385
▁අවදානය	-12386
▁ඇමතිනි	-12387
▁බලකායට	-12388
▁රත්රන්	-12389
▁ශාන්ති	-12390
▁සාගරයේ	-12391
▁ඉදිරිපස	-12392
▁කෝටිපති	-12393
▁පත්වුණේ	-12394
▁බෙල්ලන්	-12395
▁මොහොමඞ්	-12396
▁මහත්මීන්	-12397
▁වෙන්දේසි	-12398
▁අත්හිටුවීම	-12399
▁කුරුඳුවත්ත	-12400
▁තුවාලකරුවන්	-12401
▁මහත්වරුන්ගේ	-12402
▁ලේකම්වරයෙකු	-12403
rn	-12404
යාගල	-12405
ිපොල	-12406
▁ජමා	-12407
▁හොය	-12408
▁අද25	-12409
▁කොල්	-12410
▁යොදන	-12411
▁වේවි	-12412
▁එතෙක්	-12413
▁ගුජරා	-12414
▁පෙරලී	-12415
▁දස්කම්	-12416
▁ආකර්ෂණය	-12417
▁නැතහොත්	-12418
▁පොලිතින්	-12419
▁නොපැමිණීම	-12420
▁ලබාදීමටත්	-12421
▁ශ්රමිකයන්	-12422
▁ජනාධිපතිතුමාගේ	-12423
up	-12424
සූ	-12425
ුවැව	-12426
▁ආපු	-12427
▁භෝග	-12428
▁ෆ්ල	-12429
▁අද15	-12430
▁අද27	-12431
▁මියය	-12432
▁වූවා	-12433
▁තැබිය	-12434
▁දුරක්	-12435
▁බැරල්	-12436
▁මැදගම	-12437
▁රණවීර	-12438
▁ආරච්චි	-12439
▁පණිවිඩය	-12440
▁පිළියම්	-12441
▁තියෙන්නෙ	-12442
▁නිශ්චිතව	-12443
▁මොබිටෙල්	-12444
▁අමාත්යවරු	-12445
▁කොල්ලකෑමේ	-12446
▁විද්යාපීඨ	-12447
▁කැමැත්තෙන්	-12448
▁දෙදෙනාගෙන්	-12449
▁කාර්යභාරයක්	-12450
▁පාකිස්තානයේ	-12451
▁නියෝජිතායතනය	-12452
▁ඉන්දුනීසියාවේ	-12453
අග	-12454
ාරය	-12455
▁චි	-12456
▁තිහ	-12457
▁රෙද	-12458
▁ශිර	-12459
▁සදු	-12460
ත්තක්	-12461
න්දිය	-12462
▁අද13	-12463
▁අද18	-12464
▁පෙන්න	-12465
▁වීමයි	-12466
▁හෙළාද	-12467
▁ගණනින්	-12468
▁සිද්ධි	-12469
▁තත්වයන්	-12470
▁තරගාවලි	-12471
▁සුබපැතුම්	-12472
▁ඕස්ටේ්රලිය	-12473
▁ක්රීඩකයෙකු	-12474
▁ගුරුවරයෙකු	-12475
▁ජනාධිපතිනි	-12476
▁නීතිවිරෝධීව	-12477
▁කොස්තාපල්වරුන්	-12478
ඇළ	-12479
ඉද	-12480
ess	-12481
බුල්	-12482
බෙයි	-12483
ලාගල	-12484
▁5කට	-12485
▁2001	-12486
▁නොමග	-12487
▁යුවල	-12488
▁සමනය	-12489
▁අපක්ෂ	-12490
▁ඉලෙක්	-12491
▁පර්පෙ	-12492
කාරයෙන්	-12493
▁ඩයස්පෝ	-12494
▁දොම්පේ	-12495
▁පන්තිය	-12496
▁ලාභයක්	-12497
▁පිළිගනු	-12498
▁මාධ්යයේ	-12499
▁හරිමින්	-12500
▁අවිධිමත්	-12501
▁තරුණියන්ට	-12502
▁ප්රදේශයේදි	-12503
▁සංඛ්යාලේඛන	-12504
▁මන්ත්රීවරිය	-12505
th	-12506
තව	-12507
ංසන	-12508
තරා	-12509
ථනය	-12510
දෙර	-12511
වරා	-12512
▁උයන	-12513
▁80ක්	-12514
▁අද10	-12515
තිවන්ත	-12516
▁අධිනී	-12517
▁තිලක්	-12518
▁දිනකදී	-12519
▁භාරගෙන	-12520
▁සාපරාධ	-12521
▁දිරිමත්	-12522
▁විධිමත්ව	-12523
▁සහයෝගීතා	-12524
▁කාර්යභාරය	-12525
▁දෙහිඅත්තක	-12526
▁මිහින්තලේ	-12527
▁බන්ධනාගාරගතව	-12528
▁ලැයිස්තුවෙන්	-12529
කටම	-12530
වෙකු	-12531
▁14ක	-12532
▁කවද	-12533
▁බත්	-12534
▁සුඩ	-12535
මන්ඩ්	-12536
▁අද07	-12537
▁අද22	-12538
▁කඩදා	-12539
▁කරදර	-12540
▁කරමි	-12541
▁ජන්ම	-12542
▁ඩිප්	-12543
▁දෙකඩ	-12544
▁බෝතල	-12545
▁රිට්	-12546
ියන්ගේ	-12547
▁අස්වී	-12548
▁ඉනිමට	-12549
පාක්ෂික	-12550
▁අස්වීම	-12551
▁ක්රිස්	-12552
▁සමාගමක	-12553
▁පිළිසකර	-12554
▁සම්පන්න	-12555
▁හෙයකින්	-12556
▁ක්රියාවල	-12557
▁කොවිඩ්19	-12558
▁පත්වූවන්	-12559
▁මෙලෙසින්	-12560
▁මන්ත්රිවරයා	-12561
▁ගුවන්තොටුපලේ	-12562
ෙට්	-12563
රණිය	-12564
▁40ක	-12565
හිත්ය	-12566
▁අද06	-12567
▁කටාන	-12568
▁ශාන්	-12569
▁තත්පර	-12570
▁රැලිය	-12571
▁ඇල්ලීම	-12572
▁තැරැව්	-12573
▁දැක්කා	-12574
▁වාද්දුව	-12575
▁විමර්ෂණ	-12576
comfiled1	-12577
▁නිවේදනයට	-12578
▁දේශපාලනයේ	-12579
ස්ථානාධිපති	-12580
▁පිහිටුවීමේ	-12581
▁විදේශිකයන්	-12582
▁සෙලෙන්ස්කි	-12583
▁වාර්තාවීමත්	-12584
▁හඳුනාගැනීමේ	-12585
▁ප්රතිවිරුද්ධ	-12586
▁පුද්ගලයින්ගෙන්	-12587
ගැති	-12588
යටත්	-12589
ස්සන	-12590
සුණු	-12591
▁මදු	-12592
▁වම්	-12593
සිටින	-12594
▁අද01	-12595
▁පදවා	-12596
▁පරතර	-12597
▁ශෝකය	-12598
▁සලකන	-12599
▁අතිරි	-12600
▁කැඳවු	-12601
පොලීසිය	-12602
▁සැදැහැ	-12603
▁අවප්රමා	-12604
▁තැබීමක්	-12605
▁චන්ද්රසේන	-12606
▁නවගත්තේගම	-12607
▁ප්රධානත්වය	-12608
▁මැලේසියාවේ	-12609
▁සන්ධානයෙන්	-12610
▁ක්රියාවලියේ	-12611
▁අගවිනිසුරුවරයා	-12612
42	-12613
CTV	-12614
ීත්	-12615
▁to	-12616
ම්බෝ	-12617
ලංකා	-12618
▁නොදු	-12619
▁හසන්	-12620
▁කෝවිල	-12621
▁මතභේද	-12622
▁මාළිග	-12623
▁සියවස	-12624
▁හෝටලය	-12625
▁කැපුම්	-12626
▁ගැනුම්	-12627
▁නානුඔය	-12628
▁සැපයෙන	-12629
▁අනධ්යයන	-12630
▁දඬුවමක්	-12631
▁භාණ්ඩවල	-12632
▁වර්ණකුල	-12633
▁වහන්සේට	-12634
▁අස්වැසුම	-12635
▁පියතුමන්	-12636
▁අරමුදලෙන්	-12637
▁වලස්මුල්ල	-12638
▁සිදුවෙනවා	-12639
▁හන්දියෙන්	-12640
▁දුෂ්කරතාවට	-12641
▁මැතිතුමාගේ	-12642
▁අපරාධකරුවන්	-12643
ගුර	-12644
බැඳ	-12645
වරය	-12646
තාක්	-12647
තුරේ	-12648
සහිත	-12649
▁118	-12650
▁19ක්	-12651
▁ගායක	-12652
▁තරමට	-12653
▁වුනේ	-12654
▁15000	-12655
▁අතරමග	-12656
▁උදයංග	-12657
▁නිසැක	-12658
▁මිනීම	-12659
▁මිල්ල	-12660
▁ලබාදි	-12661
කිරීමක්	-12662
ිකාවත්ත	-12663
▁තුවක්ක	-12664
▁බ්රසීල	-12665
▁ෆ්රැන්	-12666
▁කාලසටහන	-12667
▁හේමසිරි	-12668
▁උපායමාර්ග	-12669
▁වෙදආරච්චි	-12670
▁ස්ථානයේදීම	-12671
▁සභාපතිවරුන්	-12672
බට්	-12673
ුදි	-12674
▁තෘ	-12675
▁1ක්	-12676
▁සරල	-12677
▁CCTV	-12678
▁අද02	-12679
▁කුළු	-12680
▁චානක	-12681
▁තලාව	-12682
▁ප්රක	-12683
▁ජයගෙන	-12684
▁ටෙන්ඩ	-12685
▁නොවනු	-12686
▁පිටවන	-12687
▁සිතුව	-12688
▁සුජීව	-12689
▁ළහිරු	-12690
▁පත්වනු	-12691
කාධිකාරී	-12692
▁විලියම්	-12693
▁ආරියරත්න	-12694
▁ගැටුමෙන්	-12695
▁පසුවන්නේ	-12696
▁කිහිපයකදීම	-12697
▁පැමිණෙන්නේ	-12698
▁හඳුන්වාදීම	-12699
▁විද්යාලයෙන්	-12700
වම්	-12701
කුනු	-12702
වාසි	-12703
▁105	-12704
ඩියක්	-12705
ිරාජා	-12706
▁2002	-12707
▁කියූ	-12708
▁ගාලූ	-12709
▁ගිලා	-12710
▁ගෙනැ	-12711
▁රොයි	-12712
වරණයක්	-12713
▁කණුවක	-12714
▁කොපමණ	-12715
▁නොබලා	-12716
▁අක්මීම	-12717
▁අපවත්ව	-12718
▁නොදැක්	-12719
▁කාමරයක්	-12720
▁පිටපතක්	-12721
▁නොහැකිවීම	-12722
▁ක්රියාමාර්ගයක	-12723
ධීර	-12724
▁97	-12725
30ක්	-12726
මීර්	-12727
වුයේ	-12728
▁අවධ	-12729
▁කෝප	-12730
ියන්ට	-12731
ිරිස්	-12732
▁නිතී	-12733
▁පාහේ	-12734
▁මැසි	-12735
▁ඇල්ලේ	-12736
▁උදාවී	-12737
▁එජාපය	-12738
▁ටෙලික	-12739
▁මතවාද	-12740
▁මොස්ක	-12741
▁වස්තු	-12742
▁සමහරු	-12743
▁හමුවු	-12744
▁ගණුදෙන	-12745
▁රොමේෂ්	-12746
▁වැදීමට	-12747
▁සදහායි	-12748
▁හිතනවා	-12749
▁හේතූන්	-12750
▁අතරමැදි	-12751
▁පැමිණිල	-12752
▁ශාලාවක්	-12753
▁තරගාවලියේදී	-12754
බොඩ	-12755
▁රෑ	-12756
වෙල්	-12757
▁අගන	-12758
▁අයකු	-12759
▁ඉඳලා	-12760
ාවකච්ච	-12761
▁පයාගල	-12762
▁රාමුව	-12763
න්දිරන්	-12764
▁අදහසයි	-12765
▁යුක්ති	-12766
▁විතාරණ	-12767
▁සාප්පු	-12768
▁ජර්මානු	-12769
▁වැටීමක්	-12770
▁ආසියාතික	-12771
▁පුරාවස්තු	-12772
▁ආශ්රිතයින්	-12773
ණුක	-12774
▁රව	-12775
ක්වන	-12776
ධාරී	-12777
▁හයක	-12778
ෆර්ඩ්	-12779
▁ඉරිය	-12780
▁ටින්	-12781
▁වැදග	-12782
▁ආසනයේ	-12783
▁කාමරය	-12784
▁දිනක්	-12785
▁සුදාන	-12786
▁ඒකරාශී	-12787
▁ජනරජයේ	-12788
▁ඩිප්ලෝ	-12789
▁ධාතූන්	-12790
▁බ්රැන්	-12791
▁රටපුරා	-12792
▁ශරීරයේ	-12793
▁අයෙකුගේ	-12794
▁අවදානමට	-12795
▁අතිරික්ත	-12796
▁බෙහෙවින්	-12797
▁වර්තමානය	-12798
▁හයදෙනෙකු	-12799
▁මණ්ඩලයෙන්	-12800
▁සංවිධානවල	-12801
▁මුල්කරගනිමින්	-12802
▁ජනාධිපතිවරණයෙන්	-12803
ංකඩ	-12804
නිල	-12805
ිත්	-12806
දුරට	-12807
ක්තික	-12808
ියෙක්	-12809
▁බ්ලූ	-12810
▁ගැටීම	-12811
▁පියල්	-12812
▁නාමයෙන්	-12813
▁වේදිකාව	-12814
▁සොරාගත්	-12815
▁නියෝගයකට	-12816
▁රෝගියෙකු	-12817
▁වෙළඳපොලට	-12818
▁සැලසුමක්	-12819
▁සිසුවෙක්	-12820
▁අනුපාතිකය	-12821
▁එකඟතාවයකට	-12822
▁කවුන්සිලයට	-12823
▁කෙසෙල්වත්ත	-12824
▁රුවන්වැල්ල	-12825
▁අන්තර්ජාලයට	-12826
▁සිදුකෙරෙනවා	-12827
▁පැවැත්වීමටයි	-12828
▁විනිසුරුවරිය	-12829
වළ	-12830
ජනක	-12831
▁නට	-12832
ලෙවල්	-12833
▁පෙලේ	-12834
▁මාදි	-12835
▁මෑතක	-12836
▁වලාන	-12837
▁ඇන්ඩ්	-12838
▁ඉටුකළ	-12839
▁ගලෙන්	-12840
▁තාප්ප	-12841
▁ශීඝ්ර	-12842
▁හිමික	-12843
▁ආකාරයක	-12844
▁භාරතීය	-12845
▁රෝගියා	-12846
▁වෙළඳපළ	-12847
▁ශාඛාවේ	-12848
▁ඇතිවීමට	-12849
▁කාඩ්පත්	-12850
▁බයිඩ්න්	-12851
▁සාහිත්ය	-12852
▁නැංගුරම්	-12853
▁සම්බුද්ධ	-12854
▁සාමකාමීව	-12855
ජනාධිපතිවරයා	-12856
▁වික්රමසිංහට	-12857
89	-12858
ටේ	-12859
සභා	-12860
හතර	-12861
▁හඟ	-12862
ක්රි	-12863
කොන්	-12864
රණීය	-12865
▁අරු	-12866
▁අද11	-12867
▁අද14	-12868
▁අද30	-12869
▁අභිර	-12870
▁පොළො	-12871
▁වටහා	-12872
▁හසුවී	-12873
▁අගතියට	-12874
▁කතාබහට	-12875
▁තියනවා	-12876
▁පැලවත්ත	-12877
▁පිලිබදව	-12878
▁මංගල්යයේ	-12879
▁රක්ෂිතයට	-12880
▁පිරිපහදුව	-12881
▁විරෝධතාවල	-12882
▁ප්රතිසන්ධාන	-12883
▁ප්රහාරවලින්	-12884
▁ප්රතිසංවිධාන	-12885
ණ්ඩු	-12886
ව්වා	-12887
වැටී	-12888
ෙකුව	-12889
▁ඔටෝ	-12890
▁චරි	-12891
කුලිය	-12892
▁නිති	-12893
▁මිදී	-12894
▁සංස්	-12895
ස්සුම්	-12896
▁20000	-12897
▁නීත්ය	-12898
▁වටපිට	-12899
▁සීදුව	-12900
▁සටන්කා	-12901
▁ඊශ්රායල	-12902
▁තනතුරක්	-12903
▁නායයාමේ	-12904
▁කිරීමකින්	-12905
▁ඩිෆෙන්ඩර්	-12906
▁ප්රයෝජනයට	-12907
▁බාලවයස්කාර	-12908
▁ඕස්ට්රේලියාවට	-12909
හත්	-12910
▁St	-12911
▁නස	-12912
දහසක	-12913
න්ඩි	-12914
විමේ	-12915
▁වන්	-12916
▁අතිඋ	-12917
▁අද03	-12918
▁ගංගා	-12919
▁නීල්	-12920
▁රත්ව	-12921
▁ෂින්	-12922
▁සාදා	-12923
▁අළෙවි	-12924
▁ටිකක්	-12925
▁පිළිර	-12926
▁වුවමන	-12927
▁හිටිය	-12928
▁පුබුදු	-12929
▁හදන්නේ	-12930
▁අතුකෝරල	-12931
▁උසාවියට	-12932
▁දැනුමක්	-12933
▁සිටියත්	-12934
▁උපරිමයෙන්	-12935
▁ප්රවණතාවක්	-12936
▁රියදුරන්ගේ	-12937
ලාට	-12938
▁නෙල්	-12939
▁බැකෝ	-12940
▁සමරන	-12941
බුල්ලා	-12942
▁කැප්ප	-12943
▁චූදිත	-12944
▁අතවරයට	-12945
▁එක්තරා	-12946
▁නිර්ණය	-12947
▁පිරිනම	-12948
▁ලෙස්ලි	-12949
▁හිමිනම	-12950
▁ආබාධයකට	-12951
▁මැගසින්	-12952
▁පදක්කමක්	-12953
▁හමුදාවන්	-12954
▁තිදෙනෙකුට	-12955
▁නිලධාරියාට	-12956
▁කෘෂිකර්මාන්ත	-12957
▁ද්විපාර්ශවික	-12958
ඩ්ර	-12959
ාගම	-12960
▁කම	-12961
ංගනය	-12962
ම්මල	-12963
වතින	-12964
▁තිඛ	-12965
▁වීථ	-12966
▁වේර	-12967
භාවික	-12968
▁නාඩු	-12969
▁කෙටික	-12970
▁තරඟයට	-12971
▁මධුෂ්	-12972
▁මැනිං	-12973
▁වනිඳු	-12974
▁ඉටුකරන	-12975
▁ජයන්ති	-12976
▁නේපාලය	-12977
▁පරිච්ඡ	-12978
▁හැකිවීම	-12979
▁අක්කරෙයි	-12980
▁සිල්වාගේ	-12981
▁ජීවිතාන්තය	-12982
▁භාණ්ඩාගාරය	-12983
▁අභියාචනාධිකරණයේ	-12984
ab	-12985
▁ආලේ	-12986
▁පාට	-12987
▁මරු	-12988
තිරන්	-12989
▁ලියන	-12990
▁වාමා	-12991
▁සොයන	-12992
ගිරියේ	-12993
ලිවුඩ්	-12994
▁අඹුසැ	-12995
▁අසුරා	-12996
▁ඔයිල්	-12997
▁නිසාය	-12998
▁පිහින	-12999
▁යුදමය	-13000
▁තිළිණි	-13001
කිරියාගම	-13002
▁මොස්කව්	-13003
▁මුහුදුබඩ	-13004
▁වෙළදසැල්	-13005
▁සත්යග්රහය	-13006
▁සම්බන්ධීකාරක	-13007
▁විශ්වවිද්යාලවල	-13008
ංගා	-13009
සාලේ	-13010
ාවැව	-13011
▁බෑග	-13012
▁ලන්	-13013
▁හිල	-13014
▁1990	-13015
▁අතිශ	-13016
▁අයයි	-13017
▁වක්ර	-13018
▁අභිමත	-13019
▁අරුන්ද	-13020
▁කරමිනි	-13021
▁පැවිදි	-13022
▁මෝසමක්	-13023
▁යථාර්ථ	-13024
▁යෙදවීම	-13025
▁ආයතනයකට	-13026
▁ඉලංගෙයි	-13027
▁එතුමාගේ	-13028
▁චාවකච්ච	-13029
▁පිවිසුම	-13030
▁වැඩිවිය	-13031
▁වැනිදාට	-13032
▁ඇවන්ගාඩ්	-13033
▁කණගාටුවට	-13034
▁ටෙලිකොම්	-13035
▁නොහැකියි	-13036
▁පිටියෙන්	-13037
▁හයිලෙවල්	-13038
▁ආකාරයකින්	-13039
▁ඇහැලියගොඩ	-13040
▁දැක්වීමක්	-13041
▁පසුබිමකයි	-13042
▁මුලස්ථානය	-13043
▁ඇෆ්ගනිස්තා	-13044
▁පරික්ෂණයක්	-13045
▁කොඩිතුවක්කු	-13046
▁ප්රදේශවාසීන්ගේ	-13047
41	-13048
නෑව	-13049
බාල	-13050
ල්ර	-13051
▁කස	-13052
ුරුම	-13053
▁ඇඳු	-13054
▁නළු	-13055
▁සරු	-13056
ානිධි	-13057
▁පවරන	-13058
▁ලාංඡ	-13059
දීන්ගේ	-13060
▁අන්තර	-13061
▁කලවාන	-13062
▁ගන්වා	-13063
▁දිවින	-13064
▁බිලිය	-13065
▁යටපත්	-13066
▁සංකූල	-13067
▁කඩදාසි	-13068
▁කනිෂ්ඨ	-13069
▁ගිණුමට	-13070
▁භටයින්	-13071
▁වංචාවට	-13072
▁සෞන්දර	-13073
▁කණගාටුව	-13074
▁ගෙනැවිත්	-13075
▁චෝදනාවකට	-13076
▁ප්රමාණයට	-13077
▁වැනිදායි	-13078
▁ප්රේමලාල්	-13079
▁පිටුපසින්	-13080
▁අභ්යන්තරයේ	-13081
▁ආනයනකරුවන්	-13082
▁මිනිස්සුන්	-13083
▁අධිකාරිවරයා	-13084
4ක	-13085
est	-13086
ine	-13087
ගෝල	-13088
ායි	-13089
ිකෝ	-13090
මෙරට	-13091
ුණ්ඩ	-13092
▁කෘමි	-13093
▁පැන්	-13094
▁කඩඉම්	-13095
▁කෙරවල	-13096
▁ශ්වසන	-13097
▁ශාඛාව	-13098
▁සාක්ක	-13099
▁හුස්ම	-13100
කයින්ගේ	-13101
▁ට්රාන්	-13102
▁මුදුන්	-13103
▁සෞඛ්යය	-13104
▁මාධ්යවල	-13105
▁සංවාදයට	-13106
▁අවදානමකට	-13107
▁පාරම්පරික	-13108
▁බැංකුවෙන්	-13109
▁අගමැතිතුමා	-13110
▁හැඳුනුම්පත	-13111
▁පුරවැසියන්ට	-13112
▁ශ්රවණාගාරයේ	-13113
▁හෑ	-13114
ඩුවට	-13115
හින්න	-13116
ෙද්දී	-13117
▁ඉටුව	-13118
▁නාසා	-13119
▁පුන්	-13120
▁බින්	-13121
▁තිලංග	-13122
▁පරණගම	-13123
▁බළකාය	-13124
▁ලෝටස්	-13125
▁කොවිෂී	-13126
▁රතුපස්	-13127
▁වායුගෝ	-13128
▁තීරයේදී	-13129
▁බූස්ටර්	-13130
▁සිටියදි	-13131
▁අතරවාරයේ	-13132
▁ආයෝජකයන්	-13133
▁කාලගුණයත්	-13134
▁ඉල්ලීම්වලට	-13135
▁දැනුම්දුන්	-13136
▁සත්වෝද්යාන	-13137
කොල	-13138
හරණ	-13139
▁ඍජු	-13140
▁45ක්	-13141
▁අද09	-13142
▁උත්ක	-13143
▁එළඹි	-13144
▁ද්රෝ	-13145
▁ගවේෂණ	-13146
▁හතරකට	-13147
▁සමාජීය	-13148
▁කොමිසම්	-13149
▁ප්රශස්ත	-13150
▁සම්මුති	-13151
▁කච්චතිව්	-13152
▁පිටියේදී	-13153
▁සිදුවුණේ	-13154
▁උත්සවයේදී	-13155
▁උදාහරණයක්	-13156
▁මාලිගාවත්ත	-13157
▁යොමුකිරීමට	-13158
43	-13159
ාවාස	-13160
▁160	-13161
සියුල	-13162
▁ඇමතූ	-13163
▁ඔක්ක	-13164
▁කඳාන	-13165
▁ජිනි	-13166
▁බලයේ	-13167
▁මැදි	-13168
▁මේකට	-13169
ඩික්ස්	-13170
▁කෘතිය	-13171
▁කොඩිය	-13172
▁ගොඩබැ	-13173
▁යද්දී	-13174
▁රථවලට	-13175
ල්යාධාර	-13176
ිකට්ටුව	-13177
▁කියවීම	-13178
▁දියවඩන	-13179
▁ප්රතිඥ	-13180
▁වුණොත්	-13181
▁වේදනාව	-13182
▁උළෙලේදී	-13183
▁කැමරාවක	-13184
▁ඡන්දයක්	-13185
▁දෙකහමාර	-13186
▁සාමූහික	-13187
▁නෞකාවෙන්	-13188
▁ප්රමාණයකට	-13189
▁අස්වැන්නක්	-13190
▁කොවිෂීල්ඩ්	-13191
▁සාර්ථකත්වය	-13192
▁සොයාබැලීමට	-13193
99	-13194
ඇය	-13195
ලුව	-13196
▁7ක	-13197
▁900	-13198
▁බකම	-13199
නියම්	-13200
▁එරටට	-13201
▁ජිප්	-13202
▁නව්ය	-13203
▁සමුප	-13204
සානායක	-13205
▁ඇගයීම	-13206
▁බඳුන්	-13207
▁වනඅලි	-13208
▁විස්ත	-13209
▁සදුදා	-13210
▁අභිලාෂ	-13211
▁එක්දරු	-13212
▁කඳවුරට	-13213
▁යොමුවන	-13214
▁රැස්කළ	-13215
▁රොහාන්	-13216
▁සැලසෙන	-13217
▁අක්මීමන	-13218
▁කඩුගන්න	-13219
▁ඥාතීන්ට	-13220
▁පක්ෂවලට	-13221
▁අරුන්දික	-13222
▁ඉල්ලුමක්	-13223
▁රූපලාවන්	-13224
▁ගුණරත්නම්	-13225
▁බ්රැන්ඩික්ස්	-13226
මියා	-13227
ලේඛන	-13228
ාලෝක	-13229
▁ඔව්	-13230
▁ගිඟ	-13231
▁ඩබ්	-13232
▁භෝජ	-13233
▁රිච	-13234
හනුවර	-13235
ියාවට	-13236
▁අමිල	-13237
▁උකස්	-13238
▁ඩයනා	-13239
▁පර්ප	-13240
▁පොතු	-13241
▁ස්ටී	-13242
මනාදන්	-13243
ස්ටින්	-13244
▁අස්කර	-13245
▁ඉමහත්	-13246
▁දකුණට	-13247
▁අභිබවා	-13248
▁මොනවාද	-13249
▁රාහුල්	-13250
▁ආරියදාස	-13251
▁ජාතියක්	-13252
▁ක්රියාදාම	-13253
▁ප්රගතියක්	-13254
▁තාක්ෂණයෙන්	-13255
▁පොලීසියෙන්	-13256
▁සහභාගීවීමට	-13257
▁සිද්ධියේදී	-13258
▁ප්රචණ්ඩකාරී	-13259
▁වනාතවිල්ලුව	-13260
▁අපරාධකරුවෙකු	-13261
මර්	-13262
ෝමා	-13263
▁අජ	-13264
සහගත	-13265
සුමට	-13266
ාපිත	-13267
▁25ක	-13268
▁නදී	-13269
▁නේද	-13270
▁වාද	-13271
සෞඛ්ය	-13272
ෙක්ස්	-13273
▁වරදට	-13274
▁සොල්	-13275
▁හානී	-13276
▁දාන්න	-13277
▁නොකොට	-13278
▁ශූරතා	-13279
▁ජර්මන්	-13280
▁බහලුම්	-13281
▁රෝහලක්	-13282
▁සියයකට	-13283
▁හැදින්	-13284
▁හිමියෝ	-13285
අනතුරින්	-13286
▁රහසිගතව	-13287
▁විහාරයට	-13288
▁සිරදඩුව	-13289
▁පිවිසීමට	-13290
▁පෙනෙන්නට	-13291
▁වනදායින්	-13292
▁සෞන්දර්ය	-13293
▁කාර්යංශයේ	-13294
▁පරීක්ෂණයේ	-13295
▁මූල්යාධාර	-13296
▁පැමිණිලිකාර	-13297
▁ස්වාමීන්වහන්සේ	-13298
ෂේ	-13299
කුළ	-13300
ාපන	-13301
ඩීන්	-13302
▁නොබ	-13303
කරණයේ	-13304
▁ධාතු	-13305
▁වැල්	-13306
ිනියක්	-13307
▁ආකල්ප	-13308
▁ඔබ්බට	-13309
▁පවුලට	-13310
▁භානුක	-13311
▁මුලදී	-13312
▁හදවත්	-13313
▁අභිමාන	-13314
▁ඇමතීමට	-13315
▁නිලන්ත	-13316
▁මාලාවේ	-13317
▁වොෂින්	-13318
▁ක්ෂණිකව	-13319
▁ගැනීමයි	-13320
▁පීලිපැන	-13321
▁සමුපකාර	-13322
සම්බන්ධන්	-13323
▁කන්දකාඩු	-13324
▁නයිජීරිය	-13325
▁ප්රකාශනය	-13326
▁මෙහෙයවනු	-13327
▁මැඩපවත්වා	-13328
▁වැලිපැන්න	-13329
▁තලෙයිමන්නාරම	-13330
▁මැදිහත්වීමක්	-13331
▁කොම්පඤ්ඤවීදිය	-13332
▁කර්මාන්තකරුවන්	-13333
▁දෙහිඅත්තකණ්ඩිය	-13334
▁මහකොමසාරිස්වරයා	-13335
TE	-13336
ංජන	-13337
කීර්	-13338
දීයී	-13339
විති	-13340
හසක්	-13341
ිකොණ	-13342
තුමනි	-13343
▁අගයක	-13344
▁ගමනේ	-13345
▁තැනක	-13346
▁දහසේ	-13347
▁400ක්	-13348
▁කාසිය	-13349
▁ගෙනයන	-13350
▁ගේන්න	-13351
▁වසරවල	-13352
▁එළුවන්	-13353
▁සේවකයා	-13354
වාදාත්මක	-13355
▁කිරුළපන	-13356
▁ගලෙන්බි	-13357
▁ගොදුරුව	-13358
▁නිවාඩුව	-13359
▁පින්නවල	-13360
▁වැරැද්ද	-13361
▁සංයුතිය	-13362
▁හස්තියා	-13363
▁හිතවාදී	-13364
▁අතිශයින්	-13365
▁කඩුල්ලක්	-13366
▁ගිඟුරුම්	-13367
▁ගොවිතැන්	-13368
▁හිමිවනවා	-13369
▁සිදුනොකරන	-13370
▁නැවැත්වීමට	-13371
▁නිලධාරියාගේ	-13372
▁විශ්වවිද්යාලයට	-13373
ගමන්	-13374
▁අතේ	-13375
▁ඒමේ	-13376
▁කොහ	-13377
▁පතා	-13378
▁500ක	-13379
▁අද17	-13380
▁තලතා	-13381
▁නැඟී	-13382
▁සිනම	-13383
▁අපිත්	-13384
▁අවිනි	-13385
▁දොඩම්	-13386
▁වැඩිය	-13387
▁විදුර	-13388
▁අමරපුර	-13389
▁ගැනිමේ	-13390
▁දිලිප්	-13391
▁කතාබහක්	-13392
▁ගිරිතලේ	-13393
▁නේපාලයේ	-13394
▁යනුවෙනි	-13395
▁අතරතුරයි	-13396
▁පාගමනින්	-13397
▁සිව්වැනි	-13398
▁හැදුනුම්	-13399
▁ආශ්රිතයන්	-13400
▁පත්කරමින්	-13401
▁ශක්තිමත්ව	-13402
▁ඡායාරූපයක්	-13403
▁වික්රමතුංග	-13404
▁වෛද්යවරුන්ට	-13405
58	-13406
වෛ	-13407
ෙකට	-13408
ෝජ්	-13409
ෘතිය	-13410
▁ඉපය	-13411
▁මහම	-13412
▁23ක්	-13413
▁ඉඩමේ	-13414
▁යුගල	-13415
▁ස්පු	-13416
කිමින්	-13417
ග්රහණය	-13418
▁අමාරු	-13419
▁එන්ජි	-13420
▁ගමින්	-13421
▁වැලිසර	-13422
▁හමුවීම	-13423
▁සෙබලෙකු	-13424
▁නිර්ණායක	-13425
▁නොපැමිණි	-13426
▁ගැටළුකාරී	-13427
▁ප්රචණ්ඩත්වය	-13428
▁සාමාජිකයන්ට	-13429
▁මැඩපැවැත්වීම	-13430
▁ඉන්දුනීසියානු	-13431
▁කොමසාරිස්වරිය	-13432
▁නියෝජිතයින්ගේ	-13433
70	-13434
ct	-13435
මම	-13436
බන්	-13437
ිළි	-13438
යකාර	-13439
හැරි	-13440
ියකු	-13441
▁ඌරු	-13442
▁පොද	-13443
▁30කට	-13444
▁තුනේ	-13445
▁තෙත්	-13446
▁පාපො	-13447
▁බෑන්	-13448
▁අග්නි	-13449
▁හර්ෂණ	-13450
▁10කින්	-13451
▁දක්වාම	-13452
▁දැම්මා	-13453
▁යුවළක්	-13454
▁විමසුම	-13455
▁වියෙහි	-13456
කාරිත්වය	-13457
දිසානායක	-13458
▁චතුරස්ර	-13459
▁පන්ජාබ්	-13460
▁කොල්ලකෑම	-13461
▁ගොවීන්ගේ	-13462
▁දියණියන්	-13463
▁ප්රාග්ධන	-13464
▁එක්වීමෙන්	-13465
▁මොරගහකන්ද	-13466
▁වායුගෝලයේ	-13467
▁සංඛ්යාවකට	-13468
▁දැනුම්දීමට	-13469
▁විහාරස්ථානයක	-13470
▁බහින්බස්වීමක්	-13471
දාද	-13472
බාහු	-13473
වේලි	-13474
සැලක	-13475
▁ඇරය	-13476
▁අඟවා	-13477
▁එගොඩ	-13478
▁කල්ත	-13479
▁ගැසී	-13480
▁වැසී	-13481
▁හෝල්	-13482
▁ළමයා	-13483
▁ආරච්ච	-13484
▁එක්වු	-13485
▁අඟවනවා	-13486
▁දැදුරු	-13487
▁රාමඤ්ඤ	-13488
ස්ට්රාර්	-13489
▁ගුජරාට්	-13490
▁ගුරුවරිය	-13491
▁බැංගලෝර්	-13492
▁පරීක්ෂණයට	-13493
▁රියදුරන්ට	-13494
▁වරෙන්තුවක්	-13495
▁නිෂ්පාදනාගාර	-13496
▁සංචාරකයින්ගේ	-13497
මතා	-13498
ෝලි	-13499
ංගුව	-13500
කුයි	-13501
ට්රො	-13502
▁පෙල	-13503
ිකුලම	-13504
▁20කට	-13505
▁26ක්	-13506
▁හේවා	-13507
ට්නික්	-13508
රණියගල	-13509
▁ආංශික	-13510
▁ධනවත්	-13511
▁පුරෝක	-13512
▁වසීම්	-13513
▁අකමැති	-13514
▁අනුකමි	-13515
▁දොරටුව	-13516
▁පන්සිය	-13517
▁ප්රඥප්	-13518
▁වූහාන්	-13519
▁සමථයකට	-13520
▁ගිනිගෙන	-13521
▁පැවතියේ	-13522
▁ස්තුතිය	-13523
▁අතිඋතුම්	-13524
▁පාර්ශ්වය	-13525
▁මුහුණදීම	-13526
▁අනිවාර්යයෙන්	-13527
▁සම්බන්ධතාවයක්	-13528
ah	-13529
▁ඩෝ	-13530
▁05ක	-13531
▁ගීය	-13532
▁දඩය	-13533
▁2003	-13534
▁අද04	-13535
▁නොවි	-13536
▁මිලේ	-13537
▁100කට	-13538
▁අත්වි	-13539
▁අලව්ව	-13540
▁තෝමස්	-13541
▁පොලිය	-13542
අනතුරුව	-13543
▁කොළඹගේ	-13544
▁ඩොලරයක	-13545
▁දණ්ඩනය	-13546
▁දේවාලය	-13547
▁පෙන්වන	-13548
▁මහතාත්	-13549
▁රෝහලකට	-13550
හැවිරිදි	-13551
▁රාජ්යයට	-13552
▁දැරණියගල	-13553
▁සංග්රහයේ	-13554
▁මහබැංකුවේ	-13555
▁විකල්පයක්	-13556
▁හිස්බුල්ලා	-13557
▁මෙහෙයුමකින්	-13558
▁පාරිභෝගිකයින්ට	-13559
▁ෆි	-13560
ාපත්	-13561
▁108	-13562
▁ක්ලා	-13563
▁ගැටු	-13564
▁වෙති	-13565
▁සැකය	-13566
ඉන්දීය	-13567
චුවෙල්	-13568
▁අතිවි	-13569
▁ගෙනිය	-13570
▁නෙළුව	-13571
▁මොරවක	-13572
▁ලිමිට	-13573
▁හමාරක	-13574
තිබෙනවා	-13575
▁ඖෂධයක්	-13576
▁කෝපායි	-13577
▁පාලමක්	-13578
▁මායිම්	-13579
▁සභාපතී	-13580
▁බැංකුවක	-13581
▁මෙමඟින්	-13582
▁සුගතදාස	-13583
▁කැඳවාගෙන	-13584
▁ප්රකාශයේ	-13585
▁ලක්වෙමින්	-13586
▁ශිෂ්යාවන්	-13587
▁නිලධාරියකු	-13588
▁ප්රදේශයන්හි	-13589
▁ද්වීපාර්ශවික	-13590
▁සංවිධායකවරයා	-13591
▁මධ්යස්ථානයෙන්	-13592
ෘත	-13593
පිළ	-13594
▁2ට	-13595
▁සෆ	-13596
උල්ල	-13597
මහන්	-13598
ාවලට	-13599
ිලිය	-13600
▁රංච	-13601
▁රුව	-13602
▁ත්රෛ	-13603
▁ස්වක	-13604
ච්චියේ	-13605
වෙන්නේ	-13606
▁පනවනු	-13607
▁වෙච්ච	-13608
▁කුරුඳු	-13609
▁නොදීමට	-13610
▁අන්තෝනි	-13611
▁අප්රිකා	-13612
▁අබේකෝන්	-13613
▁කොල්කටා	-13614
▁නාරම්මල	-13615
▁පෙන්වීම	-13616
▁මුණගැසී	-13617
▁භාරගැනීම	-13618
▁රතුපස්වල	-13619
▁සමුළුවක්	-13620
▁ඉදිරිපිටට	-13621
▁විශේෂඥයන්	-13622
▁ක්රියාදාමය	-13623
▁කාර්යමණ්ඩල	-13624
▁රැස්වීමකදී	-13625
▁ලැයිස්තුවට	-13626
▁ස්පුට්නික්	-13627
▁ඕස්ට්රේලියා	-13628
▁නීත්යානුකූලව	-13629
ධර	-13630
නූ	-13631
ලයක්	-13632
ෆ්රි	-13633
ූර්ණ	-13634
▁ගෞර	-13635
ුවන්ට	-13636
▁30ත්	-13637
▁අද05	-13638
▁අඹන්	-13639
▁කාසල	-13640
▁ලෙසය	-13641
▁සමනල	-13642
▁ආහාරය	-13643
▁තුළත්	-13644
▁පිටිප	-13645
▁පේ්රම	-13646
▁අනුමාන	-13647
▁කල්තැබ	-13648
▁කිරිම්	-13649
▁කෙරුනා	-13650
▁ගොවියා	-13651
▁ජයනාත්	-13652
▁ජිනිවා	-13653
▁පිටින්	-13654
▁ලොක්කා	-13655
ගම්වෙහෙර	-13656
▁අතපත්තු	-13657
▁තීරුබදු	-13658
▁සතුටින්	-13659
▁ජීවිතයක්	-13660
▁පැහැරගත්	-13661
▁විභාගයක්	-13662
▁රුවන්වැලි	-13663
▁සංහිදියාව	-13664
▁නිලධාරිවරයා	-13665
▁රෙජිස්ට්රාර්	-13666
ලින	-13667
වෙළ	-13668
ටියේ	-13669
බිමේ	-13670
▁වටවල	-13671
▁හාමු	-13672
▁උදවිය	-13673
▁බංකොල	-13674
▁වෙනුව	-13675
▁ගැනුනේ	-13676
▁දෙවරක්	-13677
▁වයිරසය	-13678
▁වලක්වා	-13679
▁වාහනවල	-13680
▁මර්දනයට	-13681
▁හෝටලයක්	-13682
▁වැඩමුළුව	-13683
▁සැහැල්ලු	-13684
▁මීටියාගොඩ	-13685
▁වර්ෂාවෙන්	-13686
▁පාර්ශවයෙන්	-13687
▁රාත්රියේදී	-13688
▁සභාපතිවරයාගේ	-13689
ැනට	-13690
▁ෂි	-13691
▁107	-13692
▁රේන	-13693
බොක්ක	-13694
▁2025	-13695
▁දැරි	-13696
▁මුදු	-13697
▁යහපත	-13698
▁අනිසි	-13699
▁අශෝක්	-13700
▁ඔවුනට	-13701
▁ගැලීම	-13702
▁දිනයක	-13703
▁භූකම්	-13704
ානුකූලව	-13705
▁මියගියේ	-13706
▁යෝජනාවේ	-13707
▁රාජසන්ත	-13708
▁හටගත්තා	-13709
▁ආරක්ෂිතව	-13710
▁ප්රමුඛතා	-13711
▁සම්මානයට	-13712
▁කඩුගන්නාව	-13713
▁විරෝධතාවයට	-13714
▁කාලගුණවිද්යා	-13715
▁පැවැත්වීමෙන්	-13716
▁වර්ණකුලසූරිය	-13717
▁සාකච්ඡාවකදීයි	-13718
li	-13719
oc	-13720
නයි	-13721
ටුවේ	-13722
දේවි	-13723
ම්බු	-13724
යිනා	-13725
ශාසන	-13726
පුරුෂ	-13727
ශංකර්	-13728
▁චමීර	-13729
▁බේස්	-13730
▁ස්නා	-13731
▁හැටි	-13732
ුවන්ගේ	-13733
▁අන්ති	-13734
▁කෙරුණ	-13735
▁ජයගත්	-13736
▁ලීසිං	-13737
▁විසිප	-13738
▁නලින්ද	-13739
▁ස්කෑන්	-13740
▁සිදුකොට	-13741
▁ඛනිජතෙල්	-13742
▁ඡන්දදායක	-13743
▁තුන්ලක්ෂ	-13744
▁මන්දගාමී	-13745
▁වාමාංශික	-13746
▁දුම්රියෙන්	-13747
▁පිස්තෝලයක්	-13748
▁ක්රියාමාර්ගවලට	-13749
ේෂණය	-13750
▁උමං	-13751
▁තලා	-13752
▁පැක	-13753
▁භුම	-13754
▁ළඟම	-13755
ත්වලට	-13756
ස්වාමි	-13757
▁ඔක්ස්	-13758
▁පාපැද	-13759
▁ව්යුහ	-13760
▁හුංගම	-13761
▁අපයෝජන	-13762
▁අස්විය	-13763
▁ඉරානයේ	-13764
▁මියයාම	-13765
▁වසරෙන්	-13766
▁සංවාදය	-13767
▁ප්රගීත්	-13768
▁සහජීවනය	-13769
▁ඇමතීමෙන්	-13770
▁පහත්බිම්	-13771
▁පිළියමක්	-13772
▁මිතුරෙකු	-13773
▁රාජසන්තක	-13774
ත්තෙට්ටුවේ	-13775
▁පෙරමුණෙන්	-13776
▁මිහින්තලය	-13777
▁මුරලිදරන්	-13778
▁සැසිවාරයේ	-13779
▁හැකියාවන්	-13780
▁බෙදාහැරීමට	-13781
▁සිරදඬුවමක්	-13782
▁ගල්කිරියාගම	-13783
▁ලාංකිකයින්ට	-13784
▁ප්රතිසන්ධානය	-13785
යිය	-13786
ල්ක	-13787
ීමා	-13788
ේරි	-13789
▁Sh	-13790
2015	-13791
පතිය	-13792
ැතිව	-13793
▁පහේ	-13794
උතුරු	-13795
ිපිළි	-13796
▁ආත්ම	-13797
▁තෙවර	-13798
▁පලවා	-13799
▁සද්ධ	-13800
ගම්පුර	-13801
▁හිඟයට	-13802
ස්සැල්ල	-13803
▁අතිගරු	-13804
▁අස්ථාන	-13805
▁ආරම්භය	-13806
▁ගොවින්	-13807
▁ධුරයක්	-13808
▁නවගමුව	-13809
▁මංතීරු	-13810
▁කැළඹිලි	-13811
▁ආයතනයෙන්	-13812
▁ගැන්වීමේ	-13813
▁දේවප්රිය	-13814
▁යුද්ධයක්	-13815
▁ක්රියාකරන	-13816
▁කිසිවිටෙක	-13817
▁පැවැත්විණ	-13818
▁සිද්ධාර්ථ	-13819
▁හිමිවන්නේ	-13820
▁ඔරුගොඩවත්ත	-13821
▁විද්යාඥයන්	-13822
▁උපකුලපතිවරයා	-13823
▁මද්දුමබණ්ඩාර	-13824
du	-13825
op	-13826
ard	-13827
▁ඔහ	-13828
anka	-13829
▁බෙන	-13830
▁මෝට	-13831
▁09ක්	-13832
▁අලුත	-13833
▁කාරණ	-13834
▁ගැබ්	-13835
▁මාධව	-13836
දිමින්	-13837
▁ගහන්න	-13838
▁පුවක්	-13839
▁උපයෝගි	-13840
▁දිළිඳු	-13841
▁දෙනාටම	-13842
▁නිදහසට	-13843
▁පාවහන්	-13844
▁යුතුකම	-13845
▁යුරෝපය	-13846
▁වාට්ටු	-13847
▁තරුණයකු	-13848
▁දියණියට	-13849
▁වගාවන්ට	-13850
▁සොයාගනු	-13851
▁ආදර්ශයක්	-13852
▁කඳවුරුවල	-13853
▁බ්රෙන්ට්	-13854
▁සංදේශයක්	-13855
▁කුමාරසිරි	-13856
කුඩිඉරිප්පු	-13857
▁අවිනිශ්චිත	-13858
▁ප්රතිව්යූහ	-13859
▁පොලිසියෙන්	-13860
යෙහි	-13861
සත්ව	-13862
▁50ට	-13863
▁ශිව	-13864
ුවත්ව	-13865
▁ගොඩට	-13866
▁තමාව	-13867
▁පටවා	-13868
▁මනුෂ	-13869
▁රේනෝ	-13870
ප්ටොප්	-13871
▁ඒඩ්ස්	-13872
▁ජයවීර	-13873
▁දොඩංග	-13874
▁පුනර්	-13875
▁කල්ලිය	-13876
▁හමාරක්	-13877
ත්වයකින්	-13878
පසුගියදා	-13879
▁අවතැන්ව	-13880
▁නැංවීමේ	-13881
▁ලැබීමත්	-13882
▁සෙබළෙකු	-13883
▁තිබ්බටුව	-13884
▁බාලසූරිය	-13885
▁වටිනාකම්	-13886
▁සිටීමෙන්	-13887
▁අපක්ෂපාතී	-13888
▁හිමිකරගත්	-13889
▁නෙදර්ලන්තය	-13890
▁ප්රමාණයෙන්	-13891
▁මැලේසියානු	-13892
හක	-13893
ber	-13894
චෙල්	-13895
තිරම	-13896
තූර්	-13897
ෝන්ය	-13898
▁196	-13899
▁4කට	-13900
▁ජෝෂ	-13901
▁ඩ්ර	-13902
▁රිව	-13903
දාගොඩ	-13904
හාරික	-13905
ිරිනී	-13906
▁කටුව	-13907
▁නාදු	-13908
▁ලිප්	-13909
▁150ක්	-13910
▁අභාවය	-13911
▁කාබන්	-13912
▁කෘත්ර	-13913
▁දිවෙන	-13914
▁මතුවූ	-13915
▁ඔක්කොම	-13916
▁කුලියට	-13917
▁පලතුරු	-13918
▁මාසයක්	-13919
▁සුසන්ත	-13920
▁දේශප්රේ	-13921
▁නියමයක්	-13922
▁රැළියක්	-13923
▁ට්රාන්ස්	-13924
▁පැමිණෙනු	-13925
▁මිත්තණිය	-13926
▁හවුල්කාර	-13927
▁පැමිණිල්ලට	-13928
▁පුරප්පාඩුව	-13929
▁අවස්ථාවේදීම	-13930
▁ත්රස්තවාදයට	-13931
ඬේ	-13932
මර	-13933
මින	-13934
තී්ර	-13935
යන්ද	-13936
ුද්ර	-13937
▁බ්ල	-13938
▁මැක	-13939
▁සෙර	-13940
වෙන්න	-13941
▁කොයි	-13942
▁ගම්ම	-13943
▁නවනී	-13944
▁නියං	-13945
▁හොයා	-13946
මහනුවර	-13947
සභාපති	-13948
▁5කින්	-13949
▁දුර්ල	-13950
▁සභාගත	-13951
▁ඉඩම්වල	-13952
▁නඩුවකට	-13953
▁නිසාත්	-13954
▁පරපුරට	-13955
▁කලාපවලට	-13956
▁කළහකාරී	-13957
▁ක්රිස්ට	-13958
▁දේවගැති	-13959
▁මළසිරුර	-13960
▁මෙහෙකාර	-13961
▁සෑහීමකට	-13962
▁මහනාහිමි	-13963
▁සහයෝගිතා	-13964
▁සුනඛයින්	-13965
අග්රාමාත්ය	-13966
▁විදුලිබිල	-13967
▁නිලධාරිනිය	-13968
▁බෙල්ලන්විල	-13969
▁මංසන්ධියේදී	-13970
▁ප්රතිශක්තිකරණ	-13971
ගස	-13972
රක්	-13973
ොයි	-13974
▁IM	-13975
▁අකම	-13976
▁උකු	-13977
▁මහඔය	-13978
▁ස්වී	-13979
පුල්ලේ	-13980
▁ඉක්මණ	-13981
▁ඊජිප්	-13982
▁තල්ලු	-13983
▁පියවා	-13984
▁අන්දමට	-13985
▁අලංකාර	-13986
▁අවසන්ව	-13987
▁කෝවිලේ	-13988
▁ලිපිනය	-13989
▁ආදිවාසී	-13990
▁මධ්යසාර	-13991
▁අයර්ලන්ත	-13992
▁ආරාධනයකට	-13993
▁ලැප්ටොප්	-13994
▁විනිශ්චය	-13995
▁ආයතනවලින්	-13996
▁පෙන්වාදෙන	-13997
▁කෙරවලපිටිය	-13998
▁බේරාගැනීමට	-13999
▁ඉදිරිපිටින්	-14000
ෙදි	-14001
ෝත්	-14002
▁5ට	-14003
ඩියේ	-14004
හරවා	-14005
කන්දේ	-14006
▁බැලු	-14007
▁සබන්	-14008
කරැල්ල	-14009
ට්ටුවට	-14010
දුල්ලා	-14011
▁අහනවා	-14012
▁ආරාධනය	-14013
▁ගැවසෙන	-14014
▁ස්වකීය	-14015
▁සිංහලේ	-14016
▁තිදෙනකු	-14017
▁නොසිටීම	-14018
▁සැරිසරන	-14019
▁දැනගන්නට	-14020
▁බංකොලොත්	-14021
▁සාක්ෂාත්	-14022
▁ආශිර්වාදය	-14023
▁ගුවන්සේවා	-14024
▁කටයුතුවලදී	-14025
▁පැහැදිලිවම	-14026
▁සැකකාරියන්	-14027
▁සංචාරකයින්ට	-14028
▁ප්රතිව්යූහගත	-14029
▁සිදුකිරීමෙන්	-14030
▁විපක්ෂනායකවරයා	-14031
දරට	-14032
දේහ	-14033
▁ආව	-14034
▁එත	-14035
▁වඳ	-14036
සාධන	-14037
සුවා	-14038
හාරේ	-14039
▁නොන	-14040
▁රොට	-14041
ගාල්ල	-14042
විග්න	-14043
ිකරණය	-14044
ිනුවර	-14045
▁1994	-14046
▁කලාව	-14047
▁දැයට	-14048
▁විවර	-14049
ණයෙන්ම	-14050
▁ඕමන්ත	-14051
▁ක්රමා	-14052
▁තදින්	-14053
▁හක්මන	-14054
ල්පත්තු	-14055
▁කල්දැම	-14056
▁ගේට්ටු	-14057
▁මෙතරම්	-14058
▁ව්යර්ථ	-14059
▁ගන්නැයි	-14060
▁තරාතිරම	-14061
▁නිකුතුව	-14062
▁නොසිටින	-14063
▁දෙදෙනෙකි	-14064
▁කම්පනයෙන්	-14065
▁බුද්ධශාසන	-14066
▁මිත්රත්වය	-14067
▁ගම්වැසියන්	-14068
▁පෙන්වාදුන්	-14069
▁නොලැබුණහොත්	-14070
▁සංක්රමණිකයින්	-14071
98	-14072
▁ආග	-14073
ඩිට්	-14074
යකටම	-14075
ෂියා	-14076
සමාජ	-14077
ාගොඩ	-14078
▁115	-14079
▁27ක්	-14080
▁උත්ත	-14081
▁දේවි	-14082
▁කරගනු	-14083
▁කර්තෘ	-14084
▁තිලිණ	-14085
▁පුටුව	-14086
▁වගවීම	-14087
▁සපයනු	-14088
▁කාමරයක	-14089
▁කුලපති	-14090
▁කොවිඞ්	-14091
▁පාඨමාල	-14092
▁සමිතිය	-14093
▁අලුත්ගේ	-14094
▁කනගාටුව	-14095
▁ගෝලයෙකු	-14096
▁පොලිසීය	-14097
▁අත්හිටවූ	-14098
▁කාලයකින්	-14099
▁නිවෙස්වලට	-14100
▁විමර්ශනවලට	-14101
▁සෞඛ්යාරක්ෂිත	-14102
96	-14103
ගඟ	-14104
හ්න	-14105
ටුවා	-14106
ධූරය	-14107
මෙවර	-14108
▁සබ්	-14109
ටියකට	-14110
▁28ක්	-14111
▁ගෙඩි	-14112
▁දෑත්	-14113
▁මමත්	-14114
▁ශාරී	-14115
▁නාවුක	-14116
ගැන්වීම	-14117
▁නිරතවී	-14118
▁නුදුරේ	-14119
▁පොකුරේ	-14120
▁බිහිකර	-14121
▁සැළකිය	-14122
▁පලස්තීන	-14123
▁බාරදීමට	-14124
▁රොයිටර්	-14125
▁වරකාපොළ	-14126
▁සංඝනායක	-14127
▁අග්නිදිග	-14128
▁පත්කිරීමේ	-14129
▁පාපොච්චාර	-14130
▁විල්පත්තු	-14131
▁අවස්ථාවේදි	-14132
▁කි්රයාවලිය	-14133
▁පැවැත්විමට	-14134
▁ආරච්චිකට්ටුව	-14135
ක්ය	-14136
පීන	-14137
ේෂා	-14138
ිපත්	-14139
▁කිළ	-14140
▁ගැර	-14141
▁මාෆ	-14142
පැරණි	-14143
▁අවස්	-14144
▁නොර්	-14145
▁පළවූ	-14146
▁ලාභය	-14147
▁ගිනිඅ	-14148
▁තාමත්	-14149
▁හැමෝම	-14150
▁බෝම්බය	-14151
▁රක්වාන	-14152
▁සේවාවට	-14153
▁අභිරහස්	-14154
▁අලාභයක්	-14155
▁ඔබේසේකර	-14156
▁ශාරීරික	-14157
▁ස්ථානගත	-14158
▁සැලසීමේ	-14159
▁ඊශ්රායලය	-14160
▁රැකියාවල	-14161
▁වාරියපොල	-14162
▁දුරකථනයක්	-14163
▁වෙළෙඳපොළට	-14164
▁මාලිගාකන්ද	-14165
▁සංශෝධනයෙන්	-14166
▁දේශපාලඥයින්	-14167
▁මෙහෙයවීමෙන්	-14168
▁ප්රදේශයේදීයි	-14169
වගේ	-14170
සැලේ	-14171
▁බෙර	-14172
බර්ග්	-14173
ිකුඩි	-14174
▁අසංක	-14175
▁ඉවුර	-14176
▁කාලෝ	-14177
▁මැටි	-14178
▁මෙකී	-14179
▁රැළි	-14180
▁ෂෙල්	-14181
▁සළසා	-14182
ීමකින්	-14183
▁ධාන්ය	-14184
▁පල්ලම	-14185
▁පිටුද	-14186
▁බෙදීම	-14187
▁මාරපන	-14188
කරුවෙක්	-14189
න්දෙණිය	-14190
▁අසාදිත	-14191
▁ජනවාරී	-14192
▁නොයෙක්	-14193
▁වාහනයේ	-14194
▁හාලිඇල	-14195
▁දිසාපති	-14196
▁ප්රකාශන	-14197
▁ප්රියංකර	-14198
▁පිරිසෙන්	-14199
▁විශේෂයක්	-14200
▁තොරතුරුවලට	-14201
▁මලයාසියානු	-14202
▁ව්යාපාරිකයාගේ	-14203
PL	-14204
od	-14205
ts	-14206
▁ඕනෙ	-14207
▁ක්ල	-14208
▁ගබ්	-14209
▁වරම	-14210
ාගන්න	-14211
▁75ක්	-14212
▁අකමැ	-14213
▁එළිය	-14214
▁නොති	-14215
▁මාදු	-14216
▁වස්ක	-14217
▁වොට්	-14218
ත්සිරි	-14219
▁සත්යය	-14220
▁ඇමතිනී	-14221
▁ඉක්මන්	-14222
▁දිවිනැ	-14223
▁පහරදෙන	-14224
▁බැරකම්	-14225
▁වඩාත්ම	-14226
▁ඇඳුමින්	-14227
▁දන්සැල්	-14228
▁නවනීදන්	-14229
▁මුහුණපා	-14230
▁උත්සාහයක	-14231
▁ප්රජාවගේ	-14232
▁භේදයකින්	-14233
▁වතාවත්වල	-14234
▁පළිගැනීම්	-14235
▁මිනිසුන්ට	-14236
▁සම්ප්රේෂණ	-14237
▁අත්දැකීමක්	-14238
▁මුරුත්තෙට්ටුවේ	-14239
aw	-14240
ෛල	-14241
ුපි	-14242
ලාම්	-14243
▁101	-14244
▁කලහ	-14245
▁ටර්	-14246
▁නගන	-14247
▁නාන	-14248
▁පේර	-14249
▁රහු	-14250
▁ලවා	-14251
▁ඉරණම	-14252
▁ගිණි	-14253
▁තර්ක	-14254
▁බුවන	-14255
▁මොරො	-14256
▁වදාළ	-14257
▁ළමාර	-14258
දුම්බර	-14259
▁අදානි	-14260
▁උත්තේ	-14261
▁කලුතර	-14262
▁කොණ්ඩ	-14263
▁සාලාව	-14264
▁එතුමාට	-14265
▁නාදුනන	-14266
▁වැටීම්	-14267
▁අගලවත්ත	-14268
▁ග්රහණයට	-14269
▁ජයසුරිය	-14270
▁දොඩංගොඩ	-14271
▁ධර්මපාල	-14272
▁මූල්යමය	-14273
▁වරකාගොඩ	-14274
▁අමුත්තන්	-14275
▁ඩිප්ලෝමා	-14276
▁බලමණ්ඩලය	-14277
▁මාර්ගස්ථ	-14278
▁ක්රමවේදයට	-14279
▁සංකල්පයක්	-14280
▁රූපවාහිනිය	-14281
▁ඉන්දුනීසියාව	-14282
▁විශ්ලේෂකයින්	-14283
▁සම්බන්ධතාවක්	-14284
BC	-14285
දාව	-14286
හෙන	-14287
▁ශර	-14288
කුරු	-14289
ප්රභ	-14290
බවයි	-14291
ාධාර	-14292
▁ධවල	-14293
▁හෙල	-14294
දෙනකු	-14295
▁මංජු	-14296
▁මුලා	-14297
▁අබලන්	-14298
▁ළිඳකට	-14299
▁කැකුළු	-14300
▁කිළිනො	-14301
▁ගතවීමට	-14302
▁දැමුණා	-14303
▁නවත්වා	-14304
▁සතුන්ට	-14305
▁සඳහන්ව	-14306
▁ඉන්දියා	-14307
▁දුරකතනය	-14308
▁භූමියක්	-14309
▁මහරෝහලේ	-14310
▁සාධකයක්	-14311
▁අලාභහානි	-14312
▁රෙදිපිළි	-14313
▁සභාපතිනි	-14314
▁සීමාසහිත	-14315
▁ස්ථානයේදී	-14316
▁ජනරාල්වරිය	-14317
▁ආසාදිතයන්ගෙන්	-14318
▁ක්රීඩාංගනයේදී	-14319
මලේ	-14320
යාද	-14321
ෑණු	-14322
▁8ක	-14323
දිගම	-14324
හිම්	-14325
▁දුක	-14326
බාධිත	-14327
රුවක්	-14328
▁කංසා	-14329
▁ණයක්	-14330
▁රැවට	-14331
ම්බිම්	-14332
▁ජමාත්	-14333
▁දිඹුල	-14334
▁ලකුනු	-14335
▁කොරියා	-14336
▁නැවුම්	-14337
▁පිටවීම	-14338
▁වීදියේ	-14339
▁නිරතවීම	-14340
▁ක්රෙඩිට්	-14341
▁ප්රේක්ෂක	-14342
▁ලැබෙමින්	-14343
▁අයදුම්පත්ර	-14344
▁වෘත්තිකයන්	-14345
▁සාධාරණත්වය	-14346
▁උද්ඝෝෂකයින්	-14347
▁කර්මාන්තශාලාවේ	-14348
▁කොමසාරිස්වරයාට	-14349
8ක	-14350
▁අලී	-14351
▁පීට	-14352
▁අපතේ	-14353
▁කලකට	-14354
▁කැඩී	-14355
▁ග්රැ	-14356
▁තාරක	-14357
▁පහළට	-14358
▁පෝෂක	-14359
▁සුමේ	-14360
▁හසලක	-14361
කීර්ති	-14362
තාවයන්	-14363
▁ආටිගල	-14364
▁ඇසින්	-14365
▁නැවතී	-14366
▁නිස්ස	-14367
▁මීගොඩ	-14368
▁රත්තර	-14369
▁සැසිය	-14370
▁හෙට්ට	-14371
▁ආඥාපති	-14372
▁ටෝකියෝ	-14373
▁මොහුගේ	-14374
▁අල්ලසක්	-14375
▁ඉවත්වීම	-14376
▁ගෙනයාමට	-14377
▁බදුල්ලේ	-14378
▁බැලීමක්	-14379
▁මගීන්ගේ	-14380
▁විචාරණය	-14381
▁සවිස්තර	-14382
▁දායකයින්	-14383
▁ප්රශ්නගත	-14384
▁රියැදුරු	-14385
▁ස්වේච්ඡා	-14386
▁නැමැත්තාගේ	-14387
▁සේවාදායකයා	-14388
▁ප්රකාශකයෙක්	-14389
▁භාණ්ඩාගාරික	-14390
▁මැඩපැවැත්වීමට	-14391
76	-14392
ඤ්ඤා	-14393
පෙට්	-14394
▁The	-14395
▁සාය	-14396
▁සැග	-14397
ල්පිට	-14398
▁උවමන	-14399
▁එකකට	-14400
▁නූතන	-14401
▁මාන්	-14402
තනයෙන්	-14403
▁අනෝමා	-14404
▁ගෙඩිය	-14405
▁නැගිට	-14406
▁පාලමේ	-14407
▁සබ්මැ	-14408
▁ඕමානයේ	-14409
▁ජාතියේ	-14410
▁දිනුම්	-14411
▁පැවරෙන	-14412
▁ලිපිගො	-14413
▁වාර්ථා	-14414
▁සංදර්ශ	-14415
▁සමීක්ෂ	-14416
▁අනාවැකි	-14417
▁අඹුසැමි	-14418
▁ඇතුළත්ය	-14419
▁ප්රධානම	-14420
▁පාගමනක්	-14421
▁මංතීරුව	-14422
▁සැමවිටම	-14423
▁අසාමාන්ය	-14424
▁කිරීම්වලට	-14425
▁මණ්ඩලයේදී	-14426
▁සීග්රයෙන්	-14427
▁අධ්යාපනයක්	-14428
▁ව්යවස්ථාපිත	-14429
▁වැඩපිළිවෙලට	-14430
▁පරීක්ෂණයකින්	-14431
▁විත්තිකරුවන්ට	-14432
IA	-14433
ව්ර	-14434
ෙඩ්	-14435
කටයි	-14436
ෝලර්	-14437
▁අහු	-14438
▁නීර	-14439
▁සපා	-14440
ෙනිස්	-14441
▁ඉතිං	-14442
▁ගෙනඒ	-14443
▁තරණය	-14444
▁පවර්	-14445
▁අනුගත	-14446
▁විරාම	-14447
▁අංකයක්	-14448
▁ආක්රමණ	-14449
▁ඇන්තනී	-14450
▁ඉසව්වේ	-14451
▁ගැසීමට	-14452
▁ජයලාල්	-14453
▁ධාවනයේ	-14454
▁මිලෙහි	-14455
▁විශේෂය	-14456
▁ශෙහාන්	-14457
▁සේනාංක	-14458
▁එළිමහන්	-14459
▁ජනතාවත්	-14460
▁නිරුවත්	-14461
▁හැසිරෙන	-14462
▁අධිනීතිඥ	-14463
▁ගිවිසුමේ	-14464
▁අභිමානවත්	-14465
▁තලෙයිබාන්	-14466
▁සාකච්ඡාවලදී	-14467
▁පුදුකුඩිඉරිප්පු	-14468
45ට	-14469
වංච	-14470
හස්ත	-14471
▁6කට	-14472
▁එඩ්	-14473
▁කරණ	-14474
▁ගංඟ	-14475
▁නැව	-14476
නැවතු	-14477
ෂ්ණන්	-14478
ිරීමට	-14479
▁කමක්	-14480
▁කාගේ	-14481
▁කෝලි	-14482
▁ගහලා	-14483
▁රයන්	-14484
▁කුළුණ	-14485
▁හර්තා	-14486
▁අයඳුම්	-14487
▁ඉරාකයේ	-14488
▁පෝලිමේ	-14489
▁වැටිලා	-14490
▁තර්ජනයට	-14491
▁ධර්මසේන	-14492
▁නැතැයිද	-14493
▁ප්රමාදය	-14494
▁දිඹුලාගල	-14495
▁පරීක්ෂාව	-14496
▁මහනුවරදී	-14497
▁මැලේරියා	-14498
▁දැනගැනීමේ	-14499
▁සිසුවියගේ	-14500
▁අපේක්ෂිතයි	-14501
▁පැහැදිලියි	-14502
▁මහාධිකරණයට	-14503
▁සිද්ධස්ථාන	-14504
▁තෙවරප්පෙරුම	-14505
▁වැඩවර්ජනයක්	-14506
▁කර්මාන්තශාලාව	-14507
▁සම්පුර්ණයෙන්ම	-14508
▁නිෂ්පාදකයින්ගේ	-14509
යූ	-14510
ොත	-14511
ිකර්	-14512
ිප්ත	-14513
▁Mar	-14514
▁සංඛ	-14515
ගල්ලේ	-14516
පත්වල	-14517
▁42ක්	-14518
▁ගෙනය	-14519
▁බුක්	-14520
▁මාරක	-14521
▁රසික	-14522
භාවයක්	-14523
▁අදටත්	-14524
▁නිරුප	-14525
▁ආදාහනය	-14526
▁ඉන්ෆ්ල	-14527
▁ගොඩගසා	-14528
▁දිවියට	-14529
▁බලාගෙන	-14530
▁වෙලාවට	-14531
ස්තියානි	-14532
▁ගම්බිම්	-14533
▁වරකාපොල	-14534
▁වියදමක්	-14535
▁ක්රියාකර	-14536
▁නායකයෙක්	-14537
▁බ්රසීලයේ	-14538
▁හෙළාදකින	-14539
▁පැමිණෙනවා	-14540
▁ස්වාභාවික	-14541
▁දුම්රියපොළ	-14542
▁වාර්තාවුණා	-14543
ාපු	-14544
ිපෙ	-14545
ගාටු	-14546
ම්පු	-14547
හුම්	-14548
▁තනා	-14549
▁තලේ	-14550
▁මිර	-14551
න්කෙත	-14552
▁ක්වා	-14553
▁කෝසල	-14554
▁ජූඩ්	-14555
▁බ්රි	-14556
▁මගිය	-14557
▁ෆින්	-14558
ක්රීට්	-14559
▁ක්රිඩ	-14560
▁ජෝෂප්	-14561
▁පිළිම	-14562
▁ආර්ථීක	-14563
▁දිවංගත	-14564
▁වෙන්නෙ	-14565
▁දකින්නට	-14566
▁බෙල්ජිය	-14567
▁ගිරිඋල්ල	-14568
▁මුහුදේදී	-14569
▁විහාරමහා	-14570
▁බේස්ලයින්	-14571
▁සුමන්දිරන්	-14572
▁පොරොන්දුවක්	-14573
මැද	-14574
වලු	-14575
▁කෲ	-14576
▁හඳ	-14577
බ්බෑ	-14578
හම්බ	-14579
ට්ටම්	-14580
පමණක්	-14581
▁අද08	-14582
▁අනික	-14583
▁දරනු	-14584
▁ලූනු	-14585
▁ශරිර	-14586
▁ශ්රව	-14587
▁සභාග	-14588
▁මුත්ත	-14589
▁සිහින	-14590
වතුන්ගේ	-14591
▁අනුශාස	-14592
▁ආදරණීය	-14593
▁එතනෝල්	-14594
▁ගමනින්	-14595
▁ගැළපෙන	-14596
▁ඩොලරයේ	-14597
▁පතොරම්	-14598
▁පාලනයේ	-14599
▁පොදුවේ	-14600
▁සැකකරන	-14601
▁කරගත්තා	-14602
▁කොන්සල්	-14603
▁ගබඩාවක්	-14604
▁පුලුවන්	-14605
▁රුපියලේ	-14606
▁අල්ලාගෙන	-14607
▁ඡායාරූපය	-14608
▁අනාගතයේදී	-14609
▁මූලිකත්වය	-14610
▁රාජස්ථාන්	-14611
▁ස්විස්ටර්	-14612
▁හත්දෙනෙකු	-14613
▁සම්මානයෙන්	-14614
▁එන්නත්කරණයට	-14615
▁ලේකම්වරුන්ට	-14616
▁විමර්ශනයකදී	-14617
▁විමර්ශනයේදී	-14618
▁සම්බන්දයෙන්	-14619
▁සියඹලාණ්ඩුව	-14620
▁විදුහල්පතිනිය	-14621
7ක	-14622
▁i	-14623
▁n	-14624
නස්	-14625
යේම	-14626
ාවන	-14627
▁IS	-14628
▁හූ	-14629
ඉදිර	-14630
නිකා	-14631
▁175	-14632
▁IMF	-14633
▁මළල	-14634
පළාත්	-14635
මාචාර	-14636
▁48ක්	-14637
▁නිකේ	-14638
▁පොළේ	-14639
▁වෙතට	-14640
▁හිරේ	-14641
පෙට්කෝ	-14642
▁කනස්ස	-14643
▁මෙසේය	-14644
ව්යාප්ත	-14645
▁උනන්දු	-14646
▁කහටගස්	-14647
▁කොමිස්	-14648
▁පිල්ලේ	-14649
▁මැණිකේ	-14650
▁සියයක්	-14651
▁සිරිපා	-14652
ිරිනීතිය	-14653
▁ආසන්නයි	-14654
▁මියගියා	-14655
▁එළිසබෙත්	-14656
▁කිමිදුම්	-14657
▁තත්වයෙන්	-14658
▁ධාවනයෙන්	-14659
▁විකිණීමේ	-14660
▁සිපෙට්කෝ	-14661
▁හැකිවුණා	-14662
▁ආකාරයෙන්ම	-14663
▁නායකයින්ට	-14664
▁පුංචිහේවා	-14665
▁වැඩපිලිවෙ	-14666
▁තත්ත්වයන්ට	-14667
▁මාළිගාවත්ත	-14668
▁විමර්ශනවලින්	-14669
▁සම්මන්ත්රණයකට	-14670
9ක	-14671
්ලේ	-14672
ාදී	-14673
ොරට	-14674
මාවෝ	-14675
වේරා	-14676
ෂනල්	-14677
▁450	-14678
▁කෝර	-14679
▁වටය	-14680
▁සීස	-14681
▁32ක්	-14682
▁අමාර	-14683
▁කර්ම	-14684
▁පැණි	-14685
▁60000	-14686
▁එවීමට	-14687
▁ආසියාව	-14688
▁ජපානයට	-14689
▁දෙවෙනි	-14690
▁පිළිනො	-14691
▁සිරිල්	-14692
▁කහතුඩුව	-14693
▁දැක්වීය	-14694
▁සංදර්ශන	-14695
▁අනුග්රාහ	-14696
▁අයුරකින්	-14697
▁කුසලානයේ	-14698
▁දුෂ්මන්ත	-14699
▁දෙන්නැයි	-14700
▁සංචාරයකට	-14701
▁ඉටුකිරීමට	-14702
▁විදුලිසැර	-14703
▁ප්රේමජයන්ත්	-14704
▁බැතිමතුන්ගේ	-14705
▁සිලින්ඩරයක්	-14706
▁සාමාජිකයින්ගේ	-14707
▁අක්කරෙයිපත්තුව	-14708
▁ප්රනාන්දුපුල්ලේ	-14709
VID	-14710
මාණ	-14711
සුන	-14712
ෙමි	-14713
▁4ට	-14714
ළියේ	-14715
කරුගේ	-14716
▁ආදේශ	-14717
▁ජනවර	-14718
▁පුද්	-14719
▁අකුරට	-14720
▁අපචාර	-14721
▁කියපු	-14722
▁චාමික	-14723
▁තැනකට	-14724
▁නිපැය	-14725
▁නියඟය	-14726
▁වට්ස්	-14727
▁සින්න	-14728
▁අසළින්	-14729
▁ගබඩාවේ	-14730
▁ඝාතනයේ	-14731
▁තීක්ෂණ	-14732
▁දුර්ලභ	-14733
▁නාලිකා	-14734
▁රදගුරු	-14735
▁සම්භාව	-14736
▁දේශනයක්	-14737
▁මූලධර්ම	-14738
▁ලබාගන්න	-14739
▁ඉක්මණින්	-14740
▁නොතිබුණු	-14741
▁පෞද්ගලිකව	-14742
▁අතුරුදන්වී	-14743
▁අභියාචනයක්	-14744
▁පිළිස්සුම්	-14745
▁දැනුම්දීමකට	-14746
▁ස්වාමිපුරුෂ	-14747
og	-14748
end	-14749
කළු	-14750
ැහැ	-14751
▁QR	-14752
▁03ක	-14753
▁ඇසි	-14754
▁හීන	-14755
▁4000	-14756
▁අම්ම	-14757
▁කිඹුල	-14758
▁කියනු	-14759
▁පුරෝග	-14760
▁ලක්කළ	-14761
▁සලකුණ	-14762
▁ඉරියව්	-14763
▁යවමින්	-14764
▁රෝගින්	-14765
▁වැටුණා	-14766
▁කැප්පෙට	-14767
▁ගැනීමටද	-14768
▁පසුවුණා	-14769
▁රික්ටර්	-14770
▁ලිමිටඩ්	-14771
▁හඳුනාගත	-14772
▁අන්යෝන්ය	-14773
▁කම්පනයක්	-14774
▁කිහිපයකම	-14775
▁මෙහෙයුමේ	-14776
▁මොහොතින්	-14777
▁අවප්රමාණය	-14778
▁චිත්රපටයේ	-14779
▁ප්රභාකරන්	-14780
▁සමන්විතයි	-14781
▁තිබ්බටුවාවේ	-14782
▁අග්රමාත්යවරයා	-14783
80	-14784
IT	-14785
කෙ	-14786
ist	-14787
ඳුල	-14788
න්ට්	-14789
පල්ල	-14790
ලෙයි	-14791
▁අඹේ	-14792
▁දහම	-14793
▁දෙණ	-14794
ක්ෂාව	-14795
ම්පත්	-14796
▁කාසි	-14797
ප්රදේශ	-14798
▁අවුන්	-14799
▁අහංගම	-14800
▁කුණ්ඩ	-14801
▁කොමිෂ	-14802
▁චරිත්	-14803
▁දිලීප	-14804
▁දූපතට	-14805
▁නවත්ව	-14806
▁අන්වර්	-14807
▁ආඥාවක්	-14808
▁එකගතාව	-14809
▁කුමාරණ	-14810
▁ඥාණසාර	-14811
▁ඇසුරෙන්	-14812
▁කෝදාගොඩ	-14813
▁වාහනවලට	-14814
▁රත්නසිරි	-14815
▁වෛරසයෙන්	-14816
▁සම්මුතිය	-14817
කොළපැලැස්ස	-14818
▁පත්වෙමින්	-14819
▁මන්ත්රීන්	-14820
▁මෙහෙයවනවා	-14821
▁හුණුපිටිය	-14822
▁පරිමාණයෙන්	-14823
▁පරිශ්රමයක්	-14824
▁වෙන්දේසියේ	-14825
▁ඔස්ට්රේලියා	-14826
▁ලබාගැනීමෙන්	-14827
▁සභාපතිත්වයෙන්	-14828
86	-14829
ැබ්	-14830
ුරට	-14831
ෙළි	-14832
ment	-14833
එළිය	-14834
▁230	-14835
▁මවු	-14836
▁රශ්	-14837
▁රෝප	-14838
▁වශය	-14839
යාගාර	-14840
▁කෘති	-14841
▁පටුම	-14842
▁පහරට	-14843
▁මිලද	-14844
▁රචනා	-14845
▁ඇතුලත	-14846
▁වේල්ල	-14847
▁හමුවන	-14848
දිගිලිය	-14849
▁ජෝර්ජ්	-14850
▁දක්වනු	-14851
▁දොළොස්	-14852
▁පැදියේ	-14853
▁ප්රදේශ්	-14854
▁රන්දෝලි	-14855
▁විරහිතව	-14856
▁හමුවේයි	-14857
▁ආසාත්මික	-14858
▁මුලස්ථාන	-14859
▁අයර්ලන්තය	-14860
▁කීර්තිමත්	-14861
▁ප්රවාහනයට	-14862
▁සහයෝගිතාව	-14863
▁කුමාරණතුංග	-14864
▁කොන්ක්රීට්	-14865
▁නීතිවිරෝධි	-14866
▁පිවිසීමෙන්	-14867
ace	-14868
ණියේ	-14869
▁104	-14870
▁අටම	-14871
▁කූට	-14872
▁පුජ	-14873
▁වසම	-14874
රාණික	-14875
▁උපත්	-14876
▁ගොඩක	-14877
▁පදවි	-14878
▁පෙළප	-14879
▁සුවඳ	-14880
▁ගැසීම	-14881
▁පෙරිය	-14882
▁බරින්	-14883
▁තැබුවා	-14884
▁පරිශීල	-14885
▁ස්ථායි	-14886
▁සෝමවංශ	-14887
▁වූවන්ගේ	-14888
▁ශ්රීපාද	-14889
▁සාපරාධී	-14890
▁කිරිමේදී	-14891
▁පටිපාටිය	-14892
▁නිර්වින්ද	-14893
▁බෝට්ටුවක්	-14894
▁ඔක්ස්ෆර්ඩ්	-14895
▁කිලෝග්රෑමයක	-14896
▁ත්රිකුණාමලයේ	-14897
ity	-14898
ිරේ	-14899
තිගම	-14900
තිවු	-14901
රාවේ	-14902
▁උළු	-14903
▁කූඨ	-14904
▁හොබ	-14905
ඩර්නා	-14906
ැල්ලේ	-14907
[...]
