<unk>	0
<s>	0
</s>	0
ශ්‍රී	0
කෝවිඩ්-19	0
.	0
(	0
)	0
▁	-2.82256
▁බව	-4.63109
▁ඇති	-4.71465
ට	-4.84672
▁කර	-4.93455
▁සහ	-5.092
▁අතර	-5.10258
▁මේ	-5.15414
▁මෙම	-5.2573
▁වන	-5.32985
▁බවයි	-5.38152
▁ද	-5.38822
▁සඳහා	-5.40403
▁ඒ	-5.43055
▁තිබෙනවා	-5.47873
▁එම	-5.53315
▁අද	-5.53666
▁සඳහන්	-5.54615
▁මහතා	-5.56337
▁කළ	-5.56422
ක්	-5.58544
ේ	-5.65842
▁ශ්රී	-5.66525
▁කරන	-5.72934
▁ලෙස	-5.76969
▁හා	-5.79122
▁දී	-5.79574
▁විසින්	-5.81945
▁කටයුතු	-5.8474
▁වී	-5.91159
▁සම්බන්ධයෙන්	-5.91727
▁තිබේ	-5.91949
ද	-5.92074
ය	-5.92993
▁කිරීමට	-5.95363
▁ගෙන	-5.96995
ම	-6.02899
ත්	-6.06909
▁කළේ	-6.0716
▁අත්අඩංගුවට	-6.09794
▁වූ	-6.10616
්	-6.13917
▁ලංකා	-6.15035
▁ඔහු	-6.16422
ෙන්	-6.16652
▁කිරීම	-6.16905
ගේ	-6.17419
▁ලබා	-6.17772
ව	-6.18098
▁අනුව	-6.18168
▁වාර්තා	-6.20047
▁සිට	-6.21347
▁ප්රදේශයේ	-6.22764
▁මාධ්ය	-6.23127
▁පොලිස්	-6.23187
යි	-6.23618
▁බවත්	-6.23986
ක	-6.24195
▁අදාළ	-6.28904
▁ප්රකාශ	-6.29134
▁කියා	-6.31334
▁කළා	-6.3327
▁ඊයේ	-6.33271
▁සිදු	-6.33728
▁අමාත්ය	-6.33951
▁ජාතික	-6.36328
▁ඇත්තේ	-6.38488
▁වෙත	-6.41696
▁බවට	-6.4347
▁ජනාධිපති	-6.43722
▁කොළඹ	-6.45868
▁දක්වා	-6.4685
▁හේතුවෙන්	-6.46885
▁තුළ	-6.48
න්	-6.48365
▁කරමින්	-6.53174
▁ඉදිරිපත්	-6.53751
▁කළේය	-6.55183
▁පවසයි	-6.59226
▁සිටි	-6.61177
▁ක්	-6.61933
▁සිටින	-6.62764
▁පොලීසිය	-6.657
▁විට	-6.66035
▁දින	-6.66344
▁යන	-6.6762
▁ආරම්භ	-6.67842
▁පැවති	-6.68091
▁හැකි	-6.70542
▁රුපියල්	-6.71199
▁සිටියේ	-6.71477
▁යුතු	-6.71709
කට	-6.72547
▁පිළිබඳ	-6.73251
▁පසුගිය	-6.74056
▁ඇත	-6.74449
▁පොලිසිය	-6.75188
▁දෙනෙකු	-6.75849
▁එහි	-6.76323
▁ගත්	-6.79093
▁ගැනීමට	-6.80865
▁පවතින	-6.83566
▁පත්	-6.84451
▁ක්රියාත්මක	-6.85152
▁ඔවුන්	-6.85305
ු	-6.85369
▁ඇතුළු	-6.85406
▁රාජ්ය	-6.8682
▁පමණ	-6.87127
▁සෞඛ්ය	-6.88623
කින්	-6.89195
▁නව	-6.89944
▁ලබන	-6.90401
▁නිකුත්	-6.90578
▁එය	-6.90863
▁පවසනවා	-6.92311
▁සමඟ	-6.92324
▁විශේෂ	-6.92909
▁සමග	-6.93185
▁ප්රධාන	-6.93332
▁ගොස්	-6.94087
▁හිටපු	-6.95744
▁පාර්ලිමේන්තු	-6.97068
▁සිය	-6.97213
▁එහිදී	-6.98542
▁අමාත්යවරයා	-6.99186
▁මුදල්	-6.99306
▁වෙනුවෙන්	-6.99666
▁නිසා	-7.0004
▁රාජපක්ෂ	-7.00382
▁තවත්	-7.00622
▁ඉහළ	-7.00655
▁තීරණය	-7.01699
▁කිරීමේ	-7.02083
▁පළාත්	-7.02116
න	-7.02162
▁මත	-7.02834
▁එක්සත්	-7.03736
ා	-7.03854
▁මහ	-7.04437
▁දෙපාර්තමේන්තුව	-7.05082
වල	-7.05111
▁පිරිසක්	-7.05573
▁වැඩි	-7.06986
▁අදහස්	-7.07509
▁වෛද්ය	-7.07646
▁තිබූ	-7.07728
▁හෝ	-7.08807
▁පිළිබඳව	-7.09441
▁ක	-7.11361
▁පළ	-7.1324
▁වැඩිදුරටත්	-7.13369
▁මෙරට	-7.13394
▁අවසන්	-7.14576
▁කෙසේ	-7.14798
▁ඊට	-7.15047
▁ගුවන්	-7.15466
▁ලේකම්	-7.16045
▁ගත	-7.16576
▁පුද්ගලයින්	-7.1662
▁ලද	-7.16627
▁පසු	-7.17029
▁ගැනීම	-7.17231
▁පියවර	-7.18097
▁නිදහස්	-7.18562
▁එක්	-7.18901
▁පරීක්ෂණ	-7.19086
▁විය	-7.1931
▁මෙලෙස	-7.19539
▁නොමැති	-7.19722
▁පෙර	-7.19787
යක්	-7.19893
▁මගින්	-7.20456
▁මන්ත්රී	-7.20985
▁ජනාධිපතිවරයා	-7.21017
▁නිලධාරීන්	-7.21126
▁අවශ්ය	-7.2187
▁හැවිරිදි	-7.21962
▁ඉල්ලා	-7.2226
▁එමෙන්ම	-7.22927
▁නම්	-7.23005
ස්	-7.24073
වලට	-7.24862
▁බවද	-7.25195
▁පෙන්වා	-7.25445
▁රජය	-7.25893
ි	-7.26727
▁යටතේ	-7.26867
▁කරයි	-7.27015
▁අනතුරුව	-7.28153
▁දුම්රිය	-7.28301
▁මිල	-7.28376
▁අප	-7.29438
▁විමර්ශන	-7.29442
ල	-7.2984
යේ	-7.29929
▁වෙතත්	-7.29989
▁මස	-7.30011
▁මහින්ද	-7.30084
▁රජයේ	-7.30664
▁සේවා	-7.31471
▁එල්ල	-7.32285
▁කොරෝනා	-7.3306
▁සදහා	-7.34161
▁ගමන්	-7.34191
▁ඉන්දීය	-7.34216
ගෙන්	-7.34508
▁ජනතාව	-7.35154
▁වසරේ	-7.3561
වා	-7.35723
▁ගන්නා	-7.36239
▁සැකකරුවන්	-7.36351
▁වන්නේ	-7.36418
▁වුණා	-7.36692
▁චෝදනා	-7.36802
▁විදේශ	-7.36917
▁කරනවා	-7.37014
▁වනවිට	-7.38057
▁පක්ෂ	-7.38322
▁වසර	-7.38629
▁තුවාල	-7.39294
▁තත්ත්වය	-7.39638
▁කණ්ඩායම	-7.39977
▁ලකුණු	-7.4033
▁තම	-7.40465
▁සභාපති	-7.40736
▁සිදුකළ	-7.41148
▁වශයෙන්	-7.41535
▁සැකකරු	-7.42254
▁එරෙහිව	-7.42315
▁ලංකාවේ	-7.42528
▁ආරක්ෂක	-7.43021
▁පසුව	-7.4339
▁ගිය	-7.43626
▁නියමිත	-7.43984
▁මීට	-7.44084
▁මෙන්ම	-7.4449
▁අපරාධ	-7.45496
▁වනදා	-7.4597
▁අපි	-7.46056
▁ලංකාව	-7.46647
▁ඇතුළත්	-7.4678
▁සිදුව	-7.48995
▁පැමිණ	-7.49031
▁මහේස්ත්රාත්	-7.49672
▁පැමිණි	-7.49782
▁බස්	-7.49857
▁සදහන්	-7.50135
▁අමාත්යාංශය	-7.50305
▁සංඛ්යාව	-7.51063
▁දැඩි	-7.5132
▁රට	-7.51549
▁හමුවේ	-7.51767
▁හිරු	-7.51805
▁ජාත්යන්තර	-7.52506
▁කරනු	-7.52708
▁සාකච්ඡා	-7.52828
▁දිනයේ	-7.5322
▁වැසි	-7.54387
▁තොරතුරු	-7.5487
▁ඉවත්	-7.54881
▁තමන්	-7.55619
▁සොයා	-7.55894
ම්	-7.55977
▁හමුදා	-7.5616
▁සිද්ධිය	-7.56393
▁තිබුණා	-7.57076
▁නායක	-7.57283
▁විදුලි	-7.57365
▁පුද්ගලයෙකු	-7.57762
▁නැහැ	-7.57893
▁රථ	-7.59073
▁අධිකරණය	-7.59373
▁දේශපාලන	-7.59434
▁මියගොස	-7.59487
▁පළමු	-7.59497
▁යොමු	-7.59637
▁පත්ව	-7.59645
▁රටේ	-7.59719
▁මෙහිදී	-7.60652
▁ඉන්ධන	-7.61852
▁අවුරුදු	-7.62063
වලින්	-7.6227
▁සංවර්ධන	-7.6293
▁කරුණු	-7.62953
▁තවදුරටත්	-7.6303
▁වැනි	-7.63324
▁හෙට	-7.63747
▁සම්බන්ධ	-7.63931
▁නාවික	-7.64001
▁දැනුම්	-7.64223
ලා	-7.64266
▁නිරත	-7.64274
▁19	-7.64392
▁පාසල්	-7.64435
▁ප්රවෘත්ති	-7.64544
▁සියලු	-7.64757
▁නියෝජ්ය	-7.64847
▁නොවන	-7.65319
▁පමණක්	-7.65801
▁නීති	-7.67229
ින්	-7.67469
▁අධ්යාපන	-7.67596
▁ආර්ථික	-7.68001
▁මැතිවරණ	-7.6836
▁සිටියා	-7.68409
▁ඇය	-7.69013
▁වේ	-7.69232
▁10	-7.69325
▁ප්රතිකාර	-7.69432
▁අධිකරණයට	-7.69594
▁ඇතැයි	-7.70064
▁කාලය	-7.70105
▁ඡන්ද	-7.70188
ල්	-7.70727
දී	-7.70738
▁වැඩිදුර	-7.70752
▁අධ්යක්ෂ	-7.71091
▁මණ්ඩලය	-7.71176
▁වාර්තාකරු	-7.71301
▁නමුත්	-7.71369
▁පදිංචි	-7.71376
▁වික්රමසිංහ	-7.7195
▁තිබෙන	-7.72422
▁කරන්නේ	-7.72506
▁එක්ව	-7.72669
▁සිටියේය	-7.72931
▁මහා	-7.72996
▁පෞද්ගලික	-7.73088
▁පක්ෂයේ	-7.73238
▁සභා	-7.73307
▁ක්රිකට්	-7.73322
▁කාර්යාලය	-7.73446
▁ගැන	-7.73618
▁එක්වෙමින්	-7.73776
▁බන්ධනාගාර	-7.74405
▁නියෝග	-7.74614
▁ලැබූ	-7.74761
▁අග්රාමාත්ය	-7.74838
▁පරිදි	-7.74893
▁ජල	-7.75172
▁රනිල්	-7.75179
ේදී	-7.75383
▁සංගමය	-7.7547
▁සහිත	-7.75741
▁මරණ	-7.75785
▁වනවා	-7.75963
▁දෙදෙනෙකු	-7.76414
▁හරහා	-7.76582
▁ආණ්ඩුව	-7.7738
ඒ	-7.78366
▁20	-7.78374
▁සංවිධානය	-7.78501
▁විදෙස්	-7.78567
▁ඉදිරි	-7.78607
▁ඉන්	-7.78951
▁වීම	-7.79502
▁5	-7.79652
▁මිලියන	-7.79804
▁රෝහලට	-7.79868
▁විද්යා	-7.80265
▁කිසිදු	-7.80678
▁3	-7.80738
▁මාර්ග	-7.8075
▁ප්රකාශක	-7.80938
▁කිරීමෙන්	-7.80985
▁යළි	-7.81061
▁මාර්ගයේ	-7.81081
▁සභාව	-7.81367
▁භාර	-7.81479
▁දෙන	-7.81913
▁උපදෙස්	-7.82017
▁ලෝක	-7.82064
▁රැගෙන	-7.82229
▁ජනතා	-7.82607
වන	-7.82855
▁විශාල	-7.83073
යට	-7.83651
▁ලක්ෂ	-7.83829
▁නොහැකි	-7.84486
▁මධ්යම	-7.84634
▁වැඩ	-7.84657
▁කිහිපයක්	-7.84668
▁පැවැත්වෙන	-7.84733
▁අය	-7.85185
▁ඝාතනය	-7.85197
▁අයත්	-7.85261
▁පිහිටි	-7.8554
වී	-7.8561
▁ප්රදේශයේදී	-7.85687
▁අනාවරණය	-7.85706
▁පස්වරුවේ	-7.8635
▁4	-7.86503
▁කාලයක්	-7.86539
▁නියමිතයි	-7.87191
▁කාලගුණ	-7.87384
▁ප්රදේශවල	-7.87711
▁අනතුර	-7.87749
▁අඩු	-7.87764
මේ	-7.87836
▁සිරිසේන	-7.87952
▁සඳහන්ය	-7.88188
▁මහතාගේ	-7.8828
ර	-7.88648
▁සභාවේ	-7.88805
▁පුරා	-7.88868
▁අධික	-7.8892
▁12	-7.8895
▁ජනතාවට	-7.89016
▁6	-7.89054
▁වැනිදා	-7.89612
▁ලබාදීමට	-7.90174
▁පැවැත්වීමට	-7.90299
▁වෙඩි	-7.9037
▁රෝහලේ	-7.90641
▁සේවය	-7.90892
▁යුද	-7.9111
ස	-7.91128
ගෙන	-7.91678
▁පක්ෂය	-7.91793
▁කියලා	-7.91852
▁බල	-7.91966
යෙන්	-7.92115
▁කාර්ය	-7.92461
▁ණය	-7.92989
▁සිදුකරන	-7.93362
▁නිවේදනය	-7.93462
▁විවිධ	-7.93496
▁සිදුකර	-7.93651
▁පවසා	-7.94121
ප	-7.94839
ත	-7.94928
කර	-7.95153
කි	-7.95286
▁පිරිස	-7.95919
▁ඇතැම්	-7.96128
▁පැය	-7.96639
▁ගාල්ල	-7.96653
▁නො	-7.9693
▁පුද්ගලයා	-7.97166
▁ලබාදෙන	-7.97176
▁සිදුවූ	-7.97298
▁ප්රශ්න	-7.97356
▁පැවසීය	-7.97395
යන්	-7.97402
▁අංශය	-7.98205
▁දකුණු	-7.98668
▁බැවින්	-7.98674
▁දා	-7.98692
නි	-7.98999
▁අවස්ථාවේ	-7.99001
▁ලබාදී	-7.99345
▁ඔහුගේ	-7.99788
▁මූල්ය	-7.99858
▁මුහුදු	-7.99924
▁අවස්ථාව	-8.00084
▁නැවත	-8.00566
ී	-8.00576
▁කරන්න	-8.00962
▁කියන	-8.0109
▁ආහාර	-8.01632
▁උතුරු	-8.01766
▁පවසන්නේ	-8.01802
▁ලක්	-8.01874
▁අවධාරණය	-8.02143
▁ප්රාදේශීය	-8.02333
යා	-8.02354
▁පාලන	-8.02363
▁තිබී	-8.02978
▁මහජන	-8.03001
▁15	-8.03339
▁බලා	-8.03559
▁පෙනී	-8.03587
▁සංගමයේ	-8.03813
▁අපේ	-8.03872
▁සිසුන්	-8.03905
▁සිල්වා	-8.04106
▁11	-8.0412
▁ධීවර	-8.04315
▁රෝහල්	-8.04523
වේ	-8.04579
▁ගිනි	-8.04628
▁2	-8.0467
▁ආයතන	-8.04786
▁පෙරවරුවේ	-8.04847
▁මහනුවර	-8.05194
▁නියමිතය	-8.05211
▁වීමට	-8.05391
▁තෙල්	-8.05394
▁ලංකාවට	-8.05615
▁අමතරව	-8.05692
▁මම	-8.06113
▁නිල	-8.06161
▁8	-8.0638
▁මෙතෙක්	-8.06755
▁අධිකරණ	-8.06766
▁ධාවනය	-8.07165
▁වු	-8.07515
නා	-8.08216
▁කොට	-8.08987
▁ලැබී	-8.09011
ටී	-8.09073
▁ප්රදේශ	-8.0913
▁යන්න	-8.09133
▁අලෙවි	-8.09331
▁9	-8.09946
▁මිය	-8.09954
▁ඩොලර්	-8.09956
▁මෛත්රීපාල	-8.1008
▁රක්ෂිත	-8.10348
▁සමස්ත	-8.10356
▁යෝජනා	-8.10366
▁දුන්	-8.10396
▁මූලික	-8.10502
▁ගනිමින්	-8.10755
▁හිමි	-8.10771
▁ජන	-8.10804
▁මුදලක්	-8.1093
▁වාහන	-8.11058
▁ජීවිතක්ෂයට	-8.11074
▁මෙවර	-8.11077
▁නිවාස	-8.11202
▁තහවුරු	-8.11241
▁අ	-8.11473
වි	-8.1186
▁උදෑසන	-8.11921
▁දිනය	-8.11978
▁දෙකක්	-8.1249
▁මානව	-8.1256
▁ස්ථාන	-8.12631
▁සිදුවන	-8.1296
▁ව	-8.13019
▁දෙවන	-8.13038
▁වෘත්තීය	-8.1312
▁හමුදාව	-8.13515
▁වල	-8.14361
▁විවෘත	-8.14378
ගත	-8.14491
00	-8.14703
▁සහභාගී	-8.14776
▁දක්වමින්	-8.15068
▁වෙයි	-8.15089
▁බස්නාහිර	-8.15104
▁ලැබුවා	-8.15107
▁ක්රීඩා	-8.15111
▁ඔස්සේ	-8.15111
▁සමාගම	-8.15133
▁එසේම	-8.15168
▁දැනට	-8.15208
▁30	-8.15438
▁18	-8.15629
▁මාස	-8.15655
▁මෙරටට	-8.15688
▁අවධානය	-8.15748
▁7	-8.15757
▁මත්ද්රව්ය	-8.1588
▁24	-8.15928
▁ලෙසයි	-8.16151
▁අංශ	-8.16237
▁ලබාදීම	-8.16808
▁සකස්	-8.16972
▁දෙරණ	-8.17209
▁යොදා	-8.17767
▁රැසක්	-8.17873
▁මෙය	-8.1802
▁කෙරෙන	-8.18025
▁රාත්රී	-8.18413
▁හිමිකම්	-8.18431
▁පැවසුවේ	-8.18471
▁තත්ත්වයක්	-8.1854
▁එක	-8.18545
▁තබා	-8.18756
▁පාලනය	-8.19008
▁මාතර	-8.19059
▁පැවැති	-8.1953
▁බදු	-8.19538
▁ආ	-8.197
▁දෙදෙනා	-8.19745
▁ජ්යෙෂ්ඨ	-8.19915
සී	-8.20531
▁එරට	-8.21342
▁යි	-8.21463
ට්	-8.21476
▁25	-8.21747
▁වයස	-8.21855
▁කොමිසම	-8.22028
▁ඇප	-8.22082
▁සමාජ	-8.22194
▁පසුගියදා	-8.22464
දි	-8.22618
▁මන්ත්රීවරුන්	-8.23438
▁බොහෝ	-8.23704
▁කෙරුණා	-8.23971
▁සිටිනවා	-8.24086
▁ප්රධානත්වයෙන්	-8.24114
▁යාමට	-8.24547
▁13	-8.24722
▁අදාළව	-8.24963
▁රටවල්	-8.25057
▁සමිති	-8.2534
▁16	-8.25457
▁රථයක්	-8.25811
▁නියමිතව	-8.26043
▁21	-8.26242
▁අවස්ථාවේදී	-8.26302
▁හෙතෙම	-8.26488
▁උසස්	-8.26541
▁ආසන්න	-8.26596
▁ගෑස්	-8.2661
▁දැනුවත්	-8.26618
▁විභාග	-8.26962
▁ආයතනය	-8.27158
▁සිටියදී	-8.27221
▁තිබුණේ	-8.27252
▁පහර	-8.27292
▁පැවසුවේය	-8.27666
▁ම	-8.27667
▁ඉතා	-8.28286
▁දෙමළ	-8.28314
ගම	-8.28337
▁තරග	-8.28383
▁කැබිනට්	-8.28697
දා	-8.28719
▁නගර	-8.29278
▁මියගිය	-8.29334
ූ	-8.29444
▁සියයට	-8.29633
▁ගැනීමේ	-8.29794
▁නීතිය	-8.30097
▁මාර්ගය	-8.30135
▁යාපනය	-8.30198
▁පුද්ගලයන්	-8.30264
▁සංචාරක	-8.30479
ග	-8.30496
▁මුහුණ	-8.30645
▁දෙන්නේ	-8.30814
▁වෙනත්	-8.31126
▁නඩු	-8.3137
▁පවත්වාගෙන	-8.31536
▁භාණ්ඩ	-8.31847
▁හානි	-8.31887
▁කට	-8.31999
ර්	-8.32025
▁පොදු	-8.32051
▁චීන	-8.32071
▁පහසුකම්	-8.32091
▁23	-8.32211
▁ක්රියා	-8.3228
▁මෝටර්	-8.32393
▁14	-8.32419
▁ඖෂධ	-8.32513
▁ආචාර්ය	-8.32516
▁රැකියා	-8.32517
තා	-8.32593
▁දිස්ත්රික්	-8.32701
▁දැන්	-8.32837
▁ඒකාබද්ධ	-8.32866
සි	-8.32942
▁හම්බන්තොට	-8.33152
▁සංවිධාන	-8.3318
▁වෙනවා	-8.33199
▁සී	-8.33311
▁වාර්තාව	-8.3338
▁කරගෙන	-8.3338
▁දමා	-8.34099
හ	-8.34181
ඩ්	-8.34249
▁මා	-8.34527
▁වලට	-8.34766
▁හි	-8.34796
▁විදුලිබල	-8.34806
▁දෙපාර්තමේන්තුවේ	-8.34895
▁17	-8.34907
▁හැකියාව	-8.34911
▁සහය	-8.34937
▁ලක්ව	-8.35114
▁නැති	-8.35127
▁වෙමින්	-8.35229
▁වරාය	-8.35286
▁මණ්ඩල	-8.35481
▁22	-8.35672
▁සැලසුම්	-8.35816
▁නියෝජනය	-8.36335
▁නියම	-8.36879
රා	-8.37259
▁දීමට	-8.37391
▁පොහොර	-8.37431
▁ගනු	-8.37554
ලි	-8.37837
නු	-8.38048
▁අනුරාධපුර	-8.38438
▁දරුවන්	-8.38745
▁ඔවුන්ගේ	-8.38904
▁ප්රවාහන	-8.39048
▁28	-8.39136
▁රාත්රියේ	-8.3914
▁පැමිණිලි	-8.39253
▁සූදානම්	-8.3929
▁වඩා	-8.39594
▁සෑම	-8.39696
▁යැයි	-8.4002
▁තිබුණි	-8.4013
▁මණ්ඩලයේ	-8.40137
▁හිමියන්	-8.40256
▁ගුණවර්ධන	-8.4029
▁අග්රාමාත්යවරයා	-8.40417
▁ඉල්ලීමක්	-8.40456
ික	-8.40464
▁නිසි	-8.40711
▁මන්ත්රීවරයා	-8.4097
▁සොයාගෙන	-8.40971
ණ	-8.41079
▁යුතුයි	-8.41099
▁විරෝධය	-8.41116
▁නැගෙනහිර	-8.4121
▁අවම	-8.41211
▁අනාවරණ	-8.41376
▁වසා	-8.41436
▁ගෝඨාභය	-8.41449
▁දිවයිනේ	-8.41612
▁ආසාදිතයින්	-8.41781
▁සංශෝධනය	-8.41887
ෙහි	-8.42014
▁26	-8.42327
▁පෙරමුණේ	-8.42406
▁දිස්ත්රික්කයේ	-8.42496
▁කාරක	-8.42553
▁කොවිඩ්	-8.42599
▁මෙසේ	-8.42682
▁27	-8.42971
▁අමාත්යංශය	-8.43044
▁තමයි	-8.43074
▁බවටයි	-8.43079
▁පෙළ	-8.43108
▁එසේ	-8.43118
ෙ	-8.43129
▁මහත්මිය	-8.43135
හි	-8.43146
▁ආරක්ෂාව	-8.43342
▁උත්සාහ	-8.43588
▁සාමාන්ය	-8.43621
▁විශ්ව	-8.43792
▁යම්	-8.44036
▁ඒවා	-8.44148
වත්	-8.44191
▁සිටියි	-8.44339
▁බැංකු	-8.44354
▁පැමිණෙන	-8.44402
▁භාවිත	-8.4455
රි	-8.44637
එම්	-8.44743
30	-8.44842
▁ප්රමාණයක්	-8.44901
▁අනුමැතිය	-8.45715
▁හමුවකට	-8.46462
▁වැඩසටහන	-8.4677
▁අංක	-8.46861
▁නගරයේ	-8.46945
▁වෛරසය	-8.46972
▁බලය	-8.47119
▁භාරයට	-8.47257
▁පිළිබද	-8.47288
▁කොමිෂන්	-8.47318
▁අපේක්ෂා	-8.47346
▁රෝග	-8.47421
▁බලාපොරොත්තු	-8.47457
▁පිළිතුරු	-8.47606
▁සහභාගි	-8.47852
▁අමාත්යාංශයේ	-8.47972
▁කල්	-8.48077
▁තහනම්	-8.48175
▁විපක්ෂ	-8.48218
▁පෙරමුණ	-8.48303
▁ප්රකාශයට	-8.4831
වූ	-8.48405
▁ඉන්දියාවේ	-8.48438
▁අධිකාරිය	-8.48595
▁වත්මන්	-8.48988
▁අනතුරු	-8.49157
▁එවැනි	-8.494
▁රථය	-8.49856
වීම	-8.49915
▁සමත්	-8.50287
▁විනිසුරු	-8.50329
▁පා	-8.50342
▁පාර්ලිමේන්තුවේ	-8.50522
▁ජනරාල්	-8.50588
කදී	-8.51042
▁සීමා	-8.51055
▁ජනතාවගේ	-8.51103
▁තමා	-8.51128
▁තිබු	-8.5113
▁කුමාර	-8.51169
▁කණ්ඩායම්	-8.51175
▁වි	-8.51264
▁1	-8.51326
▁කුඩා	-8.51432
▁තමන්ට	-8.51473
▁තුළින්	-8.5158
මින්	-8.51613
▁ලබාදුන්	-8.51668
▁නඩුව	-8.51688
▁ජාතීන්ගේ	-8.51941
▁යාම	-8.52223
වක්	-8.52302
▁මෙවැනි	-8.52384
▁දේශීය	-8.52524
▁කාලයේ	-8.5304
▁දිසානායක	-8.53487
▁රථයේ	-8.53524
▁දිවයින	-8.53681
ළ	-8.53803
▁හදිසි	-8.53926
▁ඉඩ	-8.54038
▁ක්රියාමාර්ග	-8.54206
▁තරගය	-8.54212
▁පෙරේරා	-8.54362
▁ඉන්දියාව	-8.54405
මි	-8.54431
▁ග්රෑම්	-8.5449
▁ප	-8.54533
▁මෙහෙයුම්	-8.54672
▁නිවේදනයක්	-8.55111
▁29	-8.55236
▁හේතුව	-8.55333
▁පස්වරු	-8.55378
▁මහාචාර්ය	-8.55474
▁ප්රනාන්දු	-8.55893
▁සියලුම	-8.56056
▁සිද්ධියට	-8.56141
▁කාර්යාලයේ	-8.56284
▁විරෝධී	-8.56304
▁ස්ථානය	-8.56589
▁06	-8.5661
▁පනත	-8.56695
▁පොලීසියට	-8.56699
▁විරෝධතා	-8.56699
▁නිවසේ	-8.56913
▁පුත්තලම	-8.5698
▁සැක	-8.57179
▁එස්	-8.57475
▁කමිටුව	-8.5774
▁31	-8.57871
▁තද	-8.58437
▁විද්යාලයේ	-8.58487
▁කල	-8.58531
▁ලැබුණු	-8.58541
▁මධ්යස්ථානය	-8.58752
▁මැයි	-8.58855
▁දෙනා	-8.58947
▁දීර්ඝ	-8.59004
▁සංවිධානයේ	-8.59103
ති	-8.59433
▁කොටුව	-8.59542
▁බිලියන	-8.59951
▁තොරව	-8.60131
▁කර්මාන්ත	-8.60469
▁ජය	-8.60686
▁පන්දු	-8.60778
▁වූයේ	-8.6122
▁දිය	-8.61244
▁හෙරොයින්	-8.61318
▁සතුව	-8.61378
▁ලොව	-8.61458
▁පොලිස්පති	-8.61586
▁අංශයේ	-8.61667
▁උප	-8.61727
▁තොගයක්	-8.61815
s	-8.61934
▁කඩිනමින්	-8.62009
▁කඩුලු	-8.62056
▁ඉදිරියේදී	-8.62164
▁සටහන්	-8.62275
▁05	-8.62301
▁ඔවුන්ට	-8.62385
▁ජලය	-8.6243
▁හමුවට	-8.62445
▁අවස්ථාවට	-8.62476
▁ලැබෙන	-8.62493
▁අලි	-8.62888
▁50	-8.62922
▁කොමසාරිස්	-8.62971
▁රෝගීන්	-8.62981
▁නිෂ්පාදන	-8.6302
▁ලෙසට	-8.63283
▁ඉදිරියට	-8.63316
▁පිළිබදව	-8.6337
▁ප්ර	-8.63397
▁ලදී	-8.63609
▁ආසාදිතයන්	-8.64034
යින්	-8.6427
▁අවසර	-8.64278
▁දිවයිනට	-8.64334
▁නෑ	-8.64344
▁ලේකම්වරයා	-8.64368
▁අත්	-8.64481
▁එල්	-8.64622
▁කාන්තාව	-8.6484
▁දැක්වූ	-8.64932
▁ප්රහාරය	-8.64933
▁තොගය	-8.65092
▁ආපදා	-8.65146
▁හැර	-8.65243
▁එහෙත්	-8.65256
▁ස්ථානයේ	-8.65346
▁ඇතිවිය	-8.65386
▁පළාතේ	-8.65456
▁ඒකකය	-8.65536
▁බරපතළ	-8.6579
▁මොවුන්	-8.6595
▁විනාශ	-8.66165
▁ලැබුවේ	-8.66253
▁රන්	-8.66352
▁සහන	-8.66636
▁ස	-8.66666
▁මුල්	-8.66756
▁අංශයට	-8.67009
▁රිය	-8.67241
▁දුන්නා	-8.6732
▁වුවද	-8.6733
▁විභාගය	-8.67354
ගොඩ	-8.67434
▁පී	-8.67446
▁අවස්ථා	-8.67534
▁දිනයේදී	-8.6758
▁03	-8.6765
▁දීම	-8.67774
▁පූජ්ය	-8.68179
▁ගත්තා	-8.68197
▁ඉ	-8.68263
▁ආනයනය	-8.68288
▁සාක්ෂි	-8.68327
▁පොලිසියට	-8.68425
▁වගේම	-8.68439
▁බලකාය	-8.68485
▁කෘෂිකර්ම	-8.68645
▁මාසයේ	-8.68697
▁04	-8.68739
▁ප්රතික්ෂේප	-8.68869
▁පාර්ලිමේන්තුව	-8.68885
ං	-8.69256
▁විධායක	-8.69288
▁වනු	-8.69334
▁ඉඩම්	-8.69463
▁කුරුණෑගල	-8.69613
▁පවත්වා	-8.69641
▁වෙනස්	-8.69656
▁ගැටලු	-8.69731
▁බලශක්ති	-8.69903
▁පෙත්සම	-8.69922
▁කටුනායක	-8.70417
▁ඡන්දය	-8.70467
▁දුරකථන	-8.70472
▁සංවර්ධනය	-8.7049
යක	-8.70545
▁ප්රකාශයක්	-8.70585
▁කළුතර	-8.70949
▁පාර්ලිමේන්තුවට	-8.70985
▁වලින්	-8.71014
▁කණ්ඩායමක්	-8.71104
වත්ත	-8.71134
▁නිර්මාණය	-8.71258
▁ආකාරය	-8.71285
▁07	-8.71566
▁පෙරවරු	-8.71575
▁මහතාට	-8.71643
▁තියෙනවා	-8.71654
▁සිරුර	-8.71691
▁අයෙකු	-8.71814
▁කඩා	-8.71917
▁පිරිස්	-8.71927
▁සලකා	-8.72322
▁බලධාරීන්	-8.72472
▁පිටත්ව	-8.72675
▁අපට	-8.72719
▁කොටස්	-8.72822
▁දැවී	-8.72845
▁මිලදී	-8.72933
මා	-8.73062
▁ඇතුලු	-8.73064
කා	-8.73269
▁ගුරු	-8.7329
▁අත්සන්	-8.73498
▁තුල	-8.73564
▁නිෂ්පාදනය	-8.73571
▁සභාපතිවරයා	-8.73625
▁තානාපති	-8.73627
▁සම්පත්	-8.73746
▁ජනවාරි	-8.73777
▁සරත්	-8.73794
▁ප්රවාහනය	-8.73979
▁නියෝජිතයින්	-8.74043
▁කාන්තාවන්	-8.74394
▁හැකියි	-8.74411
▁සෙසු	-8.7455
▁මළ	-8.74706
▁කියයි	-8.74819
▁මෙහි	-8.74833
▁දහවල්	-8.74835
▁සාකච්ඡාවක්	-8.74867
▁ආධාර	-8.74984
▁ඔහුට	-8.75022
▁නිලධාරින්	-8.75041
▁පහත	-8.7505
▁ආරක්ෂා	-8.75137
▁කළමනාකරණ	-8.75239
▁කිරීමේදී	-8.75315
▁පැන	-8.75587
සා	-8.75642
▁පසුවන	-8.75681
▁යුත්	-8.75693
▁මඟින්	-8.75797
▁එ	-8.75818
▁සමාගමේ	-8.7583
▁රටට	-8.75841
පී	-8.75866
▁තරුණ	-8.75886
▁එම්	-8.75913
▁සහාය	-8.75941
▁රියදුරු	-8.76046
▁ගම්පහ	-8.76072
▁නිලධාරීන්ගේ	-8.76081
▁ශිෂ්ය	-8.76081
ීය	-8.76117
▁ජයග්රහණය	-8.76373
▁ස්ථානයට	-8.76628
▁08	-8.76641
▁වර්ධනය	-8.76644
▁ආසාදනය	-8.7686
▁සංචාරය	-8.76935
▁බරපතල	-8.77011
විය	-8.77032
▁ඩෙංගු	-8.77038
▁වැටුප්	-8.77061
▁09	-8.77107
▁ආණ්ඩුවේ	-8.77164
▁විමුක්ති	-8.77307
▁ඉදිරිපිට	-8.77391
▁කාන්තාවක්	-8.77397
▁බාධා	-8.77509
මය	-8.77585
▁කණ්ඩායමේ	-8.77606
▁අදාල	-8.77709
▁ඉදිරියේ	-8.7782
▁සිටින්නේ	-8.78017
▁මැතිවරණය	-8.78589
▁මව	-8.78767
▁ගැසට්	-8.78826
▁පනත්	-8.78965
යෙකු	-8.78979
▁විශේෂඥ	-8.79131
වු	-8.793
අ	-8.7933
▁බදුල්ල	-8.79358
▁අජිත්	-8.79406
▁රජයට	-8.79774
▁සහල්	-8.79914
▁මුදල	-8.79955
▁කිහිපයක	-8.79972
▁බණ්ඩාර	-8.79982
▁02	-8.80033
▁ලබාගෙන	-8.80088
තු	-8.80177
▁වෙන්	-8.80365
▁ද්රව්ය	-8.80496
▁අසල	-8.80596
▁පරිසර	-8.80598
▁01	-8.81186
▁කොමිසමේ	-8.8119
▁කෙරුණු	-8.81694
▁නොකරන	-8.81859
▁ප්රමාණය	-8.81904
▁දෙක	-8.81913
ිය	-8.81916
▁දෙනවා	-8.82106
▁සේවකයින්	-8.82117
▁දැමීමට	-8.8222
▁ව්යවස්ථා	-8.82229
▁දිනවල	-8.82511
ප්	-8.82557
▁ගල්	-8.82632
▁අතිරේක	-8.82699
▁නීතිඥ	-8.82713
▁ගොඩ	-8.82755
▁අනෙක්	-8.82995
▁හෙළි	-8.83107
▁තේ	-8.8324
▁නිලධාරී	-8.83462
ුණු	-8.83479
▁ගියා	-8.83671
▁සිවිල්	-8.83701
▁කතා	-8.83714
▁ධීවරයින්	-8.83792
▁සබරගමුව	-8.83973
ගල	-8.84009
▁විශ්වවිද්යාල	-8.84047
▁විදුලිය	-8.84126
▁නිර්දේශ	-8.84162
▁ඌව	-8.84218
▁උපකරණ	-8.84298
▁කාන්තා	-8.84377
▁පන්දුවාර	-8.84394
▁ප්රතිපත්ති	-8.84499
▁පරීක්ෂා	-8.84613
▁කරලා	-8.84705
▁ප්රදේශවාසීන්	-8.84706
▁ප්රේමදාස	-8.84855
▁නුවරඑළිය	-8.84913
▁වැඩිම	-8.85006
▁වහාම	-8.85064
▁වගා	-8.85089
▁වහන්සේ	-8.85322
▁අනෙකුත්	-8.85494
▁සාමාජිකයින්	-8.85585
▁නුවර	-8.85835
▁ගිගුරුම්	-8.85874
▁නිලධාරීන්ට	-8.85967
▁ගාස්තු	-8.86261
▁පාර	-8.86567
▁ළමා	-8.86671
බී	-8.86677
▁කිරීම්	-8.86693
▁ලාංකික	-8.86728
▁පදිංචිව	-8.86802
▁ආගමික	-8.8685
▁යෝජනාව	-8.86871
▁නතර	-8.86968
▁සම්මත	-8.86983
▁රත්නපුර	-8.87026
▁ඛනිජ	-8.87055
▁බැංකුව	-8.87127
▁පවුල්	-8.87154
▁සිදුකිරීමට	-8.87442
වීමට	-8.87584
▁වැදගත්	-8.87586
වට	-8.8778
▁ලබාගත්	-8.87796
වන්	-8.87856
▁වැටී	-8.87864
▁ව්යාපෘතිය	-8.88065
රෝ	-8.88143
▁වැය	-8.8815
▁එන්නත්	-8.88169
වරයා	-8.88189
▁කැඳවා	-8.8819
▁ක්රමය	-8.88294
යෝ	-8.88344
▁ආයතනයේ	-8.88378
▁රු	-8.88384
එස්	-8.88397
▁පරීක්ෂණයක්	-8.88466
▁දෙනෙකුට	-8.88654
▁හඳුනාගෙන	-8.88727
▁වසරේදී	-8.8885
▁අලුයම	-8.88972
▁රැඳී	-8.89009
▁බලපත්ර	-8.8909
▁මුදා	-8.89163
▁නිවස	-8.89308
▁අනතුරට	-8.89402
▁යුතුව	-8.89404
▁තැපැල්	-8.89542
ටත්	-8.8956
▁අනතුරකින්	-8.89587
▁බැගින්	-8.8961
▁මාර්තු	-8.89671
▁ගැටීමෙන්	-8.89716
▁හෙවත්	-8.90012
▁ඡායාරූප	-8.9005
▁වයඹ	-8.90404
▁ආණ්ඩුක්රම	-8.90584
▁වර්ජනය	-8.90789
▁තොරතුරක්	-8.90855
▁පස්	-8.90909
▁උත්සවය	-8.90933
▁තවමත්	-8.90956
▁ශක්තිමත්	-8.90976
▁පොදුජන	-8.91002
▁සුළං	-8.91082
ෂ	-8.91102
▁තිබෙන්නේ	-8.91176
▁මැද	-8.91203
▁ගොනු	-8.91222
▁රෝහණ	-8.91329
▁නිවසට	-8.9138
ඩ	-8.91419
මු	-8.9142
▁වුණේ	-8.91435
▁සුළු	-8.91491
පු	-8.91543
▁සහයෝගය	-8.91546
▁වෙලා	-8.91704
▁පුළුවන්	-8.9172
▁කේ	-8.91722
▁මහලේකම්	-8.91724
▁අර්බුදය	-8.91867
▁ලෙසත්	-8.91926
▁ජංගම	-8.91982
▁අධ්යාපනය	-8.92319
▁සජිත්	-8.92517
▁ස්ථාපිත	-8.92953
▁දක්නට	-8.93111
▁ඉටු	-8.93255
▁රංජිත්	-8.93279
එම	-8.93417
▁සහතික	-8.93446
▁බලපෑම්	-8.93463
▁තෙක්	-8.93693
▁අධිකාරී	-8.93718
▁රෝහල	-8.93741
▁නොව	-8.93775
▁හේතු	-8.93946
▁වෙළඳ	-8.94064
▁පිරිමි	-8.94219
▁ආර්	-8.94315
▁කෙටුම්පත	-8.94356
රු	-8.94467
▁අමාත්යාංශ	-8.94471
▁කිරිමට	-8.94476
▁එලෙස	-8.94522
▁පවතිනවා	-8.94897
කේ	-8.94964
▁පාරිභෝගික	-8.9508
▁තිදෙනෙකු	-8.9512
▁කෝටි	-8.95139
▁පවා	-8.95141
▁සම	-8.95171
▁පදිංචිකරුවන්	-8.95278
▁වංචා	-8.95331
▁සති	-8.95339
▁මොහු	-8.95482
▁ප්රහාර	-8.95547
පුර	-8.95659
දු	-8.95703
▁සම්බන්ධව	-8.95749
නී	-8.95815
▁ජනපති	-8.95917
▁දරුවා	-8.95937
▁ඇමරිකානු	-8.96103
▁ගණන්	-8.96145
▁පවත්වන	-8.96157
යකට	-8.96178
▁ව්යාජ	-8.96253
▁තරගාවලියේ	-8.96383
ටි	-8.96413
▁ගින්න	-8.96564
▁ප්රදේශයෙන්	-8.96825
▁සහකාර	-8.96958
▁රැස්	-8.96995
▁නියෝගය	-8.97164
▁තාවකාලිකව	-8.97194
▁ලොරි	-8.97205
▁අතරතුර	-8.9724
▁ප්රදේශයට	-8.97282
▁වාර්තාවක්	-8.97314
▁ඒක	-8.97364
▁හමුවී	-8.97418
▁දූෂණ	-8.97478
▁වෑන්	-8.97516
▁අහිමි	-8.97533
▁තරගයේ	-8.97705
න්ට	-8.97781
▁බටහිර	-8.97791
වර	-8.97791
▁නිවේදනයේ	-8.97812
ැ	-8.98127
▁කිහිපයකට	-8.98133
▁තොග	-8.98172
▁පර්යේෂණ	-8.98253
ඩි	-8.98294
▁මට	-8.98427
▁හැටන්	-8.98475
ෙන	-8.98537
▁ටෙස්ට්	-8.98553
▁ගන්න	-8.98728
ඊ	-8.98921
▁සේවක	-8.98926
පිටිය	-8.98957
▁භාවිතා	-8.9908
▁චීනය	-8.9917
▁දැක්වෙන්නේ	-8.99191
▁ආසියානු	-8.99254
▁ඇමති	-8.99475
▁දෙයි	-8.99604
▁60	-8.9973
▁ප්රථම	-8.99795
▁විටත්	-8.998
▁ඉල්ලීම්	-8.99814
▁ව්යාපෘති	-8.99949
▁හමුවකදී	-9.00022
▁ගංජා	-9.0003
▁බුද්ධි	-9.00032
බ	-9.00039
▁අනුර	-9.00053
▁පත්කර	-9.00111
5	-9.00161
▁ජනතාවගෙන්	-9.00231
▁සමයේ	-9.00284
▁ලියාපදිංචි	-9.00644
▁අත්යවශ්ය	-9.00709
▁පියා	-9.00927
▁පැහැදිලි	-9.01052
▁එක්දින	-9.011
▁එකතු	-9.01119
▁පුහුණු	-9.01141
▁දි	-9.01329
කරුවන්	-9.01519
▁යමින්	-9.01647
▁40	-9.01665
▁අවි	-9.01846
▁සන්ධානය	-9.01876
▁100	-9.01938
▁පොළොන්නරුව	-9.02036
▁සංඛ්යාවක්	-9.02047
ෂ්	-9.022
▁සිංහල	-9.02271
▁හලාවත	-9.0233
▁අල්ලස්	-9.02369
▁බෙදා	-9.02394
න්න	-9.02464
▁විපක්ෂය	-9.02564
▁කාලයේදී	-9.02649
▁ෆොන්සේකා	-9.027
▁තැන්පත්	-9.02795
▁කණ්ඩායමට	-9.0301
▁එන	-9.03046
▁ආරංචි	-9.03116
▁පවරා	-9.0326
▁මීගමුව	-9.0326
▁සිදුවී	-9.0332
▁විභාගයට	-9.03352
▁ගොවීන්	-9.03448
▁හට	-9.03515
▁අයි	-9.03608
▁බ	-9.03717
▁මධ්යස්ථාන	-9.03824
▁ඔබ	-9.03842
▁ලක්වූ	-9.03866
▁මුස්ලිම්	-9.03887
▁දැරිය	-9.03907
නම්	-9.04241
▁මුළු	-9.04252
▁මන්නාරම	-9.04359
▁පෙන්වාදෙයි	-9.04421
▁ජී	-9.04429
▁අමෙරිකානු	-9.04592
ආර්	-9.04666
ලු	-9.04715
ිත	-9.04719
▁මේවන	-9.04739
සු	-9.04968
▁සමාගම්	-9.05022
▁සේවයේ	-9.05064
▁යා	-9.05074
▁තීරණ	-9.05207
▁පහළ	-9.05454
නේ	-9.05472
▁ප්රදේශය	-9.05562
▁ටී	-9.05593
▁දුන්නේ	-9.05611
▁මර්දන	-9.05647
▁අලුත්	-9.05671
▁විපක්ෂයේ	-9.05741
▁නිලධාරියෙකු	-9.05983
▁පැවැත්වුණා	-9.05984
▁අවට	-9.0606
▁තිබියදී	-9.06093
▁බිඳ	-9.06093
▁සමන්විත	-9.06146
▁ඩී	-9.06157
▁නෞකාව	-9.06157
▁විෂය	-9.06245
▁කම්කරු	-9.06347
▁තමන්ගේ	-9.06351
20	-9.06425
මෙම	-9.06449
▁කාර්යාල	-9.0661
එල්	-9.06621
ඩී	-9.06744
▁අයවැය	-9.06772
▁අධිකාරියේ	-9.06807
▁ජෙනරාල්	-9.06846
▁ප්රතිඵල	-9.07172
▁ප්රකාශය	-9.07518
▁ආණ්ඩුවට	-9.07575
▁එකම	-9.07679
▁එකක්	-9.07695
▁රුසියානු	-9.07866
▁ලැබීය	-9.07876
▁කරගනිමින්	-9.08624
▁රටවල	-9.08685
▁කමිටු	-9.08776
▁අප්රේල්	-9.08928
▁දිනේෂ්	-9.08947
▁පැමිණිල්ලක්	-9.09135
නය	-9.09225
▁අයුරින්	-9.09521
▁සන්ධානයේ	-9.09677
▁විද්යාලය	-9.09776
▁වගකීම	-9.09872
▁වැඩසටහන්	-9.09894
▁තුන්	-9.09904
▁විසඳුම්	-9.09962
▁සමුළුව	-9.0997
පා	-9.09979
▁ආර්ථිකය	-9.09989
▁රෝගය	-9.10089
▁මහේස්ත්රාත්වරයා	-9.10169
▁කිලෝ	-9.10231
කම	-9.10505
▁ඉදිකිරීම්	-9.10543
▁ආණ්ඩු	-9.1067
▁පන්දුවට	-9.10767
▁විද්යාල	-9.10939
▁තත්වය	-9.11014
▁අගය	-9.11131
▁වීමෙන්	-9.11241
▁දඹුල්ල	-9.11462
▁නියෝගයක්	-9.11555
▁විශ්වවිද්යාලයේ	-9.11611
▁ඉනිම	-9.11736
▁සුවය	-9.11768
▁මත්පැන්	-9.11852
▁දෙමින්	-9.11915
▁ත්රිකුණාමලය	-9.12
▁අපිට	-9.12372
▁සු	-9.12486
▁දන්වා	-9.12811
▁ටොන්	-9.12916
▁සංශෝධන	-9.13038
▁අරමුණින්	-9.13046
▁ප්රමාණවත්	-9.13116
▁කිසියම්	-9.13155
▁එළඹෙන	-9.13212
▁දෙසට	-9.13304
e	-9.13316
▁තත්ත්වයට	-9.13351
▁එරෙහි	-9.13374
▁උන්වහන්සේ	-9.1338
▁ප්රමුඛ	-9.13476
▁අරමුණ	-9.13526
▁නියෝජිත	-9.13616
▁වෙන්නේ	-9.13689
▁පශ්චාත්	-9.13746
▁ලබමින්	-9.13813
▁ගොවි	-9.13855
▁පවුලේ	-9.14147
▁පත්ර	-9.14309
▁පවසමින්	-9.14356
▁ඉල්ලීම	-9.14391
▁විසි	-9.14472
▁නගරය	-9.14703
▁කිරිම	-9.14736
▁ජීවිත	-9.14738
▁යනු	-9.1475
▁තරගාවලිය	-9.14791
▁කඩ	-9.14833
ව්	-9.14871
▁මගේ	-9.15047
▁යාත්රා	-9.15058
▁බිරිඳ	-9.1508
▁සැකකරුවෙකු	-9.15128
පාර්ලිමේන්තුවේදී	-9.15152
▁සිදුවු	-9.15193
▁ඇයගේ	-9.15213
▁නි	-9.15345
ත්වය	-9.15407
▁ලැබු	-9.15434
කොට	-9.15497
▁දෙසැම්බර්	-9.15526
▁අන්තර්	-9.15869
▁මෙරටින්	-9.15885
වරයෙකු	-9.1595
▁සතු	-9.15957
▁සිදුවීම	-9.1596
▁වෙබ්	-9.16166
1	-9.16183
▁ඩීසල්	-9.16247
▁පරීක්ෂණය	-9.16407
▁සිව්	-9.16463
▁විමසීම	-9.16519
▁ආයෝජන	-9.16551
▁උතුර	-9.16648
▁එකී	-9.1665
▁මෙ	-9.16704
▁සිර	-9.16996
▁කාර්යය	-9.173
▁අගෝස්තු	-9.17322
▁පුළුල්	-9.17323
▁යොදවා	-9.17448
▁සැපයුම	-9.17466
▁වෙනුවට	-9.17605
තම	-9.1782
▁හඳුනා	-9.18041
▁ත්රිරෝද	-9.1817
▁කිලෝග්රෑම්	-9.18373
▁ලබාගැනීම	-9.18634
▁ලබාගැනීමට	-9.18643
කු	-9.18774
▁ආසන්නයේ	-9.188
▁බ්රිතාන්ය	-9.18836
▁ගැටළු	-9.18885
▁වැරදි	-9.18891
▁බෞද්ධ	-9.18902
▁අඛණ්ඩව	-9.19155
▁ඉකුත්	-9.19249
▁හ	-9.19325
▁නායකයින්	-9.19423
▁අමරවීර	-9.19434
▁හටගෙන	-9.19559
▁සේනාරත්න	-9.1956
වරුන්	-9.19588
▁පීඩාවට	-9.19725
▁සමගි	-9.19758
▁සීමාව	-9.19829
▁වෛද්යවරුන්	-9.19856
▁කෑගල්ල	-9.20014
▁ප්රදර්ශනය	-9.20175
▁පාස්කු	-9.20175
▁සම්පූර්ණ	-9.20259
▁කමිටුවේ	-9.20302
▁උපරිම	-9.20499
▁මාතලේ	-9.20506
▁අමාත්යවරුන්	-9.20521
▁නොමැතිව	-9.20724
▁අනතුරුවයි	-9.20725
▁ඉලක්ක	-9.20738
▁රත්නායක	-9.20785
▁රටක්	-9.20965
▁චීනයේ	-9.21063
▁ශ්රි	-9.21072
▁ඕනෑම	-9.21133
▁කුසලාන	-9.21152
▁පමණයි	-9.21306
▁පත්වූ	-9.21334
▁වසංගත	-9.21416
පනවා	-9.21441
▁හමුව	-9.21479
▁බණ්ඩාරනායක	-9.21601
▁හමුවක්	-9.21643
▁මාධ්යවේදීන්	-9.21655
▁සිදුකරයි	-9.2166
▁වෙන	-9.21712
▁අනුවයි	-9.21716
▁ස්වාධීන	-9.21787
▁සවස	-9.21876
ඹ	-9.21924
▁ඝාතනයට	-9.21946
▁තරඟ	-9.2195
▁වර්ගයේ	-9.21955
▁මාර්ගයෙන්	-9.22011
▁තැබීම	-9.2203
▁2022	-9.22318
▁වර්ග	-9.22319
▁ඇද	-9.22353
▁ඔ	-9.22426
ගත්	-9.22525
▁සිටිය	-9.22554
▁වව්නියාව	-9.22568
▁ආදායම්	-9.22687
▁දිවි	-9.22706
▁ව්යාපාර	-9.2285
▁පැමිණීමට	-9.22859
▁ගමන	-9.22873
▁බන්දුල	-9.22923
කරන	-9.22941
▁අක්කර	-9.23324
▁තාක්ෂණ	-9.23349
▁සාකච්ඡාව	-9.2337
ෝ	-9.23372
▁වීරවංශ	-9.2341
▁තීන්දුව	-9.23449
▁විකාශය	-9.23537
▁අරමුදල	-9.23542
▁පූර්ණ	-9.23583
▁නීතිපතිවරයා	-9.23824
▁රේගු	-9.23897
▁නමැති	-9.23927
▁දෙන්න	-9.23972
අයි	-9.24045
▁සම්මාන	-9.24079
යෙක්	-9.24184
්නේ	-9.24223
▁නොවැම්බර්	-9.24267
▁කෙරෙහි	-9.24353
▁පැතිර	-9.24377
▁ක්රියාවලිය	-9.24507
▁ඇතිවූ	-9.24518
හා	-9.24524
▁හේරත්	-9.24526
o	-9.24641
▁අගමැති	-9.24715
▁වඩාත්	-9.24852
▁බැලීම	-9.24935
▁ධුරය	-9.2499
▁නීතිමය	-9.25081
▁නොකළ	-9.25092
▁විශ්රාම	-9.25146
▁සැප්තැම්බර්	-9.25219
▁ශ්රේෂ්ඨාධිකරණය	-9.25317
කළ	-9.25355
▁දේහය	-9.25705
▁හැකියාවක්	-9.25819
▁පැ	-9.2583
▁මහාධිකරණය	-9.26017
▁වැඩපිළිවෙළ	-9.26044
▁ළඟ	-9.26149
▁විමල්	-9.2615
▁උණුසුම්	-9.26202
▁ආසන	-9.26273
රී	-9.26289
▁පැවැත්වීම	-9.26311
▁ඒකකයේ	-9.26315
3	-9.26327
▁රඳවා	-9.26342
▁ආශ්රිත	-9.26363
▁මණ්ඩලයට	-9.26381
▁සැකකාර	-9.2639
ජි	-9.26645
▁අයිතිවාසිකම්	-9.2685
බි	-9.27037
▁අම්පාර	-9.27061
▁අති	-9.27063
ඳ	-9.27127
▁ජයවර්ධන	-9.27185
▁සබඳතා	-9.27274
▁2020	-9.27294
▁දුන්නේය	-9.27336
▁දෙකක	-9.27453
▁පොල්	-9.27712
▁නායකත්වය	-9.27716
▁පෙබරවාරි	-9.27777
▁සංස්ථාව	-9.27825
▁තොරතුරකට	-9.2787
▁මාරු	-9.27967
කම්	-9.2812
▁තීරණයක්	-9.28299
▁බෝ	-9.28328
▁පරිපාලන	-9.2839
▁පළාත්වල	-9.28419
▁යුක්රේන	-9.28468
▁2015	-9.28584
▁පහරදී	-9.28621
▁වියදම්	-9.28638
▁ආසාදිත	-9.28642
▁හැ	-9.28727
▁නිදහස	-9.28736
▁ක්ෂේත්රයේ	-9.28758
සිරි	-9.28846
▁සුදුසු	-9.28848
▁රථයක	-9.28848
▁වාර	-9.28949
▁ප්රදේශවලට	-9.28996
▁සතියේ	-9.29026
▁පීරිස්	-9.29047
▁වෘත්තිය	-9.29074
▁සංවිධායක	-9.29122
ගන්නා	-9.29309
▁මහාධිකරණ	-9.29343
▁පෙරේදා	-9.29436
▁හිමිව	-9.29481
▁මාවත	-9.29691
▁වතු	-9.29746
▁නිරතව	-9.29764
▁වෙරළ	-9.29991
ජ	-9.30012
▁පුද්ගලික	-9.30095
▁අධිවේගී	-9.30118
▁සභාවට	-9.30661
▁ප්රතිචාර	-9.30938
▁ලබනවා	-9.30994
▁පාලක	-9.3106
▁අනතුරින්	-9.31099
▁පල	-9.31177
▁ඊ	-9.31252
▁35	-9.31268
▁විශ්වාස	-9.31314
▁සියලූ	-9.31408
▁විදේශීය	-9.31425
පි	-9.31532
▁සුදුසුකම්	-9.31553
▁පුද්ගල	-9.31605
t	-9.31672
වරු	-9.31682
▁පිටව	-9.31746
▁ආදී	-9.31807
ල්ල	-9.31921
▁හමු	-9.31956
▁බර	-9.31995
▁කැ	-9.32036
g	-9.32086
▁දෙපාර්තමේන්තුවට	-9.32119
▁සේවයට	-9.32202
▁මංගල	-9.32259
▁නම	-9.32423
▁පරාජය	-9.32441
ග්	-9.32444
▁ජනරාල්වරයා	-9.3249
▁තව	-9.32525
ෆ්	-9.32543
2	-9.32549
▁කාර්යාංශය	-9.32552
4	-9.32581
▁කෙරුණේ	-9.32745
▁නීතිවිරෝධී	-9.32804
▁යොමුකර	-9.32851
අද	-9.32926
u	-9.33028
▁ගණනාවක්	-9.33211
▁ක්රීඩක	-9.33242
▁කලා	-9.33248
ධ	-9.33255
▁ප්රතිපාදන	-9.33272
a	-9.33432
▁වටිනා	-9.33436
▁තාක්ෂණික	-9.33485
වලදී	-9.33496
▁දිවුරුම්	-9.33515
▁රාජිත	-9.33532
▁වෙළෙඳ	-9.33585
▁ඇ	-9.33637
▁ළමුන්	-9.33744
▁නාගරික	-9.33744
ජා	-9.33876
▁ආශ්රිතව	-9.33897
▁කාල	-9.33933
▁තුළදී	-9.34013
▁උපදේශක	-9.34076
කාර	-9.34136
▁සියල්ල	-9.34148
▁නිරීක්ෂණය	-9.3416
▁බිත්තර	-9.34266
▁හොඳ	-9.34305
▁කිරි	-9.34382
▁පරීක්ෂක	-9.34513
▁රැස්වීම	-9.3457
y	-9.34578
▁නවතා	-9.34588
▁ලිපියක්	-9.34858
▁අවසානයේ	-9.34884
▁වේගය	-9.3496
▁මැදිහත්	-9.34963
▁තමාට	-9.3497
▁මධ්යස්ථානයේ	-9.35083
▁පෙ	-9.35123
▁බාර	-9.35221
▁ජීවත්	-9.35294
▁අහෝසි	-9.35318
▁සාමාජිකයන්	-9.35408
යකින්	-9.35449
▁බී	-9.35562
▁ලිපිය	-9.3558
▁බැඳුම්කර	-9.35656
සන්	-9.35738
▁රථවාහන	-9.35852
▁පද්ධතිය	-9.36045
▁දක්වන	-9.3611
▁අධ්යයන	-9.36163
▁පළාත	-9.36226
▁ප්රහාරයක්	-9.36445
▁තරුණයෙකු	-9.36591
▁උත්සව	-9.36596
▁රැසක	-9.36643
දින	-9.36733
▁ඇතුලත්	-9.36842
▁තිබීම	-9.36853
▁යුධ	-9.36879
▁ලිපි	-9.36899
▁සිද්ධියක්	-9.37006
▁හමුදාවේ	-9.37053
එහිදී	-9.3708
▁ආකාරයට	-9.37162
▁වගේ	-9.37184
ත්ත	-9.37187
▁රුසියාව	-9.37221
▁ආවරණය	-9.37305
▁දෙවැනි	-9.37329
මී	-9.37357
▁මතුව	-9.37425
▁හඳුන්වා	-9.37504
▁බෝම්බ	-9.37505
▁දැක	-9.37595
▁නියෝජිතයන්	-9.37791
▁අතුරුදන්	-9.37829
▁රැදී	-9.37853
▁වාසිය	-9.37976
▁ගිවිසුම	-9.38022
▁තුනක්	-9.38086
▁ප්රතිසංස්කරණ	-9.38105
▁75	-9.38125
▁යළිත්	-9.38128
▁තරුණයා	-9.38256
▁මාසයේදී	-9.38382
▁දියත්	-9.38396
▁විශ්වාසය	-9.38504
▁සාර්ථක	-9.38575
ද්	-9.38668
▁කළු	-9.38704
▁යෙදී	-9.3877
▁ජනාධිපතිවරයාගේ	-9.38825
▁ජගත්	-9.38852
▁දස	-9.3891
දීම	-9.38938
▁ඕන	-9.3899
ඞ්	-9.39005
▁පෙට්රල්	-9.39091
▁අසළ	-9.39133
▁චෝදනාව	-9.39136
▁S	-9.39145
▁විශේෂයෙන්	-9.39252
▁කිරීමත්	-9.39341
▁ජ	-9.39449
▁යතුරු	-9.3945
▁ලෝකයේ	-9.39465
▁අමතමින්	-9.39542
▁තැන	-9.39545
වැව	-9.39602
▁සාකච්ඡාවට	-9.39652
▁ප්රසන්න	-9.39705
වීමේ	-9.39761
▁නිවසක	-9.39834
▁ව්යාපාරික	-9.39857
▁විමර්ශනය	-9.39894
▁කියන්නේ	-9.39962
▁හිමියන්ගේ	-9.39973
▁පුද්ගලයෙක්	-9.40156
▁වැටලීම	-9.4024
▁පළාත්වලත්	-9.40258
▁කු	-9.40333
▁පැවැත්වූ	-9.40446
▁අතරින්	-9.40447
▁දත්ත	-9.4046
▁ර	-9.40495
ණි	-9.40517
▁උත්සවයකට	-9.40557
▁මි	-9.40559
▁නැත	-9.40561
▁තියුණු	-9.40601
▁අතුරු	-9.40782
▁දිස්ත්රික්ක	-9.40851
▁එමගින්	-9.40868
▁යානා	-9.40932
▁කොමසාරිස්වරයා	-9.40971
භ	-9.41014
▁යුරෝපා	-9.41037
▁ලබාදීමේ	-9.41409
▁කිහිපය	-9.41448
▁දැවැන්ත	-9.41569
▁අදියර	-9.41576
▁අනූව	-9.41583
▁අනුමත	-9.41607
වුණා	-9.41624
▁සංචාරයක	-9.41833
▁ගබඩා	-9.41855
▁සහිතව	-9.41944
▁මතු	-9.41969
▁32	-9.41983
▁ව්යාපාරය	-9.41989
▁දැමීම	-9.42173
▁තාක්ෂණය	-9.42182
▁භූ	-9.42194
▁කලාපයේ	-9.42204
▁ත්රස්ත	-9.42243
▁තෝරා	-9.42272
▁විමසීමකදී	-9.42284
▁අධිකරණයේ	-9.42328
කරු	-9.42331
▁අත	-9.4247
ගෙ	-9.42488
▁ලක්ෂ්මන්	-9.42546
▁සමගාමීව	-9.42566
▁බලන	-9.42661
▁නිරෝධායන	-9.42686
▁ලබාගත	-9.42704
▁දිනා	-9.42815
ගහ	-9.4287
▁දිසා	-9.42881
▁සොරකම්	-9.42921
▁සාධාරණ	-9.42926
▁කිහිප	-9.42966
▁ලෙසටයි	-9.43125
▁යවා	-9.43185
▁කෙරෙනවා	-9.43232
▁සොයාගත්	-9.43253
▁කෙසේවෙතත්	-9.43284
▁වැලි	-9.43381
▁විටින්	-9.43487
▁කෙටි	-9.43647
▁මඩකලපුව	-9.43653
▁මෛත්රිපාල	-9.43742
▁දරන	-9.4387
▁නිමල්	-9.43884
▁වටිනාකම	-9.43895
ලේ	-9.44026
▁ඇමතිවරයා	-9.44153
කන්ද	-9.44161
▁තැබීමට	-9.444
▁ගෙන්වා	-9.44618
▁දියණිය	-9.44839
▁පොලීසියේ	-9.44865
▁මෘත	-9.44899
▁ගැටී	-9.44925
▁නිවැරදි	-9.44951
▁දියුණු	-9.44993
▁70	-9.45055
▁පහරදීම	-9.45081
▁උදය	-9.45121
▁පොලිස්පතිවරයා	-9.45126
▁දිග	-9.45148
7	-9.45162
▁වන්දි	-9.45168
▁කින්	-9.45374
▁රුවන්	-9.45438
▁සාපේක්ෂව	-9.45497
▁නිවාඩු	-9.45519
▁එහෙම	-9.45556
දිය	-9.4568
▁අවහිර	-9.45698
8	-9.45843
▁හිඟය	-9.46089
▁දෙයක්	-9.46091
▁මට්ටම	-9.46173
▁රථයකින්	-9.46181
▁මාත්රාව	-9.46184
▁මීටර්	-9.46223
▁පදනම්	-9.46439
▁රැසකට	-9.46565
▁සං	-9.467
▁ජූලි	-9.4677
හොත්	-9.46831
▁අනුගමනය	-9.46877
ීමට	-9.46914
▁රවී	-9.46927
▁කියාසිටියේ	-9.47148
▁කා	-9.47153
▁පැහැර	-9.47176
▁බැංකුවේ	-9.47231
යන්ට	-9.47233
▁45	-9.47281
ඩා	-9.47335
▁ඇතුළත	-9.47398
▁ගෝලීය	-9.47506
ාව	-9.47508
▁සැමියා	-9.4756
▁පිරිසකට	-9.47583
▁විමර්ශනයක්	-9.47683
▁හෙළ	-9.47718
▁තිබුණු	-9.47844
▁අවස්ථාවක	-9.47859
▁තාවකාලික	-9.47967
▁පත්වී	-9.47968
ශ	-9.47968
▁අයට	-9.47992
▁වයස්	-9.48072
▁කරා	-9.48185
▁දෙකකට	-9.48243
▁රණතුංග	-9.48346
▁විශේෂත්වයක්	-9.48399
▁පොලිසියේ	-9.48403
▁දර්ශන	-9.4841
පොල	-9.48439
▁ශික්ෂණ	-9.48455
▁ජයසූරිය	-9.48461
▁ගැටුම්	-9.48507
▁මොහොමඩ්	-9.48626
▁ප්රධානී	-9.48918
▁ඉරිදා	-9.4895
ශ්රී	-9.49002
▁වාර්තාවේ	-9.49005
▁වරට	-9.49009
▁තීන්දු	-9.4901
මන්	-9.49038
▁කලේ	-9.49051
නො	-9.49252
▁ගැටලුව	-9.49274
▁ආදායම	-9.49299
▁හතර	-9.4932
කාරී	-9.49332
▁උත්සහ	-9.49337
▁කිරීමක්	-9.49459
▁බිහි	-9.49485
▁අධිකාරි	-9.49503
▁නාම	-9.49574
▁ආරක්ෂිත	-9.4958
▁ගැටුම	-9.49722
▁වීමේ	-9.49728
▁සංගම්	-9.49729
වැ	-9.4974
▁ලබාදිය	-9.49809
▁තුන්වන	-9.4981
▁යාපා	-9.49866
▁රෝගී	-9.49869
▁මරණය	-9.49983
▁වෙන්න	-9.50032
▁33	-9.50066
▁ගල්කිස්ස	-9.50131
▁අඩි	-9.50204
▁වැඩපිළිවෙළක්	-9.50208
▁දැන	-9.50253
▁අසත්ය	-9.50338
▁අපනයන	-9.50365
▁නීතීඥ	-9.50406
ුම්	-9.50477
▁විමසා	-9.5051
▁2023	-9.50528
්න	-9.50533
▁පානදුර	-9.50562
▁පදනම	-9.50595
▁34	-9.50629
▁ඉක්මවා	-9.50699
▁අට	-9.50791
▁තුරු	-9.50798
▁හමුදාපති	-9.50801
▁ජනාධිපතිතුමා	-9.50868
▁පැමිණිල්ල	-9.50942
▁පු	-9.50974
▁ආනන්ද	-9.51021
i	-9.51071
ළු	-9.51075
▁මෙන්	-9.51077
▁කොට්ඨාශය	-9.51094
න්ගේ	-9.51126
▁එහිදි	-9.51143
විල	-9.51199
▁මග	-9.51253
▁අවලංගු	-9.51292
▁ධර්ම	-9.51451
▁දේ	-9.51464
ලූ	-9.51485
▁කි	-9.51485
▁රියදුරන්	-9.51497
▁ගමනාගමන	-9.51596
▁බැලීමට	-9.51646
▁කොට්ඨාසය	-9.51711
▁සේ	-9.5177
▁දරණ	-9.5186
▁මගීන්	-9.51872
්ර	-9.51933
▁සාමය	-9.51978
▁මාසය	-9.52008
▁එන්නත	-9.52043
▁දිස්ත්රික්කයෙන්	-9.52109
▁වැඩබලන	-9.52199
නායක	-9.52267
වීමෙන්	-9.52328
▁හය	-9.52455
▁ලේඛන	-9.52465
▁වනජීවී	-9.52484
▁පරික්ෂණ	-9.52487
▁ශාන්ත	-9.5266
▁ප්රබල	-9.52722
▁යානය	-9.5286
▁හෙද	-9.52907
▁උතුරේ	-9.5295
▁ඉතිරි	-9.52954
▁ඇත්ත	-9.52965
▁ඉංජිනේරු	-9.52967
▁අභියාචනාධිකරණය	-9.531
බ්	-9.53133
▁ඇඹිලිපිටිය	-9.53178
විට	-9.5318
වෙන්	-9.53202
▁රක්ෂණ	-9.53213
ිකා	-9.5323
▁කඩිනම්	-9.53344
▁ක්රියාත්මකයි	-9.5341
▁ග්රාම	-9.53413
10	-9.53483
▁කො	-9.53491
▁කියනවා	-9.53522
▁ආකාරයෙන්	-9.53742
▁අභ්යන්තර	-9.53766
▁සිදුකිරීම	-9.53875
▁සන්ධාන	-9.53894
▁සි	-9.53916
9	-9.53991
ජී	-9.54043
▁ගැනීමෙන්	-9.54081
▁සේවාව	-9.54097
▁විධිමත්	-9.54106
▁බැසිල්	-9.54214
▁අයිතිය	-9.5424
d	-9.54457
▁සියදිවි	-9.54502
▁තරඟය	-9.54635
▁කරුණානායක	-9.54679
▁ප්රජාතන්ත්රවාදී	-9.54765
▁එකඟ	-9.54793
▁දෙනෙක්	-9.54816
▁දෙරට	-9.54939
ෑ	-9.54947
පත්	-9.54964
▁රණවක	-9.5497
▁ඉන්න	-9.55005
▁දඩ	-9.55078
▁දිගින්	-9.5508
ච	-9.55096
▁දැනටමත්	-9.55116
▁යහපත්	-9.55188
අදාළ	-9.55203
වල්	-9.55363
▁අමාත්යංශයේ	-9.55381
▁ක්රීඩකයින්	-9.55506
▁පොරොන්දු	-9.55549
▁අයහපත්	-9.55615
▁විවාදය	-9.55624
▁සමන්	-9.55695
▁සිටීම	-9.55729
▁යනුවෙන්	-9.55856
▁සුදු	-9.55862
▁හැරීමට	-9.55993
▁කිලෝමීටර්	-9.5605
▁ට්විටර්	-9.56147
▁අධි	-9.56195
▁යාමේ	-9.56224
▁දිගටම	-9.56333
▁කමිටුවක්	-9.56367
▁ප්රකාශකයෙකු	-9.56384
▁ව්යවස්ථාව	-9.56432
▁විසඳුමක්	-9.56526
▁මිනිස්	-9.56562
▁මුලතිව්	-9.56582
▁උ	-9.56611
▁අවදානමක්	-9.56639
▁තොටුපළ	-9.56665
▁පිට	-9.56708
▁ඉන්නවා	-9.56722
▁පාලම	-9.56747
▁උල්ලංඝණය	-9.5686
ෂා	-9.56868
ලී	-9.56911
▁බලකායේ	-9.5706
▁ඉදි	-9.57109
▁සෙ	-9.5711
▁කරගත්	-9.57138
▁වසංගතය	-9.57229
▁නායකයා	-9.57238
▁ක්රමවේදය	-9.57266
▁හරි	-9.57306
▁අගමැතිවරයා	-9.57432
▁තරම්	-9.5744
▁කෝප්	-9.57446
▁2016	-9.57453
▁පි	-9.57492
▁සතිය	-9.57563
▁නැමැති	-9.57699
▁නා	-9.57705
▁සුපිරි	-9.57822
බා	-9.57828
▁ශරීර	-9.57851
වරිය	-9.57868
▁මැණික්	-9.57898
▁වුවත්	-9.57908
▁ත්රස්තවාදය	-9.57944
▁තර්ජනය	-9.58001
▁ගරු	-9.58006
▁වැටලීමකදී	-9.58012
▁පලා	-9.5803
▁සැලකිල්ලට	-9.58054
▁තත්ත්වයන්	-9.58135
▁යුද්ධය	-9.58175
▁කලාපය	-9.58202
▁ගොඩනැගිලි	-9.58245
▁අඩංගු	-9.58287
යකු	-9.5834
▁පළමුව	-9.58357
▁යනවා	-9.58375
▁වනවිටත්	-9.58403
රත්න	-9.58424
▁හැරීම	-9.5851
▁සා	-9.58569
▁තිස්සේ	-9.58616
▁පැවසුවා	-9.58617
මත්	-9.58685
▁සම්පූර්ණයෙන්ම	-9.58763
▁කරගැනීමට	-9.58785
▁සිහිපත්	-9.58791
▁ලබන්නේ	-9.5887
ඟ	-9.58924
▁පුවත්	-9.58924
▁දැක්වීම	-9.59098
හු	-9.59126
▁2019	-9.59189
▁ප්රකාශකවරයා	-9.59216
▁කොළඹදී	-9.5922
▁2021	-9.59236
▁වැඩසටහනක්	-9.59252
යේදී	-9.59286
▁සමරවීර	-9.59336
▁සංස්කෘතික	-9.59337
▁රැගත්	-9.59342
▁යුත්තේ	-9.59348
▁කොටසක්	-9.59398
කෙසේ	-9.59416
▁නිලධාරියා	-9.59419
▁පරිමාණ	-9.59481
▁කලාප	-9.5959
▁දුර	-9.5964
▁ආණ්ඩුවක්	-9.59669
▁මැ	-9.59815
15	-9.60043
▁48	-9.60047
▁එබැවින්	-9.6008
▁බඳවා	-9.60084
▁C	-9.60305
කෝ	-9.60388
▁පහරදුන්	-9.60522
▁පක්ෂයට	-9.60543
▁දෙ	-9.60575
රිය	-9.60627
▁නීතිපති	-9.6071
▁සිදුකෙරෙන	-9.60751
▁නැවතත්	-9.60786
▁මගී	-9.60994
▁මැති	-9.61022
වර්	-9.61148
▁ලබාදෙමින්	-9.61166
▁වියේ	-9.61171
▁ඔය	-9.61207
▁ඥාතීන්	-9.61309
▁අභියෝග	-9.61338
▁අකුණු	-9.61375
▁බොරැල්ල	-9.61434
▁අනිද්දා	-9.61437
▁42	-9.6146
ීම	-9.61538
▁අත්හිටුවන	-9.61609
▁තියෙන්නේ	-9.61662
මට	-9.61672
▁පැමිණියා	-9.61696
▁විරෝධතාකරුවන්	-9.61908
▁දිගු	-9.62006
▁කරන්නට	-9.6208
▁බැහැ	-9.62105
▁සිදුවිය	-9.62105
කරණය	-9.62121
▁අර	-9.6229
▁ඒමට	-9.6232
▁අබේවර්ධන	-9.62378
▁මරණයට	-9.62387
▁යන්ත්ර	-9.62391
▁37	-9.62393
▁අනු	-9.62435
▁විනය	-9.62455
▁කිරීමටයි	-9.62535
▁පෙන්නුම්	-9.62569
▁දඬුවම්	-9.62704
▁ගත්තේ	-9.62822
බල	-9.62851
f	-9.62954
▁යාත්රාව	-9.62958
▁කටයුතුවල	-9.62997
▁මහත්වරුන්	-9.63078
▁වාර්ෂික	-9.63082
ලිය	-9.63094
▁සිද්ධියෙන්	-9.63219
▁කපා	-9.63243
ගන්න	-9.63261
▁පෙත්සම්	-9.63293
▁ප්රජාව	-9.63297
රණ	-9.6334
▁පටන්	-9.63371
▁දරුවන්ට	-9.63467
▁තිබිණි	-9.63546
▁කී	-9.63562
▁36	-9.63825
▁බලපෑමක්	-9.63883
▁ආයතනවල	-9.63901
▁ගිණුම්	-9.63997
▁සටන්	-9.64255
6	-9.64294
▁විස්ස	-9.643
ෂි	-9.64302
වෙල	-9.6435
▁සිටීමට	-9.6435
▁වීමත්	-9.64377
ො	-9.64395
තර	-9.64444
▁සියළු	-9.64471
50	-9.64484
▁එක්වූ	-9.64681
ගා	-9.64696
▁රතු	-9.6475
▁අයුරු	-9.64819
▁වුවහොත්	-9.64824
▁රැස්වීමට	-9.64863
▁බලතල	-9.64885
5ක්	-9.64952
▁කරගැනීම	-9.6503
▁ජීව	-9.6515
▁වරක්	-9.65228
▁80	-9.65291
▁ජයරත්න	-9.65309
▁බාල	-9.65328
▁පැවැත්වෙනවා	-9.65444
▁විරුද්ධව	-9.65461
▁සේවාවන්	-9.65481
▁අවශ්යතා	-9.65522
▁කසළ	-9.6558
▁ළඟා	-9.65583
▁රාජකාරි	-9.65601
▁එයට	-9.6561
▁ගෙවීමට	-9.65623
වෙලා	-9.65686
▁අයෙක්	-9.65725
▁විශ්රාමික	-9.65811
▁3ක්	-9.65827
▁ටික	-9.65862
▁ආරාධනා	-9.65906
▁මු	-9.65963
S	-9.65975
▁කථානායක	-9.65987
▁කාර්මික	-9.66037
▁මිලට	-9.66049
එමෙන්ම	-9.66135
▁එකඟතාව	-9.66301
ුවා	-9.66302
▁ස්ථාවර	-9.66342
▁යථා	-9.66364
▁එළවළු	-9.66364
▁බැහැර	-9.66378
▁A	-9.66379
▁මූලස්ථානය	-9.66478
දැයි	-9.66598
▁වාණිජ	-9.66759
▁වලදී	-9.66765
▁ඝාතන	-9.66811
▁තේරීම්	-9.66821
▁දෙනු	-9.66829
▁ව්යාප්ත	-9.66847
ෘ	-9.66915
▁හමුවේදී	-9.6692
▁වැඩපිළිවෙල	-9.6696
▁නොවූ	-9.67057
ඔහු	-9.67107
▁වට	-9.67124
ප්ර	-9.67142
▁දිස්ත්රික්කවලත්	-9.67174
ෙයි	-9.67255
▁ජුනි	-9.67288
▁නාමල්	-9.67348
▁ඒකක	-9.67359
රේ	-9.67366
▁දරුවෙකු	-9.67423
▁ඉන්දියානු	-9.67463
▁වසන්ත	-9.67463
▁පරිගණක	-9.67552
▁ච	-9.67594
▁ඇයට	-9.67635
මුල්ල	-9.67653
▁බැලූ	-9.67703
▁දායක	-9.67828
▁විරෝධතාව	-9.67834
▁උදෙසා	-9.67885
▁වසමේ	-9.67897
▁තබාගෙන	-9.67911
▁සිදුවීම්	-9.67949
▁අවශ්යතාව	-9.67976
▁ඉතිහාසයේ	-9.68076
▁දැනුම්දී	-9.68077
කරණ	-9.68086
▁කොටස	-9.68087
▁ගාස්තුව	-9.68142
▁ප්රමාද	-9.6815
▁කාර්යාලයට	-9.68389
▁සේවකයන්	-9.68456
▁පැවසූ	-9.68499
▁ඕ	-9.68521
▁වර්ෂාව	-9.68555
▁නියුක්ති	-9.68614
▁ජයසේකර	-9.68626
▁හිමිකරු	-9.68653
▁නැරඹීමට	-9.68677
▁කර්මාන්තය	-9.68713
පෙ	-9.68767
▁එච්	-9.68943
▁මධ්ය	-9.69013
▁කරුණාරත්න	-9.69026
▁දෙනෙකුගෙන්	-9.69027
තාව	-9.69051
30ට	-9.69081
▁දෛනික	-9.69156
▁තුන	-9.69161
▁කඳවුරේ	-9.69269
වෙමින්	-9.69429
▁පේරාදෙණිය	-9.69448
▁ඇගේ	-9.69538
▁2017	-9.69564
එන්	-9.69669
▁සිසුවා	-9.69679
▁කන්ද	-9.69689
▁අරමුදලේ	-9.69704
▁ත	-9.69747
▁මස්	-9.69758
▁ජාවාරම	-9.69775
ණු	-9.69829
▁ද්රවිඩ	-9.69949
▁තිදෙනා	-9.69973
▁පැමිණීම	-9.7005
▁ඓතිහාසික	-9.70107
▁නිරීක්ෂණ	-9.70115
▁සම්පාදන	-9.70129
නවා	-9.70181
▁ඩුබායි	-9.70187
▁ප්රතිලාභ	-9.70299
▁ප්රතිපත්තිය	-9.70315
▁අවස්ථාවක්	-9.70434
▁ප්රදානය	-9.70448
▁තමිල්නාඩු	-9.70475
▁විකල්ප	-9.70511
▁නිශාන්ත	-9.70521
▁එදින	-9.70526
▁38	-9.7054
▁අධිකරණයෙන්	-9.70585
▁සිරුරු	-9.70618
▁එක්ක	-9.7066
▁දේපළ	-9.70722
▁කොට්ඨාස	-9.70742
▁ක්ෂේත්ර	-9.70746
▁ලොකු	-9.70769
▁ලාංකිකයින්	-9.70774
▁හුවමාරු	-9.70816
▁වැටලීම්	-9.70871
▁වැව	-9.70949
▁විවාහ	-9.71065
▁P	-9.71069
▁හිමිකර	-9.71137
▁සිදුකරනු	-9.7126
▁ප්රජාතන්ත්රවාදය	-9.71272
▁දකුණ	-9.71273
▁ඇල	-9.71278
▁තනතුරු	-9.71298
▁බද්ද	-9.71371
▁හන්දිය	-9.71393
▁තිස්ස	-9.71403
ගි	-9.7144
කරුවෙකු	-9.71482
▁සාමාජික	-9.71534
▁අපගේ	-9.71623
▁ප්රශ්නය	-9.71648
▁නොකිරීම	-9.71872
භාවය	-9.71918
▁සම්මේලනය	-9.7204
▁අතුරුදන්ව	-9.72075
▁චම්පික	-9.72113
▁භාවිතය	-9.72126
▁කිරීමටත්	-9.7213
▁ගුණසේකර	-9.72172
▁දුරටත්	-9.72349
න්ද	-9.72453
▁මේජර්	-9.72464
ගොස්	-9.72531
▁අඩංගුවට	-9.72607
▁සුබ	-9.72615
▁හෝමාගම	-9.72659
ෙත්	-9.7286
▁මුහුදේ	-9.72868
▁නිවෙස්	-9.72944
n	-9.72964
▁දායකත්වය	-9.72984
▁දේශ	-9.73009
▁දරු	-9.73056
▁පූර්ව	-9.73085
I	-9.73133
▁නමින්	-9.7324
▁යුතුය	-9.73253
▁දීමේ	-9.7326
▁පහ	-9.73261
▁බිය	-9.73266
▁සමාජය	-9.73348
▁විනිමය	-9.7336
▁දිස්ත්රික්කවල	-9.73379
▁වෛරස්	-9.73513
▁මෙට්රික්	-9.73551
▁ගමගේ	-9.73553
▁වීසා	-9.7359
▁අධිපති	-9.73634
▁ප්රහාරයට	-9.7379
▁ලෙසද	-9.7379
c	-9.73806
▁අපේක්ෂක	-9.73836
▁උල්ලංඝනය	-9.73853
▁කතරගම	-9.73853
▁වීඩියෝ	-9.73935
▁සිසුන්ට	-9.73965
▁යට	-9.74054
▁ස්ථානවල	-9.74104
නිය	-9.74117
▁ලබයි	-9.74123
▁බලකා	-9.74124
▁ක්ෂේත්රය	-9.74264
p	-9.74265
▁ප්රවර්ධන	-9.74349
▁බන්ධනාගාරයේ	-9.74403
▁තංගල්ල	-9.74438
▁තිබුණ	-9.7444
▁ජනමාධ්ය	-9.74497
▁ඉන්දියාවට	-9.74506
ංග	-9.74518
▁ගිවිසුම්	-9.74564
▁පදිංචිකරුවෙක්	-9.74571
▁පවසන	-9.74661
කිරීම	-9.7474
▁ඇමෙරිකා	-9.74749
▁මැතිවරණයට	-9.74752
▁මොණරාගල	-9.74777
▁සිකුරාදා	-9.74848
▁කේරළ	-9.7485
▁නිලධාරි	-9.74881
▁කොමිසමට	-9.74924
▁පෙත්සමක්	-9.74964
▁ඩබ්ලිව්	-9.75047
▁මුර	-9.7512
සර	-9.75161
▁එන්	-9.75224
දියි	-9.75242
▁යෝජිත	-9.75349
▁රාජකාරී	-9.75354
▁පෙරහැර	-9.75387
▁ලිංගික	-9.75493
▁සිද්ධීන්	-9.75494
▁පාසලේ	-9.75549
ාත්මක	-9.7555
▁මේක	-9.7557
▁කටයුතුවලට	-9.75576
▁පානය	-9.75585
▁56	-9.7564
▁සමුළුවට	-9.75642
▁උණ්ඩ	-9.75642
▁මඩුල්ල	-9.75711
මෙන්	-9.7573
C	-9.75865
▁මී	-9.76029
▁දේව	-9.7604
▁මොරටුව	-9.76287
m	-9.76335
රෙ	-9.76455
▁උද්ඝෝෂණ	-9.76499
▁ජීවිතය	-9.7655
▁ඉල්ලමින්	-9.76804
▁අත්හිටුවීමට	-9.76893
▁අතින්	-9.76999
තුමා	-9.77068
▁ආරවුලක්	-9.77076
▁ධුරයෙන්	-9.77117
▁මට්ටමේ	-9.77123
සිය	-9.77194
▁ආගමන	-9.77238
▁එකේ	-9.77281
▁රේගුව	-9.7735
බෝ	-9.77434
▁පෙන්වාදුන්නේය	-9.77452
▁කාලසීමාව	-9.77477
▁ව්යාප්තිය	-9.77524
▁ස්ථානවලට	-9.77626
▁ස්ථානාධිපතිවරයා	-9.77688
▁ජේ	-9.77817
▁ඇතුලූ	-9.77819
12	-9.77874
ෙක්	-9.77913
▁ආණ්ඩුකාර	-9.77919
කරමින්	-9.77922
19	-9.77923
▁කිසිම	-9.7795
▁ජනාධිපතිවරයාට	-9.78087
▁කුමන	-9.78099
▁ක්රම	-9.78115
▁විරුද්ධ	-9.78181
▁ගණන	-9.78263
ඔය	-9.78306
▁යෝජනාවක්	-9.78336
ොත්	-9.78399
▁නානායක්කාර	-9.78483
P	-9.78574
▁සිටී	-9.78575
▁මහවැලි	-9.78588
▁පාලිත	-9.78633
▁පත්වුණා	-9.78672
▁ත්රීරෝද	-9.7878
▁කැප	-9.78785
▁වර්ෂයේ	-9.78833
▁වහා	-9.78857
▁බිම්	-9.78907
▁කරුණක්	-9.78933
▁ආයුධ	-9.78982
▁කථානායකවරයා	-9.79002
▁2012	-9.79046
▁සංචාරකයින්	-9.7905
▁සුව	-9.79069
▁අත්යාවශ්ය	-9.79078
▁ගාලු	-9.79097
▁නැ	-9.7911
▁ධුර	-9.79179
▁වරායේ	-9.79223
▁සමාගමට	-9.79226
▁සැපයීම	-9.79242
▁පත්වන	-9.79253
ගනු	-9.79259
▁දියේ	-9.79264
▁යොමුව	-9.79345
▁බැරි	-9.79354
▁එයින්	-9.79369
එ	-9.79379
▁4ක්	-9.79442
▁කිරිමේ	-9.79443
▁සන්නිවේදන	-9.79529
▁ප්රගතිය	-9.7958
▁ප්රහාරයෙන්	-9.79595
▁නොකර	-9.79727
▁පුවත්පත	-9.79762
▁ලැබුණා	-9.7982
▁කැඳවූ	-9.79827
▁නිෂ්පාදිත	-9.79976
▁අවධානයක්	-9.79979
ටම	-9.80008
▁භාරදී	-9.8001
▁ගාමිණී	-9.80126
▁පැත්ත	-9.80132
▁B	-9.80144
D	-9.80184
▁අරලියගහ	-9.80202
▁උණ	-9.80221
▁එදා	-9.80273
▁සඳුදා	-9.80277
▁39	-9.80317
▁කාන්තාවක	-9.80406
▁ගංවතුර	-9.80427
▁වගාව	-9.80495
▁ගම්මන්පිල	-9.80503
▁කාර්යාලයේදී	-9.80598
▁ආයතනයක්	-9.80619
▁නාශක	-9.80635
▁පිටුපස	-9.80688
▁යෑම	-9.80744
▁දමන	-9.8078
▁ප්රති	-9.80783
යන	-9.80851
▁රෝද	-9.80866
▁අංකය	-9.80924
▁සෝදිසි	-9.81033
▁සමාන	-9.8104
▁රජ	-9.81076
▁කෙ	-9.81083
▁සංවිධානාත්මක	-9.81135
▁තිබිය	-9.81142
000ක්	-9.81184
▁සාධක	-9.81208
▁43	-9.8121
▁හේතුවක්	-9.81238
▁තුන්දෙනෙකු	-9.81347
▁ක්රියාමාර්ගය	-9.81403
▁පුහුණුව	-9.81473
▁කියන්න	-9.81503
▁සාකච්ඡාවේදී	-9.81576
▁සවස්	-9.81582
▁වැටුප	-9.81643
▁කිහිපදෙනෙකු	-9.81649
▁වේලාව	-9.81837
▁නාමයෝජනා	-9.81872
▁රාජ්යයේ	-9.81998
▁ශිෂ්යත්ව	-9.82002
▁සිරුරක්	-9.82003
▁වාර්තාවී	-9.82123
▁සංකීර්ණය	-9.82172
▁55	-9.8231
▁පුද්ගලයෙකුට	-9.82318
▁අමාත්යංශ	-9.82331
▁වෛද්යවරයා	-9.82371
▁බලවේගය	-9.82398
▁සහගත	-9.82405
▁රාත්රි	-9.82494
▁නිම	-9.82497
▁කාර්යාංශයේ	-9.82554
▁විගමන	-9.82564
▁ශරීරය	-9.82639
▁උදා	-9.82891
නෝ	-9.83022
▁ජලයෙන්	-9.83247
▁කිරිපිටි	-9.83263
ණය	-9.83358
▁තියෙන	-9.83397
▁දිස්ත්රික්කය	-9.83464
▁පිරවුම්හල්	-9.83476
▁මහරගම	-9.83663
▁ගොනුකර	-9.83718
▁තනතුර	-9.83807
▁රූ	-9.83829
▁දුරකතන	-9.8383
▁සීනි	-9.83843
▁රස	-9.83849
▁බලාගාරය	-9.84028
▁කාසියේ	-9.84044
ගමුව	-9.84046
▁ඉහත	-9.84134
▁රටක	-9.84146
▁වකුගඩු	-9.84197
▁රහස්	-9.84266
▁කැඳවුම්කරු	-9.84276
ජේ	-9.84321
පති	-9.84325
▁යූ	-9.84325
▁යතුරුපැදි	-9.84341
▁ළමයින්	-9.84361
r	-9.84416
▁නිවසක්	-9.84469
▁එංගලන්ත	-9.84531
▁සංස්ථාවේ	-9.84571
▁තොර	-9.84582
▁විනාඩි	-9.84592
සේ	-9.84605
කො	-9.84632
▁පදිංචිකරුවෙකු	-9.84641
දුර	-9.84649
▁මිනුවන්ගොඩ	-9.84669
▁හොරණ	-9.84687
▁එතුමා	-9.84711
▁උළෙල	-9.84726
▁හැකිය	-9.84758
▁විමසීමක්	-9.84831
රන්	-9.84849
11	-9.84873
▁වර	-9.84901
ක්ෂ	-9.84988
▁තහනම	-9.85114
▁ප්රධානීන්	-9.85135
▁අර්ධ	-9.85144
▁බලපෑම	-9.85186
▁ගුරුවරුන්	-9.85201
▁පුද්ගලයින්ට	-9.85235
k	-9.85299
▁සාකච්ඡාවකදී	-9.85331
▁ත්රිපුද්ගල	-9.85381
▁කහ	-9.85409
▁ජාවාරම්	-9.85411
▁පරාජයට	-9.85436
▁විශ්වවිද්යාලය	-9.85489
ෙල්	-9.85522
ඩු	-9.85523
▁අධ්යක්ෂවරයා	-9.85617
▁රැක	-9.85617
▁කාරියවසම්	-9.85618
▁සේනා	-9.8562
තුරු	-9.85644
▁යයි	-9.85747
්ය	-9.85767
▁රැඳවියන්	-9.85778
▁පැරණි	-9.8586
▁බලපා	-9.85978
▁ගෙවීම	-9.85989
▁නායකවරයා	-9.86001
▁යෝජනාවට	-9.86174
▁ඇතිව	-9.86193
▁ගුවන්තොටුපල	-9.86257
▁නෞකා	-9.86301
▁කොන්දේසි	-9.86341
▁කැඳවීමට	-9.86352
බව	-9.86353
▁අවදානම	-9.86375
▁දුමින්ද	-9.86417
▁මොහොතේ	-9.86436
ටා	-9.86469
එච්	-9.8658
▁උත්සවයට	-9.86585
▁දෙහිවල	-9.86594
ලෝ	-9.86647
▁ප්රචාරක	-9.8667
▁200	-9.86681
▁තත්වයක්	-9.8669
▁දරුවන්ගේ	-9.86691
▁නොවේ	-9.86713
න්ත	-9.86745
▁කෝ	-9.86768
ජන	-9.86779
ටයි	-9.86793
▁මල්	-9.86855
රුව	-9.86858
▁පාර්ශව	-9.86884
▁කිය	-9.86915
▁කඩුවෙල	-9.87063
▁සපයන	-9.87107
▁ජාතිකයින්	-9.87134
▁මුලික	-9.87154
▁වැළැක්වීමේ	-9.87168
▁ආරක්ෂණ	-9.8717
▁කිව්වා	-9.87184
▁රසායනික	-9.87228
▁කිලිනොච්චිය	-9.87271
ෙකු	-9.87328
▁හිඟයක්	-9.87374
▁සෞදි	-9.87383
▁එකට	-9.87422
▁කටයුත්තක්	-9.87604
▁නවසීලන්ත	-9.87628
▁විරෝධතාවයේ	-9.87686
▁සංරක්ෂණ	-9.87694
▁ජයසුන්දර	-9.87712
▁බිම	-9.87765
මෝ	-9.87793
▁පාද	-9.878
▁සමත්ව	-9.87809
▁යාමෙන්	-9.87899
▁කීවේය	-9.87904
▁පත්රය	-9.87931
▁උතුරුමැද	-9.87959
▁ජපාන	-9.87995
කල	-9.88002
▁අරමුණු	-9.88028
▁හමුදාවට	-9.88118
▁සිසු	-9.88196
ගු	-9.88225
▁තවද	-9.8823
▁65	-9.88321
▁තරුණයින්	-9.88324
▁දශම	-9.88361
▁සමහර	-9.88459
▁වුව	-9.88521
▁සැබෑ	-9.88524
▁පවත්නා	-9.88605
▁2014	-9.88628
▁පත්වීම්	-9.88649
▁ගැටලුවක්	-9.88657
▁5ක්	-9.88721
පො	-9.88826
▁හමුවූ	-9.8891
▁පූජා	-9.88959
▁කළමනාකරණය	-9.88984
▁විනිසුරුවරයා	-9.89006
▁ගුණරත්න	-9.89051
▁වගකිව	-9.89095
▁නිමිත්තෙන්	-9.89098
▁සුනිල්	-9.89098
▁ආයුධය	-9.89153
▁2011	-9.89224
▁වාරිමාර්ග	-9.89263
▁වත්තල	-9.89264
▁අල්	-9.89336
▁මෙහිදි	-9.89348
වනු	-9.89407
ියා	-9.89446
▁සතුන්	-9.89507
▁මිලිමීටර්	-9.89516
▁වෙනසක්	-9.89612
▁පුද්ගලයාගේ	-9.89704
▁41	-9.89735
▁ආපසු	-9.89759
▁පුද්ගලයකු	-9.89771
▁සිරිපාල	-9.89776
▁විමර්ශණ	-9.89852
▁සැළසුම්	-9.89857
▁රජයෙන්	-9.89905
▁පිටි	-9.8992
▁ලංගම	-9.89925
▁පැහැරගෙන	-9.90063
▁විජේසේකර	-9.90091
▁අමතර	-9.90202
▁පාරේ	-9.9027
දෙන	-9.90281
▁තෙන්නකෝන්	-9.90341
▁වාර්තාකරුවන්	-9.90368
ක්ද	-9.90392
▁පෑලියගොඩ	-9.90424
▁මර්දනය	-9.90441
▁රංගන	-9.90453
▁වවුනියාව	-9.9057
▁අවධානයෙන්	-9.90623
▁වර්තමානයේ	-9.90687
▁ලැබ	-9.90777
▁පොලී	-9.90795
▁රැස්වීමේදී	-9.90795
චි	-9.90843
▁අග	-9.90847
▁ත්රී	-9.90868
▁පන්ති	-9.90895
▁අවදානම්	-9.90903
▁10ක්	-9.90929
▁කැඳවන	-9.90943
▁ශී්ර	-9.9101
▁ගැ	-9.91014
▁ප්රශ්නයක්	-9.91057
▁ප්රභේදය	-9.91068
ඉ	-9.91076
▁සලසා	-9.91094
භාර	-9.91124
ප්ප	-9.91129
▁යන්නේ	-9.91142
ුනු	-9.91202
▁මානසික	-9.91243
ගස්	-9.91259
▁දැනුම	-9.91263
ඇ	-9.91281
▁විහාරස්ථානයේ	-9.91298
▁සැකපිට	-9.9144
▁බේරා	-9.91532
▁හැම	-9.91538
▁නැමති	-9.91599
▁දුම්වැටි	-9.91599
▁ඔබට	-9.91644
E	-9.91647
▁අවියක්	-9.91723
▁සාකච්ඡාවකට	-9.91745
▁මෙන්ඩිස්	-9.91768
පැ	-9.91768
ශි	-9.91782
▁ඇළ	-9.91821
▁ගෙවා	-9.91894
▁හානියක්	-9.91896
▁භාරයේ	-9.91908
▁අපනයනය	-9.91935
▁ලිට්රෝ	-9.91937
▁කෑ	-9.91951
▁ලෙසින්	-9.92014
▁ඉදිකර	-9.92046
▁150	-9.92067
▁විශාලතම	-9.92107
▁සේනානායක	-9.92109
ුව	-9.92135
▁කොරියාව	-9.92151
ෙමින්	-9.92234
▁හෝටල්	-9.92284
▁ලැබීම	-9.92326
▁47	-9.92358
▁නඩත්තු	-9.92447
▁පළා	-9.92494
2ක්	-9.92497
▁ප්රියන්ත	-9.92549
▁නායකයන්	-9.92576
in	-9.92592
▁තත්ත්වයේ	-9.92599
▁සමරසිංහ	-9.92618
▁ප්රවේශ	-9.92632
▁විරෝධතාවක	-9.92664
▁පිය	-9.9267
▁මන්ත්රීවරයෙකු	-9.92691
▁සම්මානය	-9.92868
වීමත්	-9.92898
ලින්	-9.92971
▁ඔප්පු	-9.9305
▁රණසිංහ	-9.93131
▁මැදිරිය	-9.93159
▁පැවැත්	-9.93161
▁රාජපක්ෂගේ	-9.93164
▁සාගර	-9.93171
▁වර්තමාන	-9.9321
▁වැසියන්	-9.93239
▁ලාංකිකයන්	-9.93241
ටර්	-9.93242
▁කේන්ද්ර	-9.93318
▁අධීක්ෂණය	-9.93383
▁2018	-9.93424
▁ඇමතිවරුන්	-9.93427
▁දහස්	-9.93449
▁සුරාබදු	-9.93474
▁ධාවන	-9.93567
▁44	-9.93568
▁තරුණිය	-9.93604
▁ඇතිවන	-9.93632
▁මනාප	-9.93698
▁එකමුතුව	-9.93718
▁ගතකර	-9.93797
කී	-9.93813
▁බැතිමතුන්	-9.93818
▁විශේෂයෙන්ම	-9.93835
▁මෙහෙය	-9.93841
▁ගතව	-9.93864
▁රො	-9.93966
▁ක්රියාවට	-9.9404
▁දැරියගේ	-9.94072
▁සංචාරයක්	-9.94103
▁සමගින්	-9.94156
▁සයිටම්	-9.94164
සිංහ	-9.94226
▁මොකද	-9.94252
▁දෙස	-9.94253
▁ජයන්ත	-9.94264
▁කාලීන	-9.94281
▁ශ	-9.94297
▁අල	-9.94319
▁ගණනක්	-9.94458
▁මං	-9.94503
මක්	-9.94532
▁පහරදීමේ	-9.94578
▁අරාබි	-9.94603
▁ප්රවර්ධනය	-9.94606
▁පවතින්නේ	-9.94643
▁සියලූම	-9.94645
▁ජාලය	-9.94671
▁කෘෂි	-9.94691
▁විදුහල්පති	-9.94692
▁මතය	-9.94724
▁සඟවා	-9.94749
▁භූමියේ	-9.94797
▁බන්ධනාගාරගත	-9.94866
▁පහරදීමට	-9.94905
▁දේවල්	-9.94928
▁වැඩපිළිවෙලක්	-9.94942
යු	-9.9498
▁ග්රාමීය	-9.95058
▁ප්රදේශයේම	-9.9508
▁වගකීමක්	-9.95126
▁අස්ගිරි	-9.95148
වයි	-9.95221
තුර	-9.95227
▁නැංවීම	-9.95244
▁පිහිටා	-9.95252
▁කාන්තාවගේ	-9.95278
පසුගිය	-9.95307
▁මූලස්ථානයේ	-9.95322
▁පරීක්ෂකවරුන්	-9.95402
▁කිසිවක්	-9.95404
h	-9.95432
▁ක්රමවේදයක්	-9.95453
▁වළක්වා	-9.95497
▁භාෂා	-9.9555
▁තේරී	-9.95656
තී	-9.95684
▁ගෙල	-9.95698
වෙන	-9.95712
w	-9.95723
▁අභාවප්රාප්ත	-9.95824
▁ස්ථානාධිපති	-9.95876
▁පිළිකා	-9.95899
පාල	-9.95923
වද	-9.95977
▁එල්ලවී	-9.95993
▁හිත	-9.96017
▁දෙපාර්තමේන්තු	-9.96019
▁චන්ද්රිකා	-9.96064
▁කරගත	-9.96085
▁යාපනයේ	-9.96105
T	-9.96192
▁නොවීම	-9.96193
▁සමෘද්ධි	-9.96234
▁බොරතෙල්	-9.96266
▁නොහැකිව	-9.96411
▁අඩවිය	-9.96431
▁සන්තකයේ	-9.96531
▁ගොඩනැගිල්ල	-9.96585
▁ගියේ	-9.966
▁ප්රාන්තයේ	-9.96683
තිය	-9.96718
▁පිපිරීම	-9.96723
▁ඇඳුම්	-9.96726
▁නෞකාවේ	-9.96752
O	-9.9686
▁වැළැක්වීම	-9.96955
▁52	-9.96956
▁දැව	-9.96978
▁පුරාවිද්යා	-9.96995
▁සාම	-9.97045
▁යුක්රේනයේ	-9.97085
25	-9.97153
▁වැලිකඩ	-9.9716
▁නියාමන	-9.97178
▁තෙ	-9.97345
▁හරස්	-9.97469
M	-9.97471
▁G	-9.97571
▁සැකකාරිය	-9.97701
▁කෙරෙනු	-9.97763
00ක්	-9.97833
දෙ	-9.97888
▁කැමැත්ත	-9.97926
▁හින්දු	-9.9796
▁අනිවාර්ය	-9.98014
▁ඇමතුම්	-9.98018
වමින්	-9.98122
▁වෙනම	-9.98195
▁ප්රසිද්ධ	-9.98298
▁අස්	-9.98338
▁ජලාශයේ	-9.98384
ආ	-9.98386
▁භූමි	-9.98395
▁සුදානම්	-9.98412
▁සුසිල්	-9.98414
▁ජයවර්ධනපුර	-9.98437
▁නැංවීමට	-9.98479
▁2ක්	-9.98512
▁පරිත්යාග	-9.98516
▁කැබ්	-9.98526
▁අවසාන	-9.9868
▁ඇමෙරිකානු	-9.98694
▁තබන	-9.9875
▁කොමිසන්	-9.98864
▁අධ්යයනය	-9.98973
▁පිටත්	-9.99026
▁2010	-9.99107
▁පාතාල	-9.99137
▁කුමාර්	-9.99146
▁අවුරුද්ද	-9.99232
▁මෙහෙයුම	-9.99294
▁බලයට	-9.99323
▁හොඳම	-9.99338
ar	-9.99356
▁එනම්	-9.99405
▁ජපානයේ	-9.99487
▁පියවරක්	-9.99553
▁දූෂණය	-9.99557
▁අයදුම්පත්	-9.99572
මහ	-9.99593
▁රිමාන්ඩ්	-9.99595
▁තිස්	-9.99606
▁උඩ	-9.99618
▁රැස්වීමක්	-9.99697
▁වතුර	-9.99717
දුන්	-9.99743
▁ජනපදය	-9.99751
▁නිවේදනයක	-9.99758
▁පාසල්වල	-9.99791
▁වර්ෂය	-9.99828
▁ඔස්ට්රේලියානු	-9.99894
▁දිනකට	-9.99918
▁ලේ	-9.99947
er	-10.0011
▁සියලුදෙනා	-10.0012
▁දක්ෂිණ	-10.0014
▁බංග්ලාදේශ	-10.0016
වන්නේ	-10.0017
ඥ	-10.0022
▁ජනපද	-10.0023
▁හදිසියේ	-10.0025
▁46	-10.0027
▁කප්පාදුව	-10.0028
යාම	-10.0029
▁කිසි	-10.0033
▁සැමරුම්	-10.0041
▁පහතින්	-10.0049
්නට	-10.0051
1ක්	-10.006
▁සැලකිය	-10.0062
▁පො	-10.0072
▁ඉවතට	-10.0073
▁පිරිසට	-10.0076
▁මට්ටමින්	-10.0087
▁වළ	-10.0092
▁අලුතින්	-10.0098
මාන	-10.0098
▁නිමා	-10.0109
▁අප්රිකානු	-10.0109
▁වග	-10.012
▁සාමාජිකයෙකු	-10.0123
▁M	-10.0127
▁අනවසර	-10.013
වරයෙක්	-10.0149
▁දිනයක්	-10.0157
▁නිර්මාණ	-10.0159
▁ඔක්තෝබර්	-10.0163
▁මහබැංකු	-10.0167
▁යෙදෙන	-10.017
▁පත්වීම	-10.0176
▁ඉදිකිරීම	-10.0187
▁බුද්ධ	-10.0189
▁ජීවන	-10.0191
▁වායු	-10.0191
▁කොරියානු	-10.0192
බු	-10.0195
▁සැපයුම්	-10.0197
▁සටන	-10.0199
▁රඹුක්වැල්ල	-10.02
▁අවිස්සාවේල්ල	-10.0209
▁අනතුරක්	-10.0216
▁තල	-10.022
▁කලින්	-10.0221
▁ලක්ෂණ	-10.0222
▁දෙමාපියන්	-10.0224
▁500	-10.0229
▁ක්රීඩාංගණයේ	-10.023
▁2013	-10.0232
▁ඉගෙනුම	-10.0234
▁මො	-10.0235
▁බැස	-10.0236
දෙනෙකු	-10.0243
▁සේවාවක්	-10.0246
▁මැර	-10.025
▁නඩුවේ	-10.0251
▁ගැනීම්	-10.0261
කැ	-10.0264
කරගෙන	-10.0266
▁පාසල	-10.0269
▁ඇතත්	-10.027
l	-10.0274
▁ජෝන්	-10.028
▁නොදෙන	-10.028
▁මැතිතුමා	-10.0283
▁අපහාස	-10.0287
▁විජේරත්න	-10.0295
▁වියදම	-10.03
▁F	-10.0301
A	-10.0307
යන්ගේ	-10.0311
▁අපයෝජනය	-10.0334
කිරීමට	-10.0335
වරයකු	-10.0335
▁ප්රදීප්	-10.0344
▁පස්සේ	-10.0353
▁අත්හිටුවා	-10.0354
▁සම්පූර්ණයෙන්	-10.0354
▁E	-10.0356
▁පමණි	-10.0361
▁පිළිගත්	-10.0369
▁නරේන්ද්ර	-10.037
▁අයිස්	-10.0373
▁නුගේගොඩ	-10.0379
▁අරගල	-10.0383
▁ආනයන	-10.0385
▁ප්රේම	-10.0387
▁පාපන්දු	-10.039
ාන	-10.0394
▁මත්ස්ය	-10.0399
▁ගන්නවා	-10.04
▁විවාදයට	-10.0401
▁සත්කාර	-10.0403
B	-10.0405
සේන	-10.0408
▁නෙ	-10.0422
▁අමාත්යවරයාගේ	-10.0425
▁සිටියහ	-10.0425
▁අපේක්ෂකයින්	-10.0429
▁බත්තරමුල්ල	-10.0437
▁වෙසක්	-10.0437
▁නගරයට	-10.044
▁විභාගයේ	-10.044
▁කැණීම්	-10.0441
▁ආකාරයේ	-10.0453
01	-10.0458
▁තොටුපල	-10.0459
▁අත්පත්	-10.0461
▁සාර්ථකව	-10.0464
▁නංවා	-10.0465
▁ගැටළුව	-10.0472
R	-10.0475
ගන්	-10.0475
්නැයි	-10.0481
▁නිළධාරීන්	-10.0482
▁මාවතේ	-10.0485
වාදී	-10.0493
▁එක්වන	-10.0495
▁කතාව	-10.0495
▁ලංකාවෙන්	-10.05
▁අල්ලා	-10.0505
▁හෙයින්	-10.0506
▁මන්ත්රි	-10.0512
▁දයාසිරි	-10.0515
▁H	-10.0515
▁විජිත	-10.0531
▁අත්තනායක	-10.0533
▁කිසිඳු	-10.0534
▁51	-10.054
▁කාබනික	-10.0543
▁වනජීවි	-10.0543
▁අන	-10.0543
▁නොවෙයි	-10.0547
▁එපා	-10.0548
▁කාලගුණය	-10.0549
45	-10.0552
▁දෙනකු	-10.0558
▁ප්රතිඵලයක්	-10.0558
▁ජිවිතක්ෂය	-10.0562
▁පලාගොස්	-10.0564
▁තරඟයේ	-10.0573
▁ක්රමයක්	-10.0578
▁ඇල්ල	-10.0583
▁දළදා	-10.0584
N	-10.0586
▁ගෘහ	-10.0591
▁විස්තර	-10.0592
▁හටගත්	-10.0597
වේදී	-10.0598
▁පත්කිරීම	-10.0599
▁සර්ව	-10.0604
▁මන්දිරයේ	-10.0607
▁වැඩසටහනට	-10.0609
▁කෙනෙක්	-10.0611
අනතුර	-10.0618
▁සමය	-10.0621
කොළඹ	-10.0625
▁විරෝධතාවක්	-10.0626
▁යතුරුපැදියක්	-10.0626
▁සිසුවෙකු	-10.0632
▁රෝහල්වල	-10.0635
පොළ	-10.0641
▁කිරිඇල්ල	-10.0641
▁ඉතාම	-10.0644
▁මහත්	-10.0649
▁පද්ධතියට	-10.0652
▁අඛණ්ඩ	-10.0658
▁දළ	-10.0659
▁ඉක්මනින්	-10.066
▁ජනප්රිය	-10.066
▁ශාලා	-10.0662
▁චිත්රපට	-10.0671
▁පට	-10.0674
▁ලැබීමට	-10.0674
▁මිලක්	-10.0683
▁අගනුවර	-10.069
▁රාමනායක	-10.069
ජ්	-10.0697
▁බවය	-10.0708
▁රුසියාවේ	-10.0712
▁ස්ථිර	-10.0719
ධි	-10.0725
▁2009	-10.073
▁විජය	-10.0731
▁දරුවාගේ	-10.0733
▁අමෙරිකාව	-10.0735
▁පාකිස්ථාන	-10.0738
▁49	-10.0738
▁බලාගාර	-10.0739
▁කප්පාදු	-10.0741
▁යෑමට	-10.0743
▁නවතම	-10.0744
▁සමාගමක්	-10.0748
▁නීතිඥවරයා	-10.0761
▁පෙරහර	-10.0764
▁කුඩු	-10.0766
▁මට්ටමක	-10.0772
රො	-10.0772
▁ගෙවන	-10.0774
▁හෙළිදරව්	-10.0778
▁කම්කරුවන්	-10.0779
▁සිරි	-10.0787
▁භාරදීමට	-10.0787
▁තොටුපොළ	-10.0788
▁ලලිත්	-10.0788
▁දෙනෙකුගේ	-10.0789
▁මාර්ගෝපදේශ	-10.0793
▁කන්නයේ	-10.0795
ාගාර	-10.0799
▁හිස	-10.08
▁කොට්ඨාශ	-10.0801
▁පවත්වනු	-10.0803
▁මසුන්	-10.0807
▁ජපානය	-10.0807
▁මරදාන	-10.0808
▁මල්වතු	-10.0808
▁රුසියා	-10.0813
▁තත්ත්වයෙන්	-10.0817
▁ගෙදර	-10.0817
▁ධූරය	-10.0818
▁ක්රියාකාරකම්	-10.0828
▁කංචන	-10.0828
al	-10.083
ැති	-10.0833
▁90	-10.0837
▁විසුරුවා	-10.0838
▁ධම්මික	-10.0844
▁පුවතක්	-10.0846
▁බලපත්රය	-10.0847
▁ඇමරිකාව	-10.0848
▁බණ්ඩාරවෙල	-10.085
තාවය	-10.0852
▁පිරිසිදු	-10.0859
v	-10.0861
▁සොරා	-10.0874
▁දිනට	-10.0876
▁සමත්විය	-10.0878
▁ධුරයට	-10.0878
05	-10.0878
▁තමාගේ	-10.0879
ශ්	-10.0881
18	-10.0886
▁විදියට	-10.0887
▁කැමරා	-10.089
▁දුෂ්කරතා	-10.0897
▁ප්රථමයෙන්	-10.0898
▁රටවලට	-10.0899
▁පරිශ්රයේ	-10.0899
40	-10.0902
හේන	-10.0902
▁හිමිපාණන්	-10.0908
▁සපයා	-10.0908
▁පාඨලී	-10.0908
▁ප්රශ්නවලට	-10.0917
▁පරි	-10.0918
▁ත්රිවිධ	-10.0918
▁රොෂාන්	-10.0919
▁මුද්රණය	-10.0927
▁සම්මුඛ	-10.0928
▁භූමිය	-10.0929
▁විපතට	-10.0938
▁රාගම	-10.0943
▁කරාපිටිය	-10.0951
▁දඬුවම	-10.0957
▁මුල්ය	-10.096
▁බො	-10.0965
▁රැ	-10.0968
▁සොයිසා	-10.0969
▁උත්තර	-10.0969
▁පිරි	-10.0971
ුන්	-10.0973
▁ප්රාන්ත	-10.0979
▁ප්රචාරය	-10.0979
▁තරමක	-10.0982
පේ	-10.0984
▁නැගී	-10.1
▁ඕස්ට්රේලියානු	-10.1003
▁අවස්ථාවේදීයි	-10.1011
▁වැටීම	-10.1013
▁ශාලාවේ	-10.1014
▁ඉතාමත්	-10.1018
▁යවන	-10.102
▁අඩවි	-10.1024
▁හරින	-10.1027
U	-10.103
තොට	-10.104
▁ඇඳිරි	-10.104
▁කණුව	-10.1042
▁කසල	-10.1044
▁තේමාව	-10.1047
සල	-10.1051
න්හි	-10.1051
▁සිව්දෙනෙකු	-10.1051
▁අලූත්	-10.1056
▁ලැබෙනවා	-10.1057
▁දේශපාලනඥයින්	-10.106
▁වෙළඳසැල්	-10.1063
▁සොලිසිටර්	-10.107
▁බාහිර	-10.1071
ing	-10.1072
▁මඩ	-10.1073
re	-10.1076
▁කුඹුරු	-10.1081
▁කරපු	-10.1082
▁රෝහල්ගත	-10.1084
on	-10.1088
▁6ක්	-10.109
23	-10.1091
▁රජමහා	-10.1091
▁වංචාව	-10.11
▁පිණිස	-10.1101
▁රහිත	-10.1106
දීමට	-10.1107
▁කාලයක	-10.1108
පන	-10.1108
කන්	-10.1111
▁කැඳවීම	-10.1114
▁කොදෙව්	-10.1119
▁ලබාගන්නා	-10.112
▁පවතී	-10.1122
▁පිවිසි	-10.1126
▁වාර්තාවන්නේ	-10.1137
▁අදත්	-10.1139
▁සපුරා	-10.1143
▁නෙවෙයි	-10.1153
▁තෙවන	-10.1153
▁අතට	-10.1155
▁කරන්නැයි	-10.1159
▁උපුල්	-10.1163
▁ජෝ	-10.1169
වාදය	-10.1187
▁ගත්ත	-10.1188
▁300	-10.1192
▁අලහප්පෙරුම	-10.1194
බේ	-10.1204
▁ගැනුණා	-10.1208
ඛ	-10.121
▁ගොදුරු	-10.1215
▁දෙදින	-10.1216
▁වැට්	-10.1217
▁වරද	-10.1218
▁රා	-10.1221
▁පොළ	-10.1223
▁බවටත්	-10.1234
▁ලංකන්	-10.1235
▁යොමුකළ	-10.1248
ත්ර	-10.1257
▁සජීවීව	-10.126
▁ක්රියාකාරී	-10.126
▁ශාලාව	-10.1263
▁තරුණයන්	-10.1265
▁ලැබේ	-10.1268
ගැනීම	-10.1271
an	-10.1275
▁රෝහල්ගතව	-10.1279
▁කුලී	-10.1281
▁මධ්යයේ	-10.1284
3ක්	-10.1294
▁තැනින්	-10.1297
▁සංඝ	-10.1297
▁පාර්ශවයේ	-10.1299
▁සමාව	-10.1302
▁එවන්	-10.1305
▁වියළි	-10.1305
▁විහාර	-10.1307
▁ජුලි	-10.1309
▁තදබදයක්	-10.1312
▁මහකොමසාරිස්	-10.1313
අත්අඩංගුවට	-10.1313
▁අනාගතය	-10.1315
▁රියදුරා	-10.1319
▁තැබූ	-10.1319
▁ඒකනායක	-10.1321
ඕ	-10.1323
රය	-10.1324
7ක්	-10.1325
පන්	-10.1328
▁මිලිග්රෑම්	-10.1329
▁සංචාරකයන්	-10.1331
ගිය	-10.1335
▁එවකට	-10.1339
▁පිහිටුවා	-10.1342
▁තීරයේ	-10.1346
▁ඉලක්කය	-10.1352
▁පුත්රයා	-10.1361
▁හඬ	-10.1361
▁සිදුකරමින්	-10.1362
▁පෙළේ	-10.1362
▁තැබීමේ	-10.1366
▁රාජකීය	-10.1371
▁බලහත්කාරයෙන්	-10.1372
▁වටා	-10.1373
▁ශ්රේෂ්ඨාධිකරණ	-10.1381
▁සමාජවාදී	-10.1386
▁හර්ෂ	-10.1389
▁සංඝරත්නය	-10.1392
▁තර්ජන	-10.1394
පත	-10.1398
▁පරික්ෂා	-10.1398
▁හත්	-10.1401
▁වගකීම්	-10.1402
▁විමසීමට	-10.1408
03	-10.1409
▁රැස්වූ	-10.1409
▁අන්	-10.1411
▁කිසිවෙකුට	-10.1414
▁පිහිටුවීමට	-10.1415
▁පත්කළ	-10.1417
▁හෙළිවී	-10.1421
▁කැලණිය	-10.1429
▁දරා	-10.1432
ඹු	-10.1434
▁I	-10.1436
▁පාර්ශවය	-10.1438
ක්ස්	-10.1438
▁මහතාගෙන්	-10.1439
▁විමර්ශනවලදී	-10.1441
▁අම්බලන්ගොඩ	-10.1445
▁බදියුදීන්	-10.1445
▁සියඹලාපිටිය	-10.1446
▁සැ	-10.1446
▁පැවැසීය	-10.1456
▁මත්කුඩු	-10.1467
▁දුටු	-10.1468
▁ගෞරව	-10.1472
▁වුණි	-10.1473
තේ	-10.1477
▁කෙරේ	-10.1479
▁වූවන්	-10.1481
▁ගුණ	-10.1482
▁එන්න	-10.1485
▁ඇතැයිද	-10.1488
ගොල්ල	-10.1489
වෝ	-10.1497
▁සම්මේලනයේ	-10.1499
▁පෙනෙන	-10.1499
▁ගඟ	-10.1501
▁රාජ	-10.1506
▁අතහැර	-10.152
▁මිස	-10.1531
▁නාවලපිටිය	-10.1542
▁අත්අඩංගුවේ	-10.1544
▁පනතේ	-10.1545
▁පරීක්ෂණවලදී	-10.155
▁ටැංකි	-10.1552
▁අද්මිරාල්	-10.1552
▁කඩුළු	-10.1552
▁අරමුදල්	-10.1553
ම්බ	-10.1558
ුණා	-10.1573
▁ධුරයේ	-10.1574
▁දූත	-10.1576
▁වාරය	-10.1579
13	-10.1579
▁විරහිත	-10.1581
ළි	-10.1583
▁යුක්රේනය	-10.1587
▁පසුබිමක	-10.1588
▁පුර	-10.1589
▁වැදී	-10.1592
▁අවශ්යතාවය	-10.1592
▁ජාතිකයෙකු	-10.1593
▁පැතුම්	-10.1595
ොන්	-10.1595
▁දෙදෙනෙක්	-10.16
න්නේ	-10.1603
▁ප්රජා	-10.1605
▁රන්ජන්	-10.1617
▁වගන්තිය	-10.1625
▁ගන්නේ	-10.1625
▁අසීරු	-10.1627
ඳු	-10.1629
▁උපයා	-10.1631
▁පීඨ	-10.1638
▁හැටියට	-10.1639
▁තැත්	-10.164
▁T	-10.1647
▁ඔක්තෝම්බර්	-10.1649
▁එමඟින්	-10.165
F	-10.1652
▁මැතිවරණයේදී	-10.1657
▁බලවේගයේ	-10.1659
▁අකිල	-10.166
▁තරුණියන්	-10.166
▁යහපාලන	-10.1664
▁නවීන	-10.1671
▁පතිරණ	-10.1671
▁පුරප්පාඩු	-10.1672
▁අළුයම	-10.1673
▁කළාය	-10.1675
▁සහභාගීත්වයෙන්	-10.1677
▁කල්ලි	-10.168
▁ඩලස්	-10.1681
▁සුරක්ෂිත	-10.1683
▁පානී	-10.1685
▁සිහි	-10.1686
පාලන	-10.1686
▁වෙසෙන	-10.1692
▁නැගූ	-10.1694
▁දරුණු	-10.1698
▁විදිහට	-10.1708
▁ආනයනික	-10.1717
▁හමුදාපතිවරයා	-10.1723
▁වෙන්කර	-10.1728
▁ව්යාපාරිකයා	-10.173
▁කතානායක	-10.1737
▁වයසැති	-10.1739
▁පිටතට	-10.1748
▁සිසුවියන්	-10.1751
14	-10.1754
▁වටිනාකමකින්	-10.1757
▁හෙට්ටිආරච්චි	-10.1758
වක	-10.1758
▁කොට්ඨාසයේ	-10.1761
▁දෙසින්	-10.1764
▁සමඟයි	-10.1765
▁වසරකට	-10.1766
▁ගස්	-10.1766
වෙ	-10.1773
▁වාන්	-10.1779
▁හිස්	-10.1779
▁මනෝ	-10.1785
මියගොස	-10.1793
▁නෝට්ටු	-10.18
තුන්	-10.18
▁වරායට	-10.181
▁පුද්ගලයෙකි	-10.1813
▁වැලිගම	-10.1814
▁සුවිශේෂී	-10.1815
▁ජයසිංහ	-10.1815
▁ඔවුන්ගෙන්	-10.1817
▁ස්ථාවරය	-10.1822
▁ව්යාපෘතියක්	-10.1833
▁සිනමා	-10.1835
▁මෙහෙයුමක්	-10.1835
බර	-10.1835
▁දේශපාලනය	-10.1846
ඩෝ	-10.1847
or	-10.1853
▁ප්රාදේශිය	-10.1857
▁වටරවුම	-10.1857
16	-10.1857
▁පැමිණිල්ලකට	-10.1858
▁විද්යුත්	-10.1868
▁අව	-10.187
▁අක්රමිකතා	-10.1884
▁බාධාවක්	-10.1887
▁පුනර්ජනනීය	-10.189
en	-10.1896
▁ඇත්නම්	-10.1902
▁සිදුවන්නේ	-10.1903
▁පණිවුඩයක්	-10.1907
▁වීරසිංහ	-10.1913
▁ගල	-10.1918
▁ගෙවීම්	-10.1923
▁සැර	-10.1929
▁54	-10.1936
▁ගොවීන්ට	-10.1941
▁සමීප	-10.1941
▁පාසලක	-10.1941
ස්ට්	-10.1943
▁ජනාධිපතිවරණය	-10.1944
22	-10.1945
▁විහාරාධිපති	-10.1946
▁දක්වාත්	-10.1955
▁බොරු	-10.1966
▁නැතිව	-10.197
▁ව්යවස්ථාවේ	-10.1979
කුත්	-10.1985
▁ප්රාථමික	-10.199
▁ස්වයං	-10.199
▁වැඩසටහනේ	-10.1991
▁කලාපීය	-10.1993
▁කතානායකවරයා	-10.2003
▁ආදිය	-10.2004
▁තීරණයට	-10.2013
▁ගනුදෙනු	-10.2015
▁දීමනා	-10.2019
▁නිළ	-10.2021
▁තීන්දුවක්	-10.2024
▁ගතවූ	-10.2024
▁ගොවිජන	-10.2024
▁තරඟාවලියේ	-10.2032
▁බැ	-10.2034
▁මුදාහැර	-10.2037
▁රාත්රීයේ	-10.2039
▁කුණු	-10.2039
කල්	-10.2055
▁රණවිරුවන්	-10.2056
▁තුනක	-10.2058
▁ෆයිසර්	-10.2058
▁පනස්	-10.2058
▁අධිපතිවරයා	-10.2061
00ට	-10.2067
▁කොටි	-10.2067
▁නිහාල්	-10.2069
▁සංචරණ	-10.2069
▁සළකා	-10.2069
▁ඉහල	-10.2071
▁අලියා	-10.2071
▁නිරෝධායනයට	-10.2077
▁ස්වාමීන්	-10.208
මිනි	-10.2085
▁දැක්වු	-10.2086
▁උපුටා	-10.2092
▁සංකීර්ණයේ	-10.2092
පය	-10.2092
▁විශිෂ්ට	-10.2094
▁නිරන්තරයෙන්	-10.2095
▁දැක්වීමට	-10.2098
▁තනි	-10.2102
▁එෆ්	-10.2103
▁දීමනාව	-10.2105
▁වැටීමෙන්	-10.2106
▁ගින්නක්	-10.2109
▁ඉන්දික	-10.2116
▁පරීක්ෂාවට	-10.2118
ුවේ	-10.212
▁දහසක්	-10.2123
▁දැක්වෙයි	-10.2126
▁ව්යාපාරයේ	-10.2134
▁රක්ෂිතයේ	-10.2139
▁ඉන්නේ	-10.214
▁සංගීත	-10.2145
▁මාරවිල	-10.2149
▁කිව	-10.215
▁ලේකම්වරුන්	-10.2153
▁අරගෙන	-10.2155
55ට	-10.2158
▁එළඹ	-10.2163
▁ලැබුණ	-10.2167
▁D	-10.2168
▁උපාධි	-10.2169
හැ	-10.2174
▁ගම්	-10.219
▁නාලිකාව	-10.219
▁සම්පාදනය	-10.219
▁ඔබේ	-10.2193
▁ඩි	-10.2206
9ක්	-10.2214
▁හරිත	-10.2219
▁සතොස	-10.2229
▁විෂ	-10.2241
▁උරුමය	-10.2241
ශ්ර	-10.2245
කර්	-10.2245
▁ස්ථානයෙන්	-10.2246
▁ලෝකය	-10.2246
▁එක්වුණා	-10.225
▁සෙනසුරාදා	-10.2251
ස්ස	-10.2256
▁දෙමව්පියන්	-10.2257
ඊයේ	-10.2267
▁සත්ය	-10.2268
දෙණිය	-10.2269
ත්ව	-10.227
▁කැදවා	-10.2275
▁සැමරුම	-10.2276
▁බෑ	-10.2278
▁සටහනක්	-10.2281
▁වරදක්	-10.2282
▁බලයක්	-10.2286
▁යටිතල	-10.2286
▁ස්ථානයක්	-10.2289
▁ඉහළම	-10.2289
▁සරණාගතයින්	-10.2289
තිලක	-10.229
▁සැලැස්ම	-10.2292
▁අමාත්යාංශයට	-10.2295
▁ලීටර්	-10.2306
සාර	-10.2306
▁වැල්ලවාය	-10.2309
▁සම්මන්ත්රණ	-10.231
▁ඕනෑ	-10.2311
▁ඉදිකිරීමට	-10.2313
▁මෙවන්	-10.2315
▁සඳහායි	-10.2316
ද්දී	-10.2319
▁දෙදෙනකු	-10.2321
▁පැවැත්වුණේ	-10.2321
රියා	-10.2323
▁පිහිටුවීම	-10.2323
▁සම්බන්ධීකරණ	-10.2326
ීර්	-10.2339
වීම්	-10.2343
▁වහන්සේලා	-10.2345
▁සිදුවුණා	-10.2356
▁බලපාන	-10.2357
සන	-10.2358
▁අතුරුදහන්	-10.236
▁වුයේ	-10.2362
▁නොමිලේ	-10.2367
▁විරාජ්	-10.2369
පොලිස්	-10.2371
▁අයගේ	-10.2373
සෝ	-10.2373
▁පුතා	-10.2375
▁කළද	-10.2387
▁චෙන්නායි	-10.2387
▁අර්ජුන්	-10.239
▁පැවැත්වෙයි	-10.2391
▁එයා	-10.2393
▁W	-10.2394
▁හැට	-10.2399
▁තක්සේරු	-10.2402
▁පත්රිකා	-10.2407
▁මාර්ගයට	-10.2408
▁ප්රධානියා	-10.241
▁නියුතු	-10.2415
▁ගසා	-10.2424
17	-10.243
▁අරගලය	-10.2431
▁ස්වදේශ	-10.2431
▁ලබාගැනීමේ	-10.2432
21	-10.2433
▁බාරයට	-10.2435
▁ජිනීවා	-10.2443
▁පිල	-10.2444
සිද්ධිය	-10.2444
▁සැලකෙන	-10.2447
▁මඩකළපුව	-10.2448
ාල	-10.2449
ගැනීමට	-10.2451
▁ග	-10.2456
▁රැළිය	-10.2457
▁නිශ්චිත	-10.2459
▁රූපවාහිනී	-10.2461
▁ජි	-10.2464
▁වත්කම්	-10.2464
විල්	-10.2469
04	-10.2476
▁ගැටුමක්	-10.2482
▁අගවිනිසුරු	-10.2483
තන	-10.2489
ැල්ල	-10.2491
▁වාර්ෂිකව	-10.2494
▁මඟ	-10.2497
▁නෞකාවක්	-10.2497
▁යැවීමට	-10.2498
b	-10.25
▁ඔහුව	-10.2503
ගය	-10.2504
▁ජාතිය	-10.2506
▁ටිපර්	-10.2508
ජු	-10.251
27	-10.251
▁උපත	-10.2513
▁අපද්රව්ය	-10.2521
▁පැළ	-10.2522
▁මේවා	-10.2522
වනවා	-10.2528
▁බලපත්රයක්	-10.2536
කඩ	-10.2537
▁ඒවායේ	-10.2543
▁ශ්රමිකයින්	-10.2545
බැ	-10.2546
▁ජූනි	-10.2555
▁ආයෝජනය	-10.2559
▁ජනක	-10.2565
එසේම	-10.2571
▁ගින්නෙන්	-10.2572
▁ගිලී	-10.2574
▁විශ්වාසභංග	-10.2575
▁මත්	-10.2575
▁පොතුවිල්	-10.2579
▁කල්පිටිය	-10.2586
ෂාන්	-10.2597
▁වරප්රසාද	-10.2603
▁ගො	-10.2613
▁බෝතල්	-10.2614
මැ	-10.2617
▁2000	-10.262
▁දැරූ	-10.2626
▁සාමාන්යාධිකාරී	-10.2627
▁දවා	-10.263
▁පැමිණෙමින්	-10.2634
ලත්	-10.2636
▁තරගයෙන්	-10.2638
▁මිසයිල	-10.2638
▁ආවරණ	-10.2642
▁මිශ්ර	-10.2644
▁නැව්	-10.2644
▁මධ්යස්ථානයක්	-10.2645
▁දිවා	-10.2646
▁යොදාගත්	-10.2649
ච්ච	-10.2649
▁සිටිමින්	-10.2651
▁සැසිවාරය	-10.266
▁සෙනෙවිරත්න	-10.2661
▁ෆේස්බුක්	-10.2662
▁අර්ජුන	-10.2665
8ක්	-10.267
▁ව්යාපාරයක්	-10.2671
08	-10.2676
▁පීඨයේ	-10.2681
වැල්ල	-10.2681
කාරි	-10.2685
▁කුලියාපිටිය	-10.2686
▁මුවදොර	-10.2698
රාජ්	-10.2707
▁නොදැවී	-10.271
▁නැද්ද	-10.2711
▁ජයකොඩි	-10.2711
▁පදක්කම්	-10.2713
▁ඇයි	-10.2716
▁උපයෝගී	-10.2719
▁ප්රශ්නයකට	-10.272
▁පාවිච්චි	-10.2722
▁පක්ෂයක්	-10.2725
▁දුෂ්කර	-10.2734
▁හැක්කේ	-10.2734
▁ක්රමයට	-10.2737
00ක	-10.2737
▁සාමකාමී	-10.2738
▁අත්දැකීම්	-10.274
▁සවි	-10.274
▁ලිඛිතව	-10.2744
තැන්න	-10.2752
▁හමුවීමට	-10.2758
▁කාරණා	-10.2759
උ	-10.2759
හො	-10.2762
▁උස	-10.2767
ගෝ	-10.2768
▁බැඳ	-10.2771
▁සමාජයේ	-10.2776
▁අර්බුද	-10.2777
▁ගම්මානයේ	-10.279
24	-10.2791
▁තර	-10.2791
▁දිනාගත්	-10.2795
▁ට්රම්ප්	-10.2795
▁සංචාරයේ	-10.2796
▁අවතැන්	-10.2796
▁කොළ	-10.2797
▁මන්දිරය	-10.2799
▁මහජනතාව	-10.2802
ච්චි	-10.2803
▁සුහද	-10.2807
▁වීමක්	-10.2808
▁ප්රමිතිය	-10.2813
▁හැසිරීම	-10.2816
▁කීර්ති	-10.2817
▁ව්යාපාරිකයෙකු	-10.2819
▁පිටකොටුව	-10.282
▁පරිසරය	-10.2827
▁රි	-10.2828
▁පහල	-10.283
02	-10.2833
▁53	-10.2835
▁හානිය	-10.2837
▁අනාගත	-10.2841
▁දෙනාගේ	-10.2849
ාගාරය	-10.2852
▁දැක්වෙන	-10.2853
▁යතුරුපැදියකින්	-10.2856
▁තරඟාවලිය	-10.2859
▁බෝට්ටු	-10.286
▁මහලේකම්වරයා	-10.2862
▁ඉන්දියාවෙන්	-10.2866
▁ජාවාරම්කරුවන්	-10.2867
▁මාත්රා	-10.2868
කයින්	-10.2871
86	-10.2877
▁පොත්	-10.2879
▁ගාමිණි	-10.2881
▁රත්මලාන	-10.2893
G	-10.2897
▁වැට	-10.29
▁L	-10.2902
▁තානාපතිවරයා	-10.2905
▁ඒම	-10.2908
දෙනා	-10.2911
▁මාවනැල්ල	-10.2917
▁සිසුන්ගේ	-10.292
▁මහින්දානන්ද	-10.2923
▁බලාගාරයේ	-10.2927
පාන	-10.293
▁රුධිර	-10.2939
▁වරෙන්තු	-10.294
▁පැවරීමට	-10.294
ගී	-10.2943
▁බ්රිතාන්යයේ	-10.2952
26	-10.2952
▁ප්රතිව්යුහගත	-10.2957
▁කොල්ල	-10.2964
▁ඔබ්බෙන්	-10.2966
▁දුෂණ	-10.2967
▁සාම්පල	-10.2969
▁58	-10.297
ගම්	-10.297
▁බු	-10.297
▁දොරටු	-10.2974
▁දෙකකින්	-10.2974
▁සැල	-10.2977
▁මෝදි	-10.2979
L	-10.2982
▁පර	-10.2986
▁ශවේන්ද්ර	-10.2991
▁වැඩවර්ජනය	-10.2996
▁තිලකරත්න	-10.2999
▁හානිකර	-10.3006
▁පරීක්ෂකවරයා	-10.301
▁සංචිත	-10.301
▁නවසීලන්තය	-10.3012
න්නට	-10.3013
▁ශ්රේණියේ	-10.3016
▁යන්ත්රය	-10.3019
▁සැලසීම	-10.302
▁ගැටළුවක්	-10.302
▁මිලකට	-10.3026
▁ධාරිතාව	-10.3027
▁පිටියට	-10.3027
▁පත්විය	-10.3039
▁රැස්වීම්	-10.304
ෛ	-10.3041
▁සුළි	-10.3042
29	-10.3052
▁හො	-10.3052
▁ප්රතිශතය	-10.3056
▁කුසල්	-10.3056
▁උපයෝගීතා	-10.3057
▁පසුවයි	-10.3058
▁සිල්ලර	-10.3066
▁බලධාරින්	-10.3066
යාගේ	-10.3073
le	-10.3074
▁පුද	-10.3077
▁මෙමගින්	-10.3079
▁ආබාධිත	-10.3079
▁යටත්	-10.3083
▁ආයතනයට	-10.3085
▁දැරියක්	-10.3089
▁දුම්රියේ	-10.3094
▁රණවිරු	-10.3094
▁දහ	-10.3095
▁ගුවන්තොටුපළ	-10.3096
▁මැතිවරණයේ	-10.3097
▁ගලවා	-10.3099
▁විසදුම්	-10.3103
▁අපේක්ෂකයා	-10.3104
▁සහනය	-10.3109
▁ඉතිහාසය	-10.3112
▁යාමේදී	-10.3121
▁මිලි	-10.3121
පල	-10.3124
වෙකු	-10.3128
▁විරෝධි	-10.3128
▁ලාභ	-10.313
▁දැමූ	-10.3134
▁ඉදිරියෙන්	-10.3138
▁විධිවිධාන	-10.3142
▁වැඩිවීමක්	-10.3142
▁සහෝදරයා	-10.3143
ඔවුන්	-10.3152
යාය	-10.3153
▁බංග්ලාදේශය	-10.3154
▁දුරදිග	-10.3154
09	-10.3155
▁ඛාන්	-10.3155
රැ	-10.3156
▁සඳ	-10.3161
▁මාර්ගවල	-10.3162
▁යෙදවීමට	-10.3162
▁වේගයෙන්	-10.3162
▁පකිස්ථාන	-10.3169
▁5000	-10.3172
▁වන්දනා	-10.3175
▁ලියනගේ	-10.3175
සම්	-10.3176
▁මාරුකර	-10.3176
විම	-10.3177
▁අස්වැන්න	-10.318
▁විත්තිකරුවන්	-10.3191
▁කඩුල්ල	-10.3195
▁නැතැයි	-10.3196
▁20ක්	-10.3199
▁ගා	-10.3204
▁වෙරළට	-10.3204
▁වර්ණ	-10.3208
▁හැක	-10.3208
▁විනිසුරුවරුන්	-10.3209
▁400	-10.3211
නෙ	-10.3213
▁ඩිජිටල්	-10.3214
▁බලන්න	-10.3219
▁එකිනෙක	-10.322
▁ඉන්දු	-10.3222
▁අන්තර්ජාලය	-10.3223
▁කෙරෙන්නේ	-10.3225
▁වුනා	-10.3236
▁ප්රතිසංස්කරණය	-10.324
▁57	-10.3241
▁විස්සයි	-10.3241
▁ඉවත්ව	-10.3241
▁පොදුරාජ්ය	-10.3243
▁මහනගර	-10.3244
▁ගණනාවක	-10.3248
4ක්	-10.3261
▁ගත්තේය	-10.3261
▁පක්ෂව	-10.3265
▁ජයක්	-10.3267
▁එක්ලක්ෂ	-10.3273
▁කොට්ඨාශයේ	-10.3275
▁පැවතිය	-10.3285
▁සත්ව	-10.3286
▁ස්ථානයක	-10.329
▁බේරුවල	-10.3293
▁විදුහල්පතිවරයා	-10.3295
▁අයෙකුට	-10.3296
▁ගැඹුරු	-10.3297
ෆි	-10.3303
▁තාන්ත්රික	-10.3306
▁පිළියන්දල	-10.3306
▁සැම	-10.3315
▁ලි	-10.3317
▁දේශප්රිය	-10.3319
▁ගන්නට	-10.332
▁කියමින්	-10.3322
▁ජීප්	-10.3324
▁YouTube	-10.3331
▁ගැමුණු	-10.3331
▁ගම්මාන	-10.3336
▁ත්යාග	-10.3338
▁අප්රිකාව	-10.3343
60	-10.3351
▁හොර	-10.3353
▁භාවය	-10.3353
▁ශත	-10.3354
වුණේ	-10.3355
▁උෂ්ණත්වය	-10.3357
▁සැකසීම	-10.3359
▁නැමැත්තා	-10.3362
▁තත්ත්වයකට	-10.3362
ිලි	-10.3366
▁කැපී	-10.3368
▁සිමෙන්ති	-10.337
▁ධම්ම	-10.337
▁ඇල්පිටිය	-10.337
▁එංගලන්තය	-10.3377
▁පිටත	-10.338
▁ප්රදේශවලින්	-10.3381
▁සාමාජිකත්වය	-10.3382
▁කැකිරාව	-10.3383
▁කටාර්	-10.3385
▁අසලදී	-10.3405
▁ඇතුළුව	-10.341
▁හිමිවන	-10.3421
▁අලූයම	-10.3421
▁ගිලන්	-10.3429
▁අර්බුදයට	-10.3434
▁හඳුනාගත්	-10.3435
▁ක්රියාවක්	-10.3436
▁වාතාවරණය	-10.3436
▁වැදගත්කම	-10.3437
▁කප්පාදුවක්	-10.3438
සෙ	-10.3443
▁හිඟ	-10.3443
▁නවාතැන්	-10.3447
▁ගැනීමත්	-10.3456
▁උපාධිධාරීන්	-10.3459
▁ක්රියාමාර්ගයක්	-10.346
▁නගරාධිපති	-10.3463
පාර	-10.3469
▁යටවී	-10.3472
▁නිලධාරින්ගේ	-10.3474
▁වර්ධනයක්	-10.3475
▁වටයේ	-10.3475
▁අතිපූජ්ය	-10.3486
▁පශු	-10.3486
▁සංජීව	-10.3487
▁දැක්වෙනවා	-10.3493
▁ආයුර්වේද	-10.3499
▁කොල්ලුපිටිය	-10.3499
▁සන්නද්ධ	-10.3499
▁අඟුරු	-10.3499
▁කළහොත්	-10.35
▁බලපෑ	-10.3506
▁හෙළා	-10.3506
එහි	-10.3515
සින්	-10.3517
▁අවශ්යතාවක්	-10.3517
ශා	-10.3517
▁ගෞරවය	-10.3525
▁මෙසේද	-10.3525
▁තිබුණත්	-10.3529
▁ආණ්ඩුවෙන්	-10.3529
▁බස්රථ	-10.3532
▁නගරයේදී	-10.3533
▁අසාර්ථක	-10.3538
▁තැබෙන	-10.3538
▁නාය	-10.3542
▁මව්පියන්	-10.3547
▁දිනයේත්	-10.355
▁මහල්	-10.3552
▁වස	-10.3552
රම්	-10.357
▁මුදලින්	-10.3574
▁නොමැතිවීම	-10.3574
▁දිනටත්	-10.3578
▁සිරකරුවන්	-10.3578
▁ෆ	-10.3582
වරුන්ගේ	-10.3585
H	-10.3589
▁බඹර	-10.359
දුව	-10.3591
▁බලංගොඩ	-10.3591
▁සනත්	-10.3593
ථ	-10.3596
▁සැකයක්	-10.3596
▁ව්යාපාරිකයින්	-10.3598
▁වැඩම	-10.3599
▁සංශෝධනයට	-10.36
වැනි	-10.3606
මල්	-10.3606
ුර	-10.3617
06	-10.3619
▁චක්රලේඛය	-10.3622
ෆ	-10.3624
▁උත්පාදනය	-10.3624
න්ස්	-10.3626
▁සමුළුවේ	-10.3627
▁හෙ	-10.363
▁සහයෝගීතාව	-10.3639
තල	-10.3643
යී	-10.3649
▁අවිය	-10.3654
▁ගිවිසුමට	-10.3654
▁උපකාර	-10.3659
වන්න	-10.3659
තෙල්	-10.3659
▁නාට්ය	-10.366
▁වර්ජනයක්	-10.3664
▁ආවා	-10.3666
▁මරා	-10.3669
▁තීරණාත්මක	-10.3672
▁03ක්	-10.3675
▁චන්දන	-10.3675
▁කඳවුරු	-10.3681
නන්ද	-10.3682
▁සාකච්ඡාවක	-10.3687
▁සමීක්ෂණය	-10.3687
▁අවවාද	-10.3688
▁නුසුදුසු	-10.3697
▁ගුණතිලක	-10.3697
▁නොවී	-10.3699
▁විද්යාලයට	-10.3699
▁ප්රදේශයක	-10.3703
▁නිවසේදී	-10.3705
▁ගාලුමුවදොර	-10.371
▁ප්ලාස්ටික්	-10.371
▁කිලෝවක්	-10.3717
▁කුණාටුව	-10.3726
▁වනදායි	-10.3728
▁ප්රකාශකර	-10.3728
ලය	-10.3734
▁ඉංග්රීසි	-10.3737
▁දීමෙන්	-10.3737
▁යකඩ	-10.374
07	-10.3742
න්ඩ	-10.3745
▁දෙදෙනෙකුට	-10.3752
▁වැව්	-10.3757
ටෝ	-10.3759
▁ප්රතිපත්තියක්	-10.3763
▁වෙන්නප්පුව	-10.3763
▁විගණන	-10.3764
▁මංගල්යය	-10.3766
▁පැහැදිළි	-10.3777
▁එන්නතේ	-10.3778
▁හිදී	-10.3782
▁දෛනිකව	-10.379
▁මියයාම	-10.3799
▁පළාත්වලට	-10.3799
▁කමිටුවට	-10.3805
▁අයෙකි	-10.3806
▁ඉක්ම	-10.3808
▁අනියම්	-10.3818
▁සැපයීමට	-10.3825
ආරච්චි	-10.383
▁නාරාහේන්පිට	-10.383
▁තරගයට	-10.3837
දිග	-10.3842
▁කෝට්ටේ	-10.3846
▁දොර	-10.3847
ණ්ඩ	-10.3856
▁පිළි	-10.3856
▁රථයට	-10.3857
ෞ	-10.3857
▁කටයුත්ත	-10.3864
▁අමතක	-10.3871
▁යානයක්	-10.3873
▁ජෙ	-10.3883
▁ක්රීඩාංගණයේදී	-10.3891
▁අධිකාරියට	-10.3897
▁දෙලක්ෂ	-10.3898
▁පක්ෂයෙන්	-10.3901
▁කවුන්සිලයේ	-10.3902
▁මහත්තයා	-10.3905
▁රටවලින්	-10.3907
▁උපවාසය	-10.3909
▁දැන්වීම්	-10.3909
▁අනවශ්ය	-10.3912
▁මාණ්ඩලික	-10.3912
▁ආශිර්වාද	-10.3916
▁කෙරුණි	-10.3919
▁එන්නත්කරණය	-10.3921
▁කරුණාතිලක	-10.3925
▁භාවිතයට	-10.3934
මාර	-10.394
බර්	-10.3943
35	-10.3948
ාරාම	-10.3949
▁මුහුණු	-10.395
▁කොංග්රසය	-10.3952
▁කවුන්සිලය	-10.3954
ිනි	-10.3958
▁ලබාදුන්නා	-10.3958
▁කෙරිණි	-10.3958
නව	-10.3961
ළුව	-10.3963
▁වුණු	-10.3967
▁නොලැබීම	-10.3968
▁උත්සවයක්	-10.397
▁කවර	-10.3977
▁අසනීප	-10.398
▁අන්තර්ජාතික	-10.398
ානන්ද	-10.3988
▁මත්තල	-10.3994
▁වෙළඳපොල	-10.3997
▁නිලධාරින්ට	-10.3997
▁සේවිකාවන්	-10.4002
▁ලාල්	-10.4008
වුණු	-10.4009
▁ක්රීඩාව	-10.4013
▁මවක්	-10.4016
▁පරපුර	-10.4026
▁වසරක	-10.4028
▁හොඳින්	-10.4034
▁සුරැකීම	-10.4035
▁ව්යාපෘතියේ	-10.4039
▁කියල	-10.4041
▁නිවීම	-10.4042
▁සරසවි	-10.4045
▁ක්රියාව	-10.4046
▁කැළණිය	-10.405
▁සැලැස්මක්	-10.4054
▁පත්කිරීමට	-10.4056
▁හෂීම්	-10.4062
▁මාධ්යයට	-10.4064
▁නිතර	-10.4065
▁බවටද	-10.4067
ගත්තේ	-10.4068
▁ආදි	-10.4074
▁ලසන්ත	-10.4076
▁පහසු	-10.4078
▁අමර	-10.4079
▁තරගයේදී	-10.408
▁පාර්ශ්ව	-10.4084
ණිය	-10.4089
▁නැත්නම්	-10.409
▁න්යාය	-10.4091
දන	-10.4102
▁වැළකී	-10.4104
▁ජාතීන්	-10.411
වො	-10.4116
6ක්	-10.412
▁ගිහින්	-10.4122
▁ලක්ෂයක්	-10.4134
▁රඳවාගෙන	-10.4135
▁59	-10.4149
▁අභි	-10.4158
▁මින්	-10.4163
ාය	-10.4164
▁ලීටරයක	-10.4165
▁පළකර	-10.4172
▁යටත්ව	-10.4172
ගුණ	-10.4181
▁සුනාමි	-10.4187
▁බලවේග	-10.419
▁සමගයි	-10.419
▁පුනරුත්ථාපන	-10.4191
▁සාකච්ඡාවේ	-10.4191
▁රංග	-10.4195
▁මාසික	-10.4197
▁සූර්ය	-10.4199
▁මහේස්ත්රාත්වරිය	-10.42
▁අනාරක්ෂිත	-10.4201
▁අභියාචනා	-10.4201
▁මුළුමනින්	-10.4201
▁සුසාන	-10.4201
▁පවත්වයි	-10.4206
▁යාමත්	-10.4207
▁උද්ඝෝෂණය	-10.4207
වින්	-10.4211
▁බුදු	-10.4212
▁අමාත්යවරිය	-10.4214
▁පාරිසරික	-10.4215
▁පිටියේ	-10.4216
සය	-10.4218
▁සමන්ත	-10.4218
▁ආක්රමණය	-10.4221
▁රාජගිරිය	-10.4229
▁අනුබල	-10.423
▁කිසිවෙකු	-10.4234
▁නෑමට	-10.4234
▁පැමිණිය	-10.4237
▁යතුරුපැදිය	-10.4242
28	-10.425
▁උද්ධමනය	-10.4253
▁සන්	-10.4253
▁හතරක්	-10.4254
▁අලුත්වැඩියා	-10.4257
▁තුනකට	-10.4259
▁සෘජුව	-10.4263
▁පිළිගැනීම	-10.4268
▁කාදිනල්	-10.4271
▁අපහසු	-10.4271
▁පවත්වමින්	-10.4271
▁රළු	-10.4281
▁පැතිරීම	-10.4282
▁තිබුණද	-10.4282
ංක	-10.4285
▁රෙගුලාසි	-10.4285
▁දිනූ	-10.4292
x	-10.4295
▁සේවකයින්ට	-10.4296
▁තරගාවලියට	-10.43
▁N	-10.4301
වලා	-10.4303
▁ශ්රේෂ්ඨාධිකරණයට	-10.4306
▁මන්ත්රීවරු	-10.431
▁ඉන්දිය	-10.4311
▁ලැබූවන්	-10.4312
▁දඩුවම්	-10.4313
▁පත්කරන	-10.4314
දූව	-10.4315
▁ආසියාවේ	-10.4319
▁ගම්මානය	-10.4323
▁පළමුවෙන්	-10.4323
▁වැඩිවීම	-10.4324
▁බදාදා	-10.4327
▁සිසුවිය	-10.4338
▁නඩුවක්	-10.4341
▁සිදුවනු	-10.4341
▁මාධ්යවේදියෙකු	-10.4342
ස්ථ	-10.4343
▁අමාත්යවරයාට	-10.4346
▁කළමනාකරු	-10.4348
▁නයි	-10.4354
▁චෝදනාවට	-10.4367
▁සමුද්ර	-10.4374
▁62	-10.4376
▁කරගන්න	-10.4378
▁කළමනාකාර	-10.4378
▁ජා	-10.438
▁ඡායා	-10.4383
▁120	-10.4386
▁ජනාධිපතිවරණ	-10.4388
▁ඉදිරිපත්ව	-10.4393
▁අණ	-10.4394
▁අයදුම්	-10.4395
▁මාර්ගයක්	-10.4398
z	-10.4398
▁වේගවත්	-10.4404
▁බෙ	-10.4405
▁පුද්ගලයින්ගේ	-10.4407
▁මැතිවරණයෙන්	-10.4409
▁ආරක්ෂාවට	-10.441
▁අදහස	-10.4412
ලීම	-10.4422
▁පහරකෑම	-10.4423
▁වෙළද	-10.4425
▁63	-10.4426
▁බට	-10.4426
්ලි	-10.4426
▁ලීග්	-10.4428
▁කඳු	-10.4433
▁මහජනතාවට	-10.4441
▁ලිඛිත	-10.4444
▁බා	-10.4445
▁ප්රංශ	-10.4446
▁කිහිපයකදී	-10.4447
▁ෂ	-10.4448
ිලා	-10.4452
▁එන්නත්කරණ	-10.4455
▁ගු	-10.4456
▁වැල්ලම්පිටිය	-10.4456
▁ඇමෙරිකාව	-10.4457
න්ග්	-10.4465
▁කැමති	-10.4465
▁නොගන්නා	-10.4467
▁වාරණ	-10.4468
▁ටෙලි	-10.447
▁අඩුපාඩු	-10.4471
▁අන්දමින්	-10.4472
▁කළත්	-10.4477
සැ	-10.4479
▁දැඩිව	-10.4483
▁අමුණුගම	-10.4484
▁සභික	-10.4485
5ක	-10.4489
▁72	-10.4489
▁ගැනිමට	-10.449
▁චන්ද්ර	-10.4491
▁ජලාශ	-10.4494
හර	-10.4495
▁හිමියන්ට	-10.4495
▁ජොන්ස්ටන්	-10.4499
▁ගනුදෙනුව	-10.4499
▁වසරට	-10.4499
▁බිල	-10.4499
▁පහක්	-10.4505
▁මහේන්ද්රන්	-10.4519
▁බහුතර	-10.4526
▁භික්ෂූන්	-10.4528
▁අහිතකර	-10.4528
▁රිෂාඩ්	-10.4528
▁දෙනාට	-10.4534
වෙනු	-10.4538
▁මැතිව්ස්	-10.4542
▁දන්නවා	-10.4542
▁පාගමන	-10.4543
▁දැක්	-10.4549
▁දැනුම්වත්	-10.455
ච්	-10.4553
ුන	-10.4559
▁මාළු	-10.4564
ෙන්නේ	-10.4564
▁ආදායමක්	-10.4567
ණා	-10.4568
▁තිස්සමහාරාම	-10.4571
▁මීළඟ	-10.4571
▁වෙළඳපොලේ	-10.4571
▁ඉඩකඩ	-10.4574
▁පරිපාලනය	-10.4574
▁ඒකකයට	-10.4575
▁ඔස්ට්රේලියාව	-10.4576
මීට	-10.4582
යෙ	-10.4582
▁සංඥා	-10.4585
▁අනුයුක්ත	-10.4593
▁බන්ධනාගාරය	-10.4597
න්ගෙන්	-10.4597
▁ඇඳ	-10.46
▁කෙහෙළිය	-10.46
▁ගෘහස්ථ	-10.46
▁වැවිලි	-10.4601
▁මදුරු	-10.4602
▁නීතියට	-10.4603
▁අනුයුක්තව	-10.4607
▁සිං	-10.4607
▁ගව	-10.4614
ගල්	-10.4619
at	-10.462
▁ඇමරිකාවේ	-10.462
සං	-10.4627
▁බේකරි	-10.4629
▁ලිහිල්	-10.4629
▁ද්විත්ව	-10.4637
▁පැමිණියේ	-10.464
▁තර්ජනයක්	-10.4641
ග්ර	-10.4644
▁විදුහල්පතිවරුන්	-10.4653
▁යල	-10.4654
▁ඕස්ට්රේලියාව	-10.4655
▁කීය	-10.4655
▁ජ්යේෂ්ඨ	-10.4658
▁තිළිණ	-10.4665
▁කොරියාවේ	-10.467
▁මිරිහාන	-10.4673
▁එක්රැස්	-10.4673
▁යලි	-10.4678
▁නැඟ	-10.4678
▁දැක්ම	-10.4685
පාත	-10.4685
▁තබමින්	-10.4688
▁ශ්රේණිගත	-10.4689
▁ති	-10.4691
▁විශ්වවිද්යාලයීය	-10.4692
▁ගිණුම	-10.4693
▁බහුතරයක්	-10.4695
▁හැරීමේ	-10.4701
▁කඳවුර	-10.4703
හැර	-10.4704
▁ලී	-10.4707
▁අතවර	-10.4716
▁විරෝධතාවය	-10.4716
▁තැබීමෙන්	-10.4717
▁පරිහරණය	-10.4717
වූයේ	-10.4718
▁අපේක්ෂිත	-10.4728
කෙසේවෙතත්	-10.4729
▁රැස්කර	-10.4732
▁වැඩිදියුණු	-10.4732
▁විසන්ධි	-10.4732
▁කෑම	-10.4733
▁ලිපියේ	-10.4736
▁විහාරස්ථානය	-10.4738
ලයි	-10.4743
කාරිය	-10.4743
▁ගමනා	-10.4746
▁හැබැයි	-10.4747
▁ලැබිය	-10.4747
▁අසරණ	-10.4747
▁අධ්යක්ෂක	-10.4747
ඝ	-10.4752
▁ප්රතිඵලය	-10.4753
▁දැනුම්දීම	-10.4757
▁අපේක්ෂාව	-10.4758
▁සමයේදී	-10.477
▁66	-10.4771
▁බඩු	-10.4777
දිම	-10.4777
▁අලුත්ගමගේ	-10.478
▁වෙනස්කම්	-10.4782
▁අම්බලන්තොට	-10.4791
▁රැඳවුම්	-10.4791
▁ලුතිනන්	-10.4791
▁මහාමාර්ග	-10.4793
▁භාණ්ඩාගාර	-10.4794
▁පාකිස්තාන	-10.4795
▁මිනිසුන්	-10.48
▁වර්ෂාවත්	-10.4804
▁කැපවීම	-10.4805
▁දෙකම	-10.4805
▁විපර්යාස	-10.4806
▁පැවැත්විය	-10.4809
ීමේ	-10.4812
▁උපකාරක	-10.4814
▁සිද්ධියේ	-10.4819
▁බගවන්තලාව	-10.4821
▁ධාවනයට	-10.4822
▁දැල්	-10.4823
කිරීමේ	-10.4827
▁සහනයක්	-10.4831
කුඹුර	-10.4832
නයේ	-10.4842
▁වෙනි	-10.4843
▁යාත්රාවක්	-10.4848
▁නෙමෙයි	-10.485
ගෙදර	-10.4853
▁පූජාව	-10.4861
▁බෙදාහැරීම	-10.4864
▁රෝහිත	-10.4865
▁දේශගුණික	-10.4866
▁සංහිඳියාව	-10.4867
▁කාණ්ඩයේ	-10.4868
▁ගඟේ	-10.4871
▁යතුරුපැදිකරු	-10.488
▁පීඩනය	-10.4886
▁කොළඹට	-10.4887
▁ගැනීමේදී	-10.4891
ගනිමින්	-10.4892
▁ලැයිස්තු	-10.4893
▁රතන	-10.4893
සර්	-10.4897
▁වෛද්යවරයෙකු	-10.4897
▁දයා	-10.4902
▁විද්යාඥ	-10.4904
▁දුරකථනය	-10.4907
ීන්	-10.4908
▁සංවත්සරය	-10.491
▁වැඩිහිටි	-10.4916
▁එක්වෙමිනුයි	-10.4925
▁භූමිතෙල්	-10.4926
▁වලංගු	-10.4928
lk	-10.4932
▁නිවසින්	-10.4933
▁විමසීමක	-10.4934
හිදී	-10.4936
▁අපහසුතාවට	-10.4937
▁ඥාති	-10.494
▁ගමනක්	-10.4941
▁අත්සනින්	-10.4942
▁උද	-10.4942
▁ගෝ	-10.4943
▁සිටම	-10.4943
කාන්ත	-10.4947
▁මැතිවරණයක්	-10.495
දූ	-10.4953
▁ලැබුණේ	-10.4957
▁රුහුණු	-10.4958
▁ගවයින්	-10.4962
▁ධන	-10.4963
▁නොතකා	-10.497
▁බාලිකා	-10.4973
▁අවසරය	-10.4975
ල්ස්	-10.4976
▁පුවත්පත්	-10.4978
දේශ	-10.4979
▁එයාර්	-10.4981
▁මාධ්යවේදී	-10.4983
▁සංගක්කාර	-10.4986
▁ඕනේ	-10.4987
▁පුද්ගලයෙකුගේ	-10.4995
▁ක්ෂේත්රයට	-10.4996
▁මහර	-10.4998
▁ඇන්	-10.4999
▁ඇස	-10.5
▁යන්නයි	-10.5005
▁පැවරීම	-10.5012
▁බලවත්	-10.5015
▁අර්ථ	-10.5016
▁ඒත්	-10.502
▁7ක්	-10.5021
80	-10.5024
ව්ය	-10.5024
▁කඩවත	-10.5027
තරමක්	-10.5027
▁10ක	-10.5028
▁සිංගප්පූරුව	-10.5029
▁දෙමටගොඩ	-10.5031
▁කිහිපයකින්	-10.5044
▁න්යෂ්ටික	-10.5046
▁හෘද	-10.5046
▁උඩු	-10.5047
▁නායකත්වයෙන්	-10.5048
▁වීර	-10.5048
රාජා	-10.5049
56	-10.5053
▁සමු	-10.5053
55	-10.5053
▁තදබදය	-10.5056
▁පෝ	-10.5057
▁යුක්ත	-10.5059
▁ව්යවස්ථාවක්	-10.5061
▁කොළොන්නාව	-10.5063
am	-10.5063
▁ඉල්ලුම	-10.5063
කුල	-10.5072
▁අපේක්ෂකයන්	-10.5075
මාලි	-10.5075
▁95	-10.5077
ඬ	-10.5083
▁එමීර්	-10.5083
▁ඩෙ	-10.5089
▁සංකේත	-10.509
හාර	-10.509
▁පැවැත්වෙන්නේ	-10.5091
▁යොදාගෙන	-10.5098
▁නිසයි	-10.5107
▁ඇවිත්	-10.5107
▁පුරවැසියන්	-10.5108
▁වගඋත්තරකරුවන්	-10.5109
▁මතුගම	-10.5115
▁මොන	-10.5119
ලන්	-10.5119
▁600	-10.5122
▁සපුගස්කන්ද	-10.5123
▁සිරිකොත	-10.5123
▁පරිශ්රය	-10.5127
▁වැදීමෙන්	-10.5136
ිම	-10.5139
▁දුර්වල	-10.514
▁ජනපදයේ	-10.5144
▁ශාක	-10.5146
්නන්	-10.5146
▁රජයක්	-10.5147
▁බහ	-10.5149
▁විධාන	-10.5151
▁පෝලිම්	-10.5152
ුරු	-10.5152
▁දෙපිරිස	-10.5153
▁මව්වරුන්	-10.5157
31	-10.5159
ීම්	-10.5166
▁අස	-10.5179
මයි	-10.5184
▁ජපන්	-10.5185
▁වැටලීමක	-10.5186
▁පිළිබඳවද	-10.5191
▁කැළණි	-10.5198
▁සිත	-10.5198
▁අයිතීන්	-10.52
▁මෙහෙයවන	-10.5203
▁දකින	-10.5204
▁ක්රීඩිකාවන්	-10.5205
▁නායකයෙකු	-10.5205
0	-10.5205
යාව	-10.5208
▁මණ්ඩලයක්	-10.5209
වන්ට	-10.5212
▁ව්යවස්ථාවට	-10.5216
සම	-10.5218
▁උද්ගතව	-10.5221
▁කොම	-10.5221
▁මුල	-10.523
▁රත්රං	-10.523
▁පැවරී	-10.5236
▁කටු	-10.5243
▁ලක්වී	-10.5244
▁නොගත්	-10.5245
ින	-10.5246
▁අවබෝධතා	-10.5246
▁දිනයට	-10.525
▁කොහොමද	-10.525
▁ඔහුගෙන්	-10.5256
▁ඩොලරය	-10.5257
▁අයවැයෙන්	-10.5258
▁අපොහොසත්	-10.5261
▁පුපුරණ	-10.5261
▁කි්රයාත්මක	-10.5262
▁දශක	-10.5264
▁බලධාරීන්ට	-10.5267
▁අනුග්රහය	-10.5268
▁64	-10.5275
▁කෘෂිකාර්මික	-10.5277
▁වැල්ලවත්ත	-10.5277
▁යෙද	-10.5278
79	-10.528
▁නොගැනීම	-10.528
▁විසඳා	-10.5281
පළ	-10.5281
ප්පු	-10.5282
▁අනුපාතය	-10.5285
▁සාමාන්යයෙන්	-10.5292
▁ප්රතිචාරයක්	-10.5298
▁වැටුණු	-10.5298
▁ආණ්ඩුකාරවරයා	-10.5299
▁පාඩු	-10.53
▁ප්රවීණ	-10.5301
▁සිදුවීමක්	-10.5305
▁සත්ත්ව	-10.5308
▁රෙදි	-10.5309
▁මනා	-10.5309
▁නොලැබෙන	-10.531
▁ප්රතිශතයක්	-10.5311
▁දේපල	-10.5318
▁සියළුම	-10.5321
▁ශක්තිය	-10.5322
▁යෙදීම	-10.5324
හල	-10.5325
▁බ්ර	-10.5327
▁ක්ද	-10.5328
▁පනතට	-10.5328
▁එළ	-10.5329
▁භට	-10.5331
ාන්	-10.5334
▁50ක්	-10.5334
▁වෛද්යවරුන්ගේ	-10.5335
▁වළකින	-10.5339
▁අකුරැස්ස	-10.5339
▁පිටුවහල්	-10.5339
▁රබර්	-10.5341
▁උද්යානය	-10.5343
▁සම්බන්ධතා	-10.5343
▁නොමැත	-10.5348
▁පද්ධති	-10.5352
▁8ක්	-10.5353
නාව	-10.5354
▁පැවතීම	-10.5356
▁යැ	-10.5357
▁වල්	-10.5364
▁පාක්ෂික	-10.5365
▁අපේක්ෂාවෙන්	-10.5368
▁ඩිලාන්	-10.5371
▁ජලාශය	-10.5373
ද්ධ	-10.5376
ුල	-10.5377
▁පිහිටුවන	-10.5377
▁සිදුකරනවා	-10.5378
▁ජාවාරමේ	-10.5384
▁සිදුවීමට	-10.5384
▁සමූහ	-10.5385
▁මූලස්ථාන	-10.5385
▁යු	-10.5385
▁ප්රමිතියෙන්	-10.5386
▁දැරියන්	-10.5398
▁පූ	-10.5399
▁දිවයිනෙන්	-10.54
▁සුඛෝපභෝගී	-10.5402
▁ස්වභාවික	-10.5402
▁විහාරයේ	-10.5407
▁කුමරු	-10.5408
▁වැළැක්වීමට	-10.5416
▁ජලජ	-10.5418
▁අනුරාධපුරය	-10.5418
▁සමූපකාර	-10.5418
j	-10.5418
▁අලාභ	-10.5418
▁සඳහන්වේ	-10.5422
▁ආවේ	-10.5422
▁පාන්	-10.5425
▁නින්ද	-10.5425
▁දවස	-10.543
▁කන්ටේනර්	-10.5434
▁ඛණිජ	-10.5434
ාගොස්	-10.5435
▁උපාය	-10.5437
▁කපිල	-10.5439
▁උද්ගත	-10.544
▁සො	-10.5441
▁ගැට	-10.5442
ෑන්	-10.545
▁ශාසන	-10.5452
▁අන්ත	-10.5454
▁හුවමාරුව	-10.5454
▁නීතිඥවරුන්	-10.5454
කමක්	-10.5458
▁15ක්	-10.5462
▁දිනෙන්	-10.5463
▁භාවිතයෙන්	-10.5465
▁කන්න	-10.5466
▁අංග	-10.5471
▁ධීවරයන්	-10.5472
▁ප්රහාරයකින්	-10.5474
▁සහරාන්	-10.5475
▁එජාප	-10.5477
▁විදේශගත	-10.5478
▁මෙගාවොට්	-10.5481
▁දිනපතා	-10.5481
▁61	-10.5482
ොස්	-10.5485
▁සාකච්ජා	-10.5488
▁මහත්වරු	-10.5497
▁හික්කඩුව	-10.5497
▁කොංග්රසයේ	-10.5498
▁දිනක	-10.5501
▁දක්ෂතා	-10.5502
▁සෝ	-10.5503
▁ජනන	-10.5507
▁හකීම්	-10.5513
▁යැවීම	-10.5515
▁K	-10.5519
th	-10.552
▁පිහි	-10.5521
▁02ක්	-10.5524
ඵල	-10.5524
▁ලක්වු	-10.5526
▁කාර්	-10.5527
▁අම	-10.5528
▁2008	-10.5529
▁අගරදගුරු	-10.5529
▁මාතෘ	-10.5529
▁මිනිස්සු	-10.553
▁වෙ	-10.5532
▁වහන්සේගේ	-10.5532
▁අයදුම්කරුවන්	-10.5534
▁ගණනක	-10.5535
▁උපාධිය	-10.5542
▁චන්දිම	-10.5546
▁සමරු	-10.5546
▁වරදකරු	-10.5548
වනදා	-10.5557
▁ඉරාන	-10.5559
▁සිද්ධ	-10.5561
ිමට	-10.5563
▁කිලෝමීටර	-10.5564
▁වගාවන්	-10.5567
▁අස්වනු	-10.5567
▁පාසැල්	-10.5568
▁අමාත්යවරයෙකු	-10.5568
වෙනවා	-10.5568
▁ලැබෙනු	-10.5569
▁ගුවන්තොටුපොළ	-10.5577
▁සුමිත්	-10.5577
ාර	-10.5578
▁ගැනුණු	-10.5585
89	-10.5587
▁දිස්ත්රික්කවලට	-10.5591
▁හංදිය	-10.5593
▁විජේදාස	-10.5593
▁ඇමරිකා	-10.5595
▁පැවසෙන	-10.5596
▁පුද්ගලයන්ට	-10.5597
▁මැදිහත්වීම	-10.56
▁සමීක්ෂණ	-10.5605
▁නවක	-10.5605
▁සේවකයින්ගේ	-10.5616
▁බාධක	-10.5617
▁අවස්ථාවේදියි	-10.5624
▁පියෙකු	-10.5625
▁සීමාවේ	-10.5631
▁සංවිධානයට	-10.5632
▁පණ	-10.5635
▁කාරණය	-10.5636
▁පාඩුවක්	-10.5637
▁ත්රස්තවාදී	-10.5641
▁වීරසේකර	-10.5642
▁පිළිගෙන	-10.5646
▁මුලින්ම	-10.5648
▁සිදුකළා	-10.5651
▁රෝහලෙන්	-10.5651
▁දෙකේ	-10.5652
▁ව්යාපාරිකයන්	-10.5657
▁හුදෙකලා	-10.5658
▁නොතීසි	-10.5658
ිකාව	-10.5658
වෙනි	-10.5659
වෙන්න	-10.5663
▁තුළට	-10.5663
▁පතල්	-10.5672
▁පරිදිය	-10.5673
▁සේවකයෙකු	-10.5673
▁අසල්වැසි	-10.5674
▁මනුෂ්ය	-10.5676
▁නැරඹීම	-10.5676
75	-10.5677
▁ළිඳ	-10.5678
▁වෙතින්	-10.5679
98	-10.5685
▁මහේල	-10.5686
▁කප්පම්	-10.569
කගේ	-10.5695
විද්යා	-10.5696
▁මන්දිරයේදී	-10.5697
▁ජනගහනය	-10.5699
▁පක්ෂවල	-10.5702
හී	-10.5703
▁තිබුනා	-10.5716
▁උළෙලේ	-10.572
it	-10.5721
▁වාසි	-10.5721
▁ජීවත්වන	-10.5722
▁අඟහරුවාදා	-10.5723
▁ජලාපවහ	-10.5723
▁අඩාල	-10.5723
▁ලක්වන	-10.5725
▁වේදිකාව	-10.5726
▁සාගල	-10.5728
▁වැවේ	-10.5733
▁සංවාදය	-10.5735
▁පර්යන්තය	-10.5737
▁ඇතැමුන්	-10.5739
▁ෆෝ	-10.574
රතන	-10.5741
▁ආරම්භක	-10.5743
▁චිත්ර	-10.5743
▁කුමක්ද	-10.5743
▁රුපියල	-10.5748
▁නිරෝධායනය	-10.5749
▁බ්රහස්පතින්දා	-10.5755
▁රථයකට	-10.5761
▁මතයි	-10.5769
V	-10.5771
▁ස්වර්ණාභරණ	-10.5771
▁උදව්	-10.5774
▁දසනායක	-10.5774
▁ආර්ථිකයට	-10.5776
▁ප්රචාර	-10.5779
▁පහසුකම	-10.578
ෙනවා	-10.5781
නියා	-10.5782
▁නිසාම	-10.5785
▁භික්ෂු	-10.5785
▁කොට්ටාව	-10.5792
▁නිවෙස	-10.5799
▁මෙහෙයුමකදී	-10.58
▁දියුණුව	-10.5802
▁අනුකූලව	-10.5803
▁ගෙවිය	-10.5807
▁හඳුන්වන	-10.5811
▁කිසිසේත්	-10.5812
▁ගුණාත්මක	-10.5814
▁30ක්	-10.5822
▁විස	-10.5824
වුන්	-10.5825
▁සිතා	-10.5826
▁මුහුණදීමට	-10.5829
▁සාකච්ඡාවකින්	-10.5833
▁ඉම්රාන්	-10.5837
▁මෙටි්රක්	-10.5837
▁මාලාව	-10.5844
ද්ර	-10.5849
▁සුභ	-10.585
▁ආඥා	-10.5851
94	-10.5853
වෙල්	-10.5853
▁පැවැත්වුණු	-10.5855
▁දර්ශකය	-10.5856
▁ආදරය	-10.5856
▁සැඟව	-10.5859
වැට	-10.586
▁හිමිකරුවන්	-10.5864
▁පාකිස්ථානය	-10.5868
▁දෙරටේ	-10.5869
▁දහසකට	-10.5871
▁පිරිසකගේ	-10.5874
▁ප්රමිති	-10.5875
▁නිව්	-10.5877
▁පෝෂණ	-10.5877
▁පීඩා	-10.5878
කොල	-10.588
▁සටහන	-10.5882
▁දැයි	-10.5884
ෙමු	-10.5887
▁උඩරට	-10.5887
▁සමඟින්	-10.5888
තුමන්	-10.589
▁වෙනිදා	-10.589
නැ	-10.589
▁පැවැත්වු	-10.5896
▁අයිතියක්	-10.5897
▁ස්ව	-10.5903
70	-10.5904
▁තැබීමකින්	-10.591
▁සිටුවීම	-10.5913
▁පවුල්වල	-10.5916
▁සූ	-10.5916
▁කැස්බෑව	-10.5916
▁නොසිටි	-10.5916
▁උත්සාහය	-10.5918
▁ගස	-10.5919
▁ගමන්ගත්	-10.592
▁සමාරම්භක	-10.592
ලෝක	-10.592
▁ලැබෙන්නේ	-10.5927
දහස	-10.5928
▁විද්යාව	-10.5928
▁අලුත්ගම	-10.5932
▁අතිශය	-10.5932
▁නීතියේ	-10.5933
▁සිම්බාබ්වේ	-10.5936
▁ලේඛනය	-10.5941
▁ලක්ෂයක	-10.5943
යො	-10.5944
▁ප්රායෝගික	-10.5948
▁හදන්න	-10.5951
▁කුසලානය	-10.5951
▁ඇමතුමක්	-10.5953
තෝ	-10.5954
▁බි	-10.5955
▁කොටසේ	-10.596
▁අමෙරිකාවේ	-10.5967
▁අනිල්	-10.597
කාරක	-10.5971
▁ලේකම්වරයාට	-10.5972
▁හේතුවී	-10.5972
▁අගයක්	-10.5973
▁සලකුණු	-10.5974
▁ජාතිකයන්	-10.5975
▁බෙංගාල	-10.5986
▁පාසලට	-10.5987
▁විහාරය	-10.5988
▁නාග	-10.5991
ණී	-10.5992
යම්	-10.5998
▁කෙටුම්පත්	-10.6
▁බීජ	-10.6
▁සංස්කෘතිය	-10.6001
▁තේරුම්	-10.6006
▁කලක්	-10.6006
▁මෑත	-10.6007
▁තිබුනේ	-10.6008
හරි	-10.6009
▁භාෂාව	-10.6009
හන	-10.6012
▁ඉල්ල	-10.6015
▁බණ්ඩාරගම	-10.6018
▁ස්ටාලින්	-10.602
▁ඉහළින්	-10.6023
▁ඒකාබද්ධව	-10.6025
▁කඳුකරය	-10.603
පැහැ	-10.6033
▁තිරසර	-10.6037
▁සෙබළුන්	-10.6037
▁කඳුළු	-10.6037
▁අර්බුදයකට	-10.6053
▁67	-10.6053
▁පිරිවැය	-10.6054
▁පුංචි	-10.6054
▁මුවාවෙන්	-10.6054
ලන	-10.6066
දුරු	-10.6066
▁හිරිහැර	-10.607
▁එක්වීමට	-10.6073
▁1000	-10.6075
▁04ක්	-10.608
▁ප්රියදර්ශන	-10.6087
▁බලපිටිය	-10.6089
▁ඇතුන්	-10.6093
▁ඇස්	-10.6097
▁මොර	-10.61
▁දෙපාර්ශවය	-10.6103
▁දේශයේ	-10.6103
▁රැගෙනවිත්	-10.6104
▁වන්නිආරච්චි	-10.6104
▁ටො	-10.612
▁නීතී	-10.6121
▁දිස්ත්රික්වල	-10.6121
▁වාසුදේව	-10.6121
▁තිරිඟු	-10.6121
සල්	-10.6122
▁සංශෝධනයක්	-10.6122
93	-10.6128
▁මහබැංකුව	-10.6129
ුණ	-10.6132
දර	-10.6133
▁කල්ලිය	-10.6136
▁විද්වත්	-10.6138
▁සල්ලි	-10.6138
▁පස්දෙනෙකු	-10.614
▁හත	-10.6141
▁ආගම්	-10.6142
▁ජාවාරමක්	-10.6146
▁කරූ	-10.6146
▁වුණ	-10.6147
යයි	-10.6152
▁පාර්ශවයන්	-10.6159
▁ක්රමයෙන්	-10.6163
▁දීලා	-10.6166
▁එළැඹෙන	-10.6167
▁රිදී	-10.6169
▁බැර	-10.6169
▁ගැටලුවලට	-10.617
▁පසුවනවා	-10.617
97	-10.6172
▁ඇන්ජලෝ	-10.6172
▁මොහාන්	-10.6172
හන්	-10.6175
ෂණ	-10.6178
▁පද්ධතියක්	-10.6179
▁සහනාධාර	-10.6187
▁සූදානමින්	-10.619
▁මන්ත්රීවරුන්ට	-10.6194
කාව	-10.6195
සහ	-10.6199
▁මොහොතක	-10.62
▁විත්	-10.6202
▁රැකියාව	-10.6202
▁සැකකරුගේ	-10.6205
▁කලහකාරී	-10.6206
▁මුම්බායි	-10.6206
▁වසරක්	-10.6208
ri	-10.6213
▁පින්	-10.6217
▁බෙදාහැරීමේ	-10.6217
▁සංදේශ	-10.622
▁අවශ්යයි	-10.6222
▁උග්ර	-10.6224
▁R	-10.6229
▁වත්ත	-10.6238
▁හඳුනාගැනීම	-10.6238
▁කිරුළ	-10.624
▁ගම්වාසීන්	-10.6241
මො	-10.6246
ල්ලා	-10.6246
▁මෝල්	-10.6248
▁සංසදය	-10.6255
▁92	-10.6256
▁බලපැවැත්වෙන	-10.6257
▁රැජින	-10.6257
▁සනාථ	-10.6258
▁විවේචනය	-10.6259
▁සිදුකෙරුණා	-10.6261
ෙනි	-10.6261
▁භාරදුන්	-10.6263
▁ප්රංශය	-10.6273
▁උපයෝගිතා	-10.6276
▁වන්නි	-10.6276
භාග	-10.6278
▁සත්යග්රහය	-10.6279
▁ගිවිසුමකට	-10.6282
▁කැනඩාව	-10.6288
▁ලක්වීම	-10.6291
▁කුමාරතුංග	-10.6292
▁රටින්	-10.6294
▁ගලා	-10.6298
සැකකරු	-10.6301
▁පකිස්ථානය	-10.6304
▁වෙනස	-10.6306
▁පනවන	-10.6307
▁රඹුක්කන	-10.6309
රිස්	-10.6314
▁පෝලිම්වල	-10.6315
▁12ක්	-10.6316
▁පද්ධතියේ	-10.6318
▁යන්ත්රයක්	-10.6319
▁සතුටු	-10.6322
▁ඇට	-10.6323
42	-10.6325
▁කිරීමයි	-10.6326
▁චමින්ද	-10.6327
▁නිත්ය	-10.6327
▁ආසන්නයේදී	-10.6328
▁නාහිමියන්	-10.6329
▁බිල්පත්	-10.6331
▁කවුද	-10.6333
▁කිරිමෙන්	-10.6336
▁250	-10.634
▁පිලිබඳ	-10.6342
▁තීරණයකට	-10.6342
▁වනතුරු	-10.6344
▁අර්බුදයක්	-10.6346
▁දෙදරු	-10.6346
▁පෙරළී	-10.6348
▁නාමය	-10.6348
▁නොරොච්චෝලේ	-10.6355
තින්	-10.6357
▁77	-10.6359
▁දුන්න	-10.636
▁මල්ල	-10.6361
▁පසුවූ	-10.6362
සූ	-10.6364
▁බියගම	-10.6367
▁දිස්ත්රික්කයට	-10.6376
▁බැදුම්කර	-10.6378
▁පැහැති	-10.6378
▁භාණ්ඩාගාරය	-10.6379
▁සබ්රි	-10.6379
▁ශීත	-10.638
▁හරවා	-10.6402
▁හසු	-10.6405
▁සංස්ථා	-10.6407
▁85	-10.6411
▁සෝභිත	-10.6413
▁දේවාලයේ	-10.6418
▁අයිතියට	-10.6422
▁ප්රිය	-10.6423
▁50000	-10.6424
▁තරගයක්	-10.6429
▁දැක්වුණේ	-10.6431
▁දේවස්ථානය	-10.6431
▁විශේෂත්වයකි	-10.6435
▁මහත්ම	-10.6436
ියන්	-10.6437
▁පැනවීම	-10.6438
▁පීඩන	-10.6439
▁මුඛ	-10.644
▁කාණ්ඩය	-10.6442
▁තුරන්	-10.6443
▁අභියාචනාධිකරණ	-10.6444
▁අංකයට	-10.6445
▁සෙවීමේ	-10.6448
▁ප්රචණ්ඩ	-10.6449
▁සකසා	-10.6449
▁ඉලක්කයක්	-10.6453
බන්දු	-10.6456
▁චන්දිමාල්	-10.6466
▁ජවිපෙ	-10.6466
▁අසේල	-10.6466
▁භාරදීම	-10.6468
▁වේලාවක	-10.647
▁සිදුකල	-10.6474
▁පුරාම	-10.6475
මන	-10.6475
▁අන්තර්ගත	-10.6478
▁නාගොඩ	-10.6478
▁ටෙන්ඩර්	-10.6483
▁අර්බුදකාරී	-10.6484
▁තුනෙන්	-10.6485
▁පුෂ්පකුමාර	-10.6489
▁සිලින්ඩර	-10.6492
▁වාර්තාවට	-10.6494
▁වර්ජනයක	-10.6495
ic	-10.6497
ේය	-10.6498
▁තරයේ	-10.6498
▁චීනයට	-10.65
▁විසඳීම	-10.6502
▁මාල	-10.6503
▁ගැනිම	-10.6503
යුතු	-10.6507
තැ	-10.6507
▁රාජ්යය	-10.6508
පිට	-10.6513
▁ලදි	-10.6517
▁අභියෝගය	-10.6518
▁මීරිගම	-10.6518
▁අත්කර	-10.6519
▁වෙළෙඳපොළ	-10.6519
▁තීරය	-10.652
▁අසූ	-10.6523
▁තිබි	-10.6526
▁හෝටලයක	-10.6527
▁දෙනාම	-10.6529
▁එකයි	-10.6534
▁ඔලිම්පික්	-10.6536
කිරිම	-10.654
▁ලාංක	-10.6549
▁ගනේෂන්	-10.6554
▁හැකිවනු	-10.6554
▁ගයන්ත	-10.6554
ත්වයට	-10.6554
▁අධීක්ෂණ	-10.6555
▁විද්යාත්මක	-10.6555
▁පසුබිම	-10.6557
▁නොගෙන	-10.6561
කුලම	-10.6562
▁එකඟත්වය	-10.6563
▁තල්	-10.657
▁වෙළඳපොළ	-10.657
▁ස්ථීර	-10.6571
▁හැත්තෑ	-10.6571
Y	-10.6571
▁අසමත්	-10.6572
▁ජර්මනිය	-10.6572
▁පොඩි	-10.6574
▁විතරක්	-10.6579
ානු	-10.6582
▁මාදම්පේ	-10.6589
▁මැල්කම	-10.6589
▁පවිත්රා	-10.659
▁මාර්ෂල්	-10.659
▁සංචිතය	-10.6593
▁හී	-10.6594
▁පිලි	-10.6601
ටන්	-10.6601
ඉන්	-10.6605
▁නාලක	-10.6607
▁පසුපස	-10.6609
ේන්ද්ර	-10.6614
▁ලෙ	-10.6617
▁නංවන	-10.6617
ඩුව	-10.6621
▁ආනයනකරුවන්	-10.6621
▁රූප	-10.6622
▁අවස්ථාවන්	-10.6622
▁කර්මාන්තයේ	-10.6625
▁පිටාර	-10.6625
▁රෝහලේදී	-10.6626
▁ඇමෙරිකාවේ	-10.6628
▁05ක්	-10.6634
කෙ	-10.6641
▁අතරතුරදී	-10.6643
▁එළි	-10.6645
▁වටය	-10.6648
▁උත්සවයකදී	-10.6654
▁නීත්යානුකූල	-10.6655
පොත	-10.6658
▁කම්පනය	-10.666
▁සහතිකය	-10.6663
▁ආයතනවලට	-10.6663
▁රැස්වීමේ	-10.6666
▁40ක්	-10.6671
මර්	-10.6674
▁ප්රේමජයන්ත	-10.6674
▁මාලඹේ	-10.6678
▁100ක්	-10.6681
▁1500	-10.6683
රාව	-10.6689
▁ඇගයීම්	-10.6693
▁ගමනාගමනයට	-10.6698
සූරිය	-10.6698
▁ශතකය	-10.6699
▁කොස්තාපල්වරයා	-10.6703
▁පිටු	-10.671
▁එකවර	-10.6712
▁ආයතනයක	-10.6713
පර	-10.6715
▁ලකුණ	-10.6717
▁උරුමයේ	-10.6719
is	-10.6726
▁සවිකර	-10.6728
ඩිය	-10.6729
ේදි	-10.673
▁පාරිභෝගිකයින්	-10.673
▁නෙළුම්	-10.6732
▁සොරකම	-10.6733
▁සුපර්	-10.6734
▁දුරට	-10.6734
ch	-10.6741
▁අවස්ථාවල	-10.6741
▁වූහ	-10.6747
▁බම්බලපිටිය	-10.675
රාම	-10.675
▁වික්රමරත්න	-10.675
▁උපාලි	-10.6751
ජිත්	-10.6752
▁ගිවිසුමක්	-10.6752
පෙළ	-10.6755
▁ගමනාගමනය	-10.6759
▁අවු	-10.676
▁ගොඩනැගීම	-10.6762
▁නැග	-10.6765
▁මිතුරන්	-10.6768
▁සූරියවැව	-10.6768
▁ඥානසාර	-10.6768
▁කෙටුම්පතට	-10.6769
▁ලක්කර	-10.677
වේදි	-10.6771
▁පත්රයක්	-10.6771
▁නිවසකට	-10.6776
▁මැරෙන	-10.6778
▁සෙවීම	-10.6781
47	-10.6786
▁ආර්ථිකයක්	-10.6788
ර්ස්	-10.6788
▁මර	-10.6789
▁විකුණා	-10.679
▁අම්මා	-10.6791
▁වසම්	-10.6792
▁එවා	-10.6793
▁චිත්රපටය	-10.6796
▁වර්ෂාපතනය	-10.68
▁දැනුම්දෙන	-10.6801
▁නැව	-10.6802
▁නමැත්තා	-10.6804
▁බෙහෙත්	-10.6804
කයන්	-10.6807
ාවේ	-10.6814
▁යුද්ධයෙන්	-10.6816
▁දෙදෙනාට	-10.6817
▁පණිවිඩයක්	-10.6822
▁අත්හදා	-10.6822
▁මෙයට	-10.6827
▁සමගම	-10.6827
▁වෙළඳසැල	-10.6828
▁පත	-10.6833
▁රටකට	-10.6834
▁පෑ	-10.684
▁ශල්ය	-10.684
▁කන්තලේ	-10.6841
▁පොලොන්නරුව	-10.6841
▁තිරසාර	-10.6841
▁හඹා	-10.6841
තිර	-10.6846
▁ක්රියාකාරීන්	-10.6848
ra	-10.6851
▁කොන්ත්රාත්	-10.6857
ජනාධිපති	-10.6857
▁ආසියා	-10.6857
▁යටතට	-10.6859
▁ක්රිස්	-10.6859
▁මැඩ	-10.6861
ලාල්	-10.6862
▁වාසය	-10.6863
▁තරුණයාගේ	-10.6865
▁ගෙන්වන	-10.687
▁අවධානයට	-10.6871
▁විදුහල	-10.6874
▁විජේසිංහ	-10.6877
ඞී	-10.6881
▁බලාත්මක	-10.6888
▁නලින්	-10.6888
▁හතරේ	-10.6889
▁ඉටුකර	-10.6894
▁78	-10.6894
▁සබදතා	-10.6896
▁පාපැදි	-10.69
▁එදිනට	-10.6903
▁කථා	-10.6903
▁නිල්	-10.6903
▁කරගන්නා	-10.6904
▁අහ	-10.6906
▁අවස්ථාවලදී	-10.6907
▁සිරිසේනගේ	-10.6913
▁නිට්ටඹුව	-10.6914
▁බැරලයක	-10.6914
▁පොත	-10.6915
32	-10.6917
යාට	-10.6919
හිර	-10.6919
▁විවෘතව	-10.693
▁කතෝලික	-10.6932
▁ජලසම්පාදන	-10.6932
▁ක්රමවේද	-10.6932
▁ජනබලවේගය	-10.6934
▁ජයග්රහණයක්	-10.6934
▁2500	-10.6935
▁තරුණයෙක්	-10.6939
▁අමු	-10.6941
▁පදක්කම	-10.6941
▁කරුණ	-10.6944
▁ක්රීඩකයන්	-10.6946
▁බැලීමෙන්	-10.6947
▁දෙනාගෙන්	-10.6949
▁දහසක	-10.695
▁සිසිර	-10.695
▁නිධන්	-10.695
▁පාඩම්	-10.6951
▁ඉල්ලීමකට	-10.6952
එසේ	-10.6955
▁දවසේ	-10.6957
▁69	-10.6961
▁සිංගප්පූරු	-10.6962
▁අඩුවක්	-10.6967
▁ප්රහාරක	-10.6967
ිල්	-10.6968
▁හර	-10.6976
▁අලෙවිය	-10.6978
▁බහුතරය	-10.698
▁ගැටලුවට	-10.6983
දෝ	-10.6986
▁කෘත්යාධිකාරී	-10.6987
▁අසාධාරණ	-10.6993
▁පත්රිකාව	-10.7
▁පෙම්වතා	-10.7006
▁සම්බාධක	-10.7006
▁වැඩකටයුතු	-10.7007
▁රවි	-10.7008
▁සිංගප්පූරුවේ	-10.7015
▁පුරවැසි	-10.7015
▁පුද්ගලයාට	-10.7017
▁ප්රසාද	-10.7019
▁ඕස්ට්රේලියාවේ	-10.702
▁ආධාරකරුවන්	-10.7024
▁මහියංගනය	-10.7027
▁මුදලකට	-10.7031
▁නොලැබුණු	-10.7032
▁වතාවට	-10.7037
▁ගැටලූ	-10.7038
▁තුලදී	-10.7039
▁කොතලාවල	-10.7043
▁වීරතුංග	-10.7043
▁ගණිකා	-10.7043
▁මදුරුවන්	-10.7046
▁කට්ටල	-10.7049
ටිය	-10.7056
▁ඒකකයක්	-10.7058
▁දැරියක	-10.7058
▁පුරවැසිභාවය	-10.7063
ශීලී	-10.7063
▁චන්න	-10.7065
▁මහෙස්ත්රාත්	-10.7069
▁ගණනය	-10.7072
▁කැෆේ	-10.708
▁එනිසා	-10.708
ඩබ්ලිව්	-10.7084
▁ප්රකට	-10.7085
▁උතුම්	-10.7086
▁උද්ඝෝෂණයක	-10.7092
දායක	-10.7093
▁J	-10.7097
▁ක්ෂණික	-10.7097
▁මානුෂීය	-10.7099
▁උපන්	-10.71
▁වගන්ති	-10.7103
▁නේවාසික	-10.7105
▁පැවැත්වේ	-10.7106
▁අරුණ	-10.7115
▁මියයන	-10.7115
▁කුකුළු	-10.7117
▁එකඟතාවය	-10.7123
යන්ගෙන්	-10.7125
▁25ක්	-10.7128
▁බෙදීම	-10.713
කුමාර	-10.713
ලෙස	-10.7133
කරුවන්ගේ	-10.7135
▁කිරීමටද	-10.7135
▁පොසොන්	-10.7136
▁බ්රිගේඩියර්	-10.7136
▁බිමට	-10.7138
▁මීටර	-10.714
▁යුක්තිය	-10.7145
ලක්	-10.7148
▁පුපුරා	-10.7151
▁සැකකරුට	-10.7152
▁68	-10.7152
▁පරිවර්තනය	-10.7153
▁වෙල්ගම	-10.7155
▁ශරීරාගාරයේ	-10.7155
▁රැස්වන	-10.7155
▁ජනමත	-10.716
▁රෝගීන්ට	-10.7161
▁කොල්ලකරුවන්	-10.7162
▁බිද	-10.7164
ැයි	-10.7173
▁සිරිවර්ධන	-10.7174
▁තනතුරට	-10.7175
▁සංඛ්යා	-10.7185
▁ජන්ද	-10.7188
▁රාජා	-10.7191
▁කි්රයා	-10.7192
▁මාළඹ	-10.7193
90	-10.72
▁සරණාගත	-10.7205
ලක්ෂ	-10.7209
▁මීතොටමුල්ල	-10.7211
▁ජාතිකයා	-10.7213
චාර	-10.7218
▁ෂී	-10.7222
▁ව්යවසාය	-10.7225
▁වාහනය	-10.7226
ිස්	-10.724
▁ඉදිරිපිටදී	-10.7242
▁දේශපාලනික	-10.7244
000කට	-10.7249
▁කෘෂිකර්මාන්තය	-10.725
▁මිරිස්	-10.7253
▁ස්වභාවය	-10.7253
▁එක්වී	-10.7254
▁ඉර	-10.7256
▁නිලධාරීවරයා	-10.7257
▁ඇමතිවරු	-10.7258
▁අනවසරය	-10.7259
▁මුව	-10.7259
▁සංකල්පය	-10.7261
▁පිං	-10.7262
▁පෙළෙන	-10.7263
▁ජෛව	-10.7268
▁තඹුත්තේගම	-10.7268
▁බාරදී	-10.7269
▁නිලධාරිනිය	-10.7271
▁ජනහමුවක	-10.7276
▁පිතිකරු	-10.728
▁සීගිරිය	-10.7288
▁පිළිගත	-10.7289
▁වේග	-10.729
▁O	-10.7291
▁බොක්ක	-10.7297
▁හේම	-10.7302
▁නල	-10.7305
▁ක්රියාදාමය	-10.7306
බූ	-10.7308
▁ගල්ගමුව	-10.731
▁විමසීමේ	-10.7311
▁දක්ෂ	-10.7313
පෝ	-10.7313
්රල්	-10.7313
▁යොමුකරන	-10.7314
▁සිටිනු	-10.7315
▁යානයෙන්	-10.7319
▁බෝග	-10.7321
▁පොලිස්පතිවරයාට	-10.7326
▁පාඨමාලාව	-10.7329
▁තරු	-10.7332
▁අඹ	-10.7332
ed	-10.7333
▁දිනයේදීත්	-10.7335
දහස්	-10.7339
▁විග්නේෂ්වරන්	-10.734
▁ඉක්මවූ	-10.7344
▁ගසක	-10.7344
▁සාවද්ය	-10.7344
▁of	-10.7345
▁ප්රසාද්	-10.7348
▁නිළධාරින්	-10.7348
▁අසාධාරණයක්	-10.7354
▁පෝෂණය	-10.7356
▁සභාවක්	-10.7356
▁14ක්	-10.7357
ාකාර	-10.7359
▁පොකුර	-10.736
▁පැහැදිලිව	-10.7361
▁කොස්	-10.7362
▁පදික	-10.7365
▁ඉඩම	-10.7366
la	-10.7367
▁0112	-10.7368
▁තරුණියක්	-10.7371
▁තිබිණ	-10.7373
▁ප්රදේශයක්	-10.7375
▁ගුරුවරයා	-10.7378
▁පෙළපාලිය	-10.7379
▁පාලනයක්	-10.738
▁පාලනාධිකාරිය	-10.7383
▁ගොඩබිම	-10.7385
ට්ර	-10.7387
▁ඉදිකළ	-10.7394
දෙනිය	-10.7396
▁ඝාතනයක්	-10.7398
▁දුරින්	-10.7398
▁තත්වයට	-10.7399
වෙයි	-10.7399
▁වජිර	-10.7402
▁තෙවැනි	-10.7403
▁උද්ඝෝෂණයක්	-10.7403
▁අමතා	-10.7405
▁the	-10.7405
▁දසුන්	-10.7412
ආර	-10.7414
▁රදවා	-10.7415
▁සිංහ	-10.7415
▁නිෂ්පාදකයින්	-10.7416
▁පහත්	-10.7418
කෙර	-10.7421
▁පංච	-10.7422
▁හෝටලයේ	-10.7426
▁පරිභෝජනය	-10.7428
▁ධූරයෙන්	-10.7428
69	-10.7429
▁සෘජු	-10.7432
▁මෛත්රී	-10.7435
▁විම	-10.7437
▁වාර්තාවන	-10.7438
Z	-10.7441
▁3ක	-10.7443
▁සිරවී	-10.7444
▁මුද්රා	-10.7445
▁වුණත්	-10.7448
▁ගැල	-10.7449
▁පේ	-10.745
▁පිටවීම	-10.7456
▁විශේෂිත	-10.7456
▁ජනබලවේගයේ	-10.7458
රට	-10.7458
▁කුල	-10.747
▁ඇයව	-10.7472
සුන්	-10.7473
▁කුරු	-10.7479
▁හංවැල්ල	-10.7479
▁පැළඳ	-10.7479
X	-10.7479
ිරි	-10.7482
▁පාරිභෝගිකයන්	-10.7486
▁සැරයන්	-10.749
▁එතකොට	-10.7499
▁බද්දේගම	-10.7499
▁රෝගීන්ගේ	-10.75
▁තොගයේ	-10.7508
▁මැදිහත්වීමෙන්	-10.7508
▁නොදීම	-10.7515
වාසී	-10.7519
▁ඇසළ	-10.7521
▁ශ්රේණිය	-10.7526
ඔ	-10.7532
▁දෙදෙනාගේ	-10.7533
▁පැදි	-10.754
▁යුක්රේනයට	-10.754
▁140	-10.7543
ත්වයෙන්	-10.7544
▁ගෙවන්න	-10.7548
52	-10.7549
K	-10.755
▁අරමුණයි	-10.7557
නන්	-10.756
▁දර්ශනය	-10.7563
▁ආරාධනය	-10.7567
▁පැනීම	-10.7571
කරුවන්ට	-10.7572
ජය	-10.7574
▁අහස	-10.7577
රාජ	-10.7578
වුවහොත්	-10.7579
▁නුවන්	-10.7589
▁අපරාධය	-10.7594
▁ස්තූතිය	-10.7599
▁ජානක	-10.7601
▁ඇල්ලීම	-10.7601
▁දඩයක්	-10.7602
▁එළියට	-10.7604
▁ඉල්ලීමට	-10.7609
▁චෝදනාවක්	-10.7611
ංගල	-10.7613
▁සක්රීය	-10.7616
▁පෙදෙස	-10.7616
▁ගෙනවිත්	-10.7617
▁ප්රසාදය	-10.7618
▁ගීත	-10.7618
▁වෛරස	-10.7623
▁වර්ජනයට	-10.7626
▁නැතිනම්	-10.7629
▁සමගිය	-10.7636
▁රවුෆ්	-10.7636
ටුව	-10.7637
▁ඇණ	-10.7639
▁කළයුතු	-10.7639
▁කන	-10.764
▁නිරතවන	-10.7641
▁බහු	-10.7645
▁නිවාරණ	-10.7651
▁සභාවේදී	-10.7655
▁කළුබෝවිල	-10.7655
▁අමරතුංග	-10.7656
▁වෙරළාරක්ෂක	-10.7656
▁උගත්	-10.7659
▁දෙකට	-10.7659
▁මාරුවීම්	-10.7663
▁මිත්ර	-10.7663
▁මාලාවක්	-10.7667
▁සූදානමක්	-10.7669
▁නොසලකා	-10.7675
▁සැතපුම්	-10.7675
▁පහසුවෙන්	-10.7676
▁හේමන්ත	-10.7677
▁යෝජනාවලිය	-10.7678
▁එවිට	-10.7681
▁විමසීමේදී	-10.7683
▁වන්නට	-10.7683
▁දුම්රියක්	-10.7683
▁ස්ථාවරත්වය	-10.7686
▁රාත්රිය	-10.7693
▁ඵලදායී	-10.7695
▁අවදානය	-10.7695
▁130	-10.77
▁සහෝදර	-10.77
ෝප	-10.7703
ට්ටු	-10.7705
▁යහපාලනය	-10.7707
▁කිසිවෙකුත්	-10.7708
▁ඉල්ලුම්	-10.7713
▁සිද්ධියකට	-10.7714
ෂ්ඨ	-10.7715
▁හදා	-10.7715
▁කැඳවමින්	-10.7715
▁අතුරුගිරිය	-10.7715
▁විසඳීමට	-10.7718
▁එක්කර	-10.772
▁සංවාද	-10.7723
▁බේරාගෙන	-10.7723
ට්ස්	-10.7728
විමට	-10.7729
▁විකිණීම	-10.7731
▁දීප	-10.7731
▁නවීන්	-10.7732
▁මහත්මියගේ	-10.7733
▁කාරුණිකව	-10.7735
▁බෑවුම්	-10.7737
▁සේවයක්	-10.7742
▁අපහසුතා	-10.775
▁පස	-10.775
▁සුර	-10.7753
▁සුරක්ෂිතතාව	-10.7757
▁කරුණා	-10.7758
▁යුවළ	-10.7761
සක්	-10.7766
▁සමස්ථ	-10.7771
▁ප්රේමචන්ද්ර	-10.7772
ුල්	-10.7776
▁අශෝක	-10.7777
▁වීදිය	-10.7786
ඡ	-10.7794
කුලම්	-10.7794
▁පිරිනැමීම	-10.7795
▁කැපීම	-10.7795
as	-10.7796
▁පුතු	-10.7801
එෆ්	-10.7805
▁පල්ලිය	-10.7813
▁විකෘති	-10.7815
▁නොදී	-10.7815
▁කරලීම	-10.7825
▁දුක්	-10.7826
▁ඩොනල්ඩ්	-10.7835
▁සේමසිංහ	-10.7835
▁සමාලෝචනය	-10.7836
▁කාමර	-10.7836
▁රාජකාරියේ	-10.7837
▁හමුවීම	-10.7838
▁ආචාර්යවරුන්ගේ	-10.7839
▁උර	-10.7843
▁සම්ප්රදාය	-10.7853
▁වටිනාකමින්	-10.7853
▁රග්බි	-10.7855
▁වංචනික	-10.7855
▁ව්යවස්ථාදායක	-10.7856
ුණේ	-10.7858
▁රජු	-10.7859
▁පුහුණුකරු	-10.7861
▁ක්රීඩකයා	-10.7862
▁2005	-10.7866
▁අවමංගල්ය	-10.7875
▁ඇඳුම	-10.7875
▁විනෝද	-10.7875
▁සැකකටයුතු	-10.7875
▁ඇස්තමේන්තු	-10.7876
▁ගැණුනා	-10.7876
▁ඉතින්	-10.7877
ගන්නට	-10.7878
▁හමන	-10.7887
▁76	-10.7887
▁දෙස්	-10.7889
72	-10.7894
භේද	-10.7894
nd	-10.7904
▁සම්බන්ධයෙන්ද	-10.7905
▁ජාවාරමට	-10.7906
▁තැ	-10.7907
▁කුවේට්	-10.7915
▁සලකන	-10.7921
▁පූජිත්	-10.7923
▁යවන්නන්	-10.7923
▁භූමියට	-10.7927
▁රුසියාවට	-10.7928
▁පරීක්ෂාව	-10.7931
▁5ක	-10.7935
▁උසස්වීම්	-10.794
▁කලාපයට	-10.7941
▁11ක්	-10.7944
▁හැරී	-10.7947
▁පිහිට	-10.7948
▁සංස්ථාවට	-10.7953
▁73	-10.7954
▁විශේෂඥයින්	-10.7955
▁ත්රස්තවාදීන්	-10.7958
▁ඉතාලියේ	-10.7959
සේකර	-10.796
▁සතියේදී	-10.7963
▁සතුට	-10.7965
ාධිපති	-10.7966
ෂන්	-10.7967
▁අදහසක්	-10.7971
ලන්කන්	-10.7974
▁තෝරාගත්	-10.7977
▁සංග්රහය	-10.7977
▁තුන්දෙනා	-10.7978
un	-10.798
▁දූෂිත	-10.7981
▁අපහසුතාවයට	-10.7982
ානි	-10.7983
චු	-10.7984
▁හිමිවිය	-10.7986
▁වදින	-10.7987
▁පැනවීමට	-10.7997
▁යොමුවී	-10.7997
▁පිවිතුර	-10.7997
▁අභියෝගයට	-10.7999
▁විවේක	-10.8
▁වෙළඳුන්	-10.8
▁මුණ	-10.8
▁මුහුණට	-10.8
▁මුදාහැරීමට	-10.8001
▁ධූර	-10.8002
▁ගමට	-10.8005
▁පාර්ශ්වය	-10.8008
▁කැලණි	-10.8008
▁ජනාධිපතිවරණයට	-10.8009
කරන්න	-10.801
ඨ	-10.8011
▁වතාවක්	-10.8011
වේදීන්	-10.8012
කළා	-10.8013
▁වැලිමඩ	-10.8018
▁හරීන්	-10.8018
▁කිලිනොච්චි	-10.802
▁ගෙව	-10.802
ීස්	-10.8027
▁අපේක්ෂකයෙකු	-10.8029
▁කුමන්ත්රණය	-10.803
දරු	-10.8033
පිය	-10.8034
ගැනීමේ	-10.8036
▁මිලිමීටර	-10.8036
▁ලද්දේ	-10.8038
▁අමරසිංහ	-10.8038
දාන	-10.8042
▁ලේකම්වරිය	-10.8044
▁විනාශයට	-10.8048
▁චරිත	-10.805
▁එනු	-10.8051
▁350	-10.8052
▁කබ්රාල්	-10.8058
▁නොසන්සුන්කාරී	-10.8059
▁පත්වීමට	-10.8062
▁නමක්	-10.8063
▁ගෙන්වීම	-10.8065
▁අලියෙකු	-10.8067
▁හැඳුනුම්පත්	-10.8072
ලෙයි	-10.8073
59	-10.8075
▁දූපත්	-10.8078
▁මොහොතකට	-10.8078
▁දිවුලපිටිය	-10.8079
▁යොවුන්	-10.8079
▁ආචාර්යවරුන්	-10.808
▁ගම්පොළ	-10.808
ලෙ	-10.8081
ලං	-10.8083
තුව	-10.8086
▁නිවේදන	-10.8089
▁රථයෙන්	-10.809
▁සාක්ෂිකරු	-10.8097
වම	-10.8098
▁පරිභෝජනයට	-10.8101
▁මරාගෙන	-10.8105
▁කරමු	-10.8107
▁කමල්	-10.8117
ෆා	-10.8131
▁දහම්	-10.8137
▁පෙරාතුව	-10.8141
▁සංවේදී	-10.8143
▁ලාංකීය	-10.8143
▁විත්තිකරු	-10.8143
▁අභ්යවකාශ	-10.8162
▁රියදුරෙකු	-10.8162
▁චි	-10.8162
▁අතුරින්	-10.8163
▁නිලවරණය	-10.8164
▁දායකත්වයක්	-10.8167
▁ඔබතුමා	-10.8168
▁දියර	-10.817
▁දුම්රියක	-10.8171
ගල්ල	-10.8176
▁කරන්නන්	-10.818
▁71	-10.818
▁සැලකිලිමත්	-10.8182
▁පුටින්	-10.8183
▁දිල්ලි	-10.8183
▁සත්	-10.8184
ූර්	-10.8184
▁මෑතකදී	-10.8186
▁පිතිකරුවන්	-10.8191
▁පැමිණීමේ	-10.8191
▁74	-10.8192
▁දෑ	-10.8197
▁විතරයි	-10.8198
▁දැරීමට	-10.8198
සෙන	-10.8201
▁දැකගත	-10.8201
▁නිශ්ශංක	-10.8203
Q	-10.8203
හේ	-10.8204
▁ආර්යා	-10.8205
▁නිවන	-10.8205
▁බවත්ය	-10.8208
▁අනුපාත	-10.8211
▁පරිශ්රයේදී	-10.8214
නක්	-10.8214
▁චීනයෙන්	-10.8214
▁සැත්කම	-10.8223
▁පෙරටුගාමී	-10.8224
▁පොහොය	-10.8224
▁කිරිබත්ගොඩ	-10.8224
▁පිවිසෙන	-10.8231
▁මසකට	-10.8231
▁දේවාලය	-10.8232
▁පත්වීමෙන්	-10.8233
▁නොහොත්	-10.8237
▁ජනාධිපතිවරණයේදී	-10.8238
▁සිරගත	-10.8239
▁ප්රවේශය	-10.8239
මත	-10.8245
▁බිබිල	-10.8245
▁ජාතිවාදය	-10.8245
▁දික්ඔය	-10.8245
▁සමාජයක්	-10.8247
▁කහවත්ත	-10.8249
▁බහාලුම්	-10.825
▁ගොඩනැගීමට	-10.8253
▁කාර්යයන්	-10.8254
▁10000	-10.8257
▁බෝවන	-10.826
▁ගුරුවරිය	-10.8263
43	-10.8263
තාවක්	-10.8264
හේවා	-10.8265
▁අත්තනෝමතික	-10.8266
▁අතුල	-10.8266
▁චමල්	-10.8267
77	-10.8269
▁වැලිකන්ද	-10.8269
▁ඇමැති	-10.827
▁බේර	-10.8274
▁යානයේ	-10.8275
▁මෙහෙයවීම	-10.8282
▁වාහනයක්	-10.8286
රූ	-10.8288
▁සිව්වන	-10.8289
දාස	-10.829
▁වතුයායේ	-10.8291
▁රියදුරුට	-10.8292
▁කිරීම්වලදී	-10.8299
▁බෙද	-10.8302
▁සභානායක	-10.8303
▁ජයග්රහණ	-10.8304
▁සුබසාධන	-10.8306
▁නගරාධිපතිවරයා	-10.8306
▁ඇබ්බැහි	-10.8308
▁ගෙළ	-10.831
▁පවරන	-10.8311
▁නිකායේ	-10.8317
ියක්	-10.8321
▁කටයුතුවලින්	-10.8325
▁ක්රියාවන්	-10.8326
▁ලන්ඩන්	-10.8329
▁ඇගයීමට	-10.8331
▁අසන	-10.8331
▁පවුල	-10.8331
▁ආචාර	-10.8332
▁පැමිණීමෙන්	-10.8335
ර්ථ	-10.8337
▁මිට	-10.8337
▁බ්රිතාන්යය	-10.8342
▁පණිවිඩය	-10.8343
▁කෙරිණ	-10.8343
ත්රා	-10.8344
▁රසායනාගාර	-10.8353
▁180	-10.8356
▁කලාකරුවන්	-10.8358
▁දැමීමේ	-10.8361
ලංකා	-10.8362
▁පද	-10.8363
▁මව්	-10.8364
▁විරෝධතාවයක	-10.8365
ියානු	-10.8367
▁ක්රීඩාංගණය	-10.8368
ඩො	-10.8368
0000	-10.8368
▁ඔසවා	-10.8371
37	-10.8372
වර්ධන	-10.8373
කිරීම්	-10.8378
▁රැස්ව	-10.8381
▁පැෆ	-10.8383
▁ස්වාමි	-10.8383
▁සාදය	-10.8385
▁වාර්තාවල	-10.8389
▁කැසිනෝ	-10.8393
▁තුෂාර	-10.8393
▁මහමැතිවරණය	-10.8393
ණ්ඩු	-10.8394
▁අරගලකරුවන්	-10.8399
වන්ත	-10.8403
▁සංචාර	-10.8404
▁කොඩි	-10.8407
▁අදියරේ	-10.8411
▁පස්වන	-10.8413
▁පිරවුම්හල	-10.8416
▁බලධාරීන්ගේ	-10.8417
▁දාලා	-10.8417
ජාතික	-10.8417
පාර්ලිමේන්තු	-10.8418
▁හිසට	-10.8419
රණය	-10.8422
38	-10.8426
▁පීලි	-10.8434
▁මින්නේරිය	-10.8435
▁සීමිත	-10.8435
▁කොට්ඨාසයට	-10.8436
73	-10.8437
වැලි	-10.8438
මුදු	-10.8438
▁විදුහලේ	-10.8438
සැකකරුවන්	-10.8443
▁50ක	-10.8444
▁මධ්යස්ථානයට	-10.8446
▁බඩ	-10.8452
▁වාස්	-10.8454
▁ලොතරැයි	-10.8457
▁පාලනයට	-10.8458
▁පහරදීමෙන්	-10.8459
▁සංරක්ෂණය	-10.846
▁වනෝද්යානය	-10.8461
▁දහය	-10.8461
▁නුවරදී	-10.8461
▁ලක්ෂය	-10.8466
▁වැටෙන	-10.8466
පාලි	-10.8467
▁කිසිසේත්ම	-10.8467
▁40000	-10.847
ධුරය	-10.8476
▁සුළගේ	-10.8478
▁හබරණ	-10.8479
▁මූන්	-10.848
▁ස්වල්පයක	-10.8481
ලැ	-10.8483
▁ජාලයේ	-10.8484
▁තමිල්	-10.8486
▁වැඩක්	-10.8488
▁ඉගෙන	-10.8489
▁සීමාවන්	-10.8493
මාල්	-10.8493
බෙ	-10.8493
▁බුද්ධික	-10.8495
▁කාර්යංශය	-10.8495
වැනිදා	-10.8498
▁එනවා	-10.85
▁අංගොඩ	-10.85
▁මුහුණදී	-10.8501
▁විරෝධීව	-10.8501
▁කේන්ද්රය	-10.8502
▁එල්ලවන	-10.8508
▁ලැ	-10.851
▁පීඨය	-10.851
▁දැනුම්දීමේ	-10.8517
▁අවතීර්ණ	-10.8521
▁තුඩු	-10.8525
▁කුමාරසිංහ	-10.8526
▁නගා	-10.8529
න්ට්	-10.8531
සියා	-10.8532
▁ඒවාට	-10.8534
▁උන්	-10.8535
▁පාඨමාලා	-10.8539
▁වැඩමුළුව	-10.854
▁දිශාව	-10.8544
සැල්	-10.8545
පිළි	-10.8548
▁සංකීර්ණ	-10.8553
▁ගමේ	-10.8554
▁චාරිකාව	-10.8555
▁අවස්ථාවකදී	-10.8556
▁විවාහක	-10.8557
▁ගොනුකළ	-10.8559
▁අධිකාරීවරයා	-10.856
▁ජනයා	-10.8561
▁ධනංජය	-10.8564
▁ආයෝජකයින්	-10.8564
▁අතුරලිය	-10.8565
▁110	-10.8565
▁සතියකට	-10.857
ation	-10.8571
▁යැවූ	-10.8573
▁නවීකරණය	-10.8577
▁නියාමනය	-10.858
▁කිලෝවක	-10.8581
ධාන	-10.8581
41	-10.8581
▁නිමාව	-10.8585
▁මස්කෙළිය	-10.8586
▁උඩවලව	-10.8586
▁දික්වැල්ල	-10.8586
ක්ෂා	-10.8589
▁සොයාබැලීම	-10.859
▁ඉඩමක	-10.8595
බිම	-10.8596
▁රැහැන්	-10.8597
වීමක්	-10.8598
දැමීම	-10.86
▁දැනුම්දීමක්	-10.8603
▁කළහ	-10.8606
▁එක්වෙමිනි	-10.8608
▁ස්ත්රී	-10.8608
▁පරික්ෂක	-10.8609
▁පැවැත්විණි	-10.8611
▁රංගේ	-10.8615
▁විෂමතා	-10.8618
සිටි	-10.8621
▁මැදිරි	-10.8626
▁ඉස්ලාම්	-10.8629
▁ගලේවෙල	-10.8629
▁කැදවූ	-10.8629
▁උවදුර	-10.8629
▁පෙන්වාදෙන්නේ	-10.863
▁පහසුව	-10.8633
▁පුවත	-10.8634
▁වෙලාවේ	-10.8634
▁මුදලට	-10.8636
▁දිස්ත්රීක්කයේ	-10.864
▁මධ්යස්ථානවල	-10.8641
ංගු	-10.8642
▁යොදවන	-10.8644
▁ක්රි	-10.8646
66	-10.8646
▁දැනගැනීම	-10.865
▁තැන්පතු	-10.8651
▁නිරාකරණය	-10.8651
▁ප්රශ්ණ	-10.8651
▁පැකට්	-10.8655
▁ගිණුමේ	-10.8659
තිව්	-10.866
▁රාජකාරියට	-10.866
▁බැන	-10.8663
▁සත්කාරක	-10.8665
▁දන්නා	-10.8672
▁මර්ධන	-10.8674
▁පිළිවෙත	-10.8674
▁දඩුවම	-10.8674
▁හෙළිව	-10.8686
ඊට	-10.8686
▁සම්පත	-10.8686
▁කාණ්ඩ	-10.8688
▁ආදර්ශ	-10.8694
▁මැදවච්චිය	-10.8695
▁බද්ධ	-10.8696
82	-10.8697
▁වනාන්තර	-10.8698
ඩ්ස්	-10.8699
▁පළාතෙන්	-10.8702
80ක්	-10.8702
▁පුවරු	-10.8705
▁අසලින්	-10.871
▁මාව	-10.8715
▁අබේගුණවර්ධන	-10.8717
▁සුරේෂ්	-10.8717
▁දක්වයි	-10.8717
34	-10.8718
▁බෑගය	-10.8718
▁අනූ	-10.8722
ාංශ	-10.8725
තිස්ස	-10.8725
▁අභියෝගයක්	-10.8726
▁හයේ	-10.873
▁රෝහලක	-10.8731
ාංග	-10.8737
▁එංගලන්තයේ	-10.8738
▁දිනවලදී	-10.8738
▁කොත්මලේ	-10.8739
▁අනුස්මරණ	-10.8739
▁20ක	-10.8739
▁බවුසර්	-10.8739
▁මෝසම	-10.8739
මෙහිදී	-10.874
යින්ට	-10.8753
▁හිමිවුණා	-10.8753
බඳ	-10.8754
▁3000	-10.8756
ගන	-10.8757
▁ආණමඩුව	-10.8761
▁ක්රියාකලාපය	-10.8761
▁මාලදිවයින	-10.8762
▁15000	-10.8766
▁සමාගමකට	-10.8772
▁සම්බන්ධන්	-10.8775
▁වරින්	-10.8779
රමින්	-10.8782
▁විජේ	-10.8783
▁ඇලෝසියස්	-10.8783
▁වාචික	-10.8783
▁අමුද්රව්ය	-10.8783
▁ඇසුරුම්	-10.8786
▁රැස්වී	-10.8786
▁ගින්නට	-10.8789
▁අඩ	-10.8789
▁සේවයෙන්	-10.8792
▁මුද්රණ	-10.8792
ol	-10.8792
▁ඇඟවීම	-10.8804
▁ප්රිශාන්ත	-10.8805
▁පාදුක්ක	-10.8805
▁ගිළී	-10.8805
▁මර්වින්	-10.8805
▁මැදිරිගිරිය	-10.8805
▁https	-10.8805
▁වෙළෙද	-10.8808
වාසීන්	-10.8813
▁හොද	-10.8815
▁සතියක්	-10.8816
▁භාරදෙන	-10.882
▁පාරට	-10.882
▁හුදකලා	-10.8827
▁වෙන්දේසිය	-10.8829
▁යාල	-10.883
නාත්	-10.8831
▁නිලධාරියෙක්	-10.8832
▁කලක	-10.8837
▁ඉරානය	-10.8839
▁බලධාරීන්ගෙන්	-10.8839
▁හෙලි	-10.8842
අමාත්ය	-10.8843
▁සේම	-10.8845
රයක්	-10.8845
වංශ	-10.8845
▁ලො	-10.8847
▁අර්තාපල්	-10.8849
▁චාල්ස්	-10.885
▁සැලසීමට	-10.885
▁යාත්රාවේ	-10.885
▁කාමරය	-10.8859
▁අදාලව	-10.8861
▁බිලි	-10.8861
▁ලබාදීමෙන්	-10.8866
il	-10.8867
▁ඩේවිඩ්	-10.8872
▁ගැනීමටත්	-10.8872
▁ලිපිනය	-10.8872
▁විනාශය	-10.8877
ැන්	-10.8878
▁වචන	-10.8881
▁බැහැරව	-10.889
▁දුෂණය	-10.8893
▁ත්රීකුණාමලය	-10.8894
▁වයිරස	-10.8895
▁පංති	-10.8898
▁ඊළඟ	-10.8898
▁අත්හිටුවීම	-10.8901
▁නවරත්න	-10.8903
▁වරටත්	-10.8903
▁අඩුම	-10.8909
අමාත්යවරයා	-10.8909
▁නිදහසේ	-10.891
▁කාන්තාවකට	-10.8911
▁ඉදිකරන	-10.8912
හට	-10.8915
▁ගෝන	-10.8916
▁නිරතවූ	-10.8916
▁අප්රසාදය	-10.8916
▁හොංකොං	-10.8916
▁ග්රෑන්ඩ්පාස්	-10.8916
▁ගිහාන්	-10.8916
▁දිගුකාලීන	-10.8917
▁2006	-10.8917
කඩුව	-10.892
▁නොදුන්	-10.8927
▁වර්ෂයේදී	-10.8929
el	-10.8932
44	-10.8934
▁කාන්තාවකගේ	-10.8936
68	-10.8938
▁බිරිද	-10.8939
▁පෝස්ටර්	-10.8939
▁යූරියා	-10.894
▁බැලිය	-10.894
▁කාන්තාවන්ට	-10.8942
▁වර්ෂාපතනයක්	-10.8944
▁ගබඩාව	-10.8946
▁මොකක්ද	-10.8947
▁වශයෙන්ම	-10.8948
▁ප්රංශයේ	-10.8952
▁හල්	-10.8956
ර්ශ	-10.8959
▁භාරගැනීම	-10.896
▁තණමල්විල	-10.8961
▁තහඩු	-10.8961
▁සයිනොෆා	-10.8961
▁වළක්වාලමින්	-10.8961
▁ස්වර්ණ	-10.8961
36	-10.8965
▁ශිල්පි	-10.8966
▁ත්රි	-10.8973
▁හදුන්වා	-10.8976
SL	-10.8981
▁කොමියුනිස්ට්	-10.8984
▁සාම්ප්රදායික	-10.8984
▁06ක්	-10.8984
▁දේශනය	-10.8985
48	-10.8986
▁අස්වීම	-10.899
▁පැල	-10.8994
▁තීරු	-10.8994
▁ශ්රමිකයන්	-10.9003
▁මාරාන්තික	-10.9006
▁වේයන්ගොඩ	-10.9006
▁රමේෂ්	-10.9007
▁ලබාදුන්නේ	-10.9008
▁අක්ෂි	-10.9008
▁අත්හැර	-10.9009
▁කපු	-10.9015
▁සමත්වුණා	-10.9016
▁වාර්තාවනවා	-10.9017
49	-10.9018
▁උපකුලපති	-10.9019
පුරම්	-10.9023
▁අග්රමාත්ය	-10.9023
▁ඉන්දියන්	-10.9023
▁උදේ	-10.9024
▁සෙනරත්	-10.9029
▁චා	-10.9029
▁අයිති	-10.9029
▁පෙත්සම්කාර	-10.903
▁පැදියක්	-10.9031
▁ශාලාවක	-10.9033
▁යොදාගනිමින්	-10.9033
▁සංඛ්යාත	-10.9034
මස්	-10.9037
▁ලක්ෂයකට	-10.9041
▁මවගේ	-10.9045
▁යැවීමේ	-10.9047
▁තුලින්	-10.9047
▁පරණ	-10.9049
වන්නට	-10.9049
▁දෝෂයක්	-10.905
ධූරය	-10.905
වැන්න	-10.9051
▁හමුවකදීය	-10.9051
▁මුල්ලේරියාව	-10.9052
▁නිරිත	-10.9052
▁සහනාධාරය	-10.9052
ෂී	-10.9056
ජීව	-10.9059
රම	-10.9062
▁යැවීමේදී	-10.9063
▁කැට	-10.9064
▁විජේවර්ධන	-10.9074
▁රංජන්	-10.9075
▁දමමින්	-10.9076
▁සෑ	-10.9076
▁ආරක්ෂාවක්	-10.9078
▁ප්රකාශනය	-10.9081
▁කුරේ	-10.9086
▁කාලේ	-10.909
▁පනතක්	-10.9091
▁අපවත්	-10.9094
හෝ	-10.9096
▁දෙපස	-10.9097
▁වැඩසටහනකට	-10.9097
▁ඇත්	-10.9097
▁කොස්තාපල්වරයෙකු	-10.9098
39	-10.9098
▁වර්ෂ	-10.9103
▁හිමිවූ	-10.9104
▁මන්ත්රීවරයාගේ	-10.9107
▁කාර්යක්ෂම	-10.9109
▁ඇතුල්	-10.9111
▁ගොඩනැගිල්ලේ	-10.9113
▁විරෝධයක්	-10.9114
▁එජාපය	-10.9114
▁කැබලි	-10.912
▁පුජ්ය	-10.912
▁සිව්දෙනා	-10.9122
යාමට	-10.9124
▁පටහැනි	-10.9125
▁සැරසී	-10.9126
▁මිළ	-10.9126
යින්ගේ	-10.9126
තො	-10.9127
▁ගං	-10.9128
▁සුදත්	-10.9135
▁ඉතාලිය	-10.9137
ඳි	-10.9137
▁මෝදර	-10.9141
▁සංසරණය	-10.9143
▁ශානක	-10.9143
▁අමාරු	-10.9143
රියාව	-10.9146
මාන්	-10.9154
නූ	-10.9154
▁රාජපක්ෂට	-10.9162
හැකි	-10.9163
ියාව	-10.9164
▁කෙසෙල්	-10.9164
▁මාර්ගයක	-10.9165
▁හඳුන්වාදීමට	-10.9166
▁ජයවික්රම	-10.9166
▁අසාද්	-10.9167
▁පත්රයේ	-10.9176
▁තමිල්නාඩුවේ	-10.9181
▁පෙරමුණට	-10.9182
▁මහානායක	-10.9183
▁ක්රියාකාරි	-10.9184
▁අනුරුද්ධ	-10.9189
▁ගැහැණු	-10.9189
▁අයුතු	-10.9193
්නා	-10.9199
ෆර්	-10.9201
▁රාජ්යයක්	-10.9206
▁පෙන්වාදී	-10.9208
▁උරුම	-10.9208
▁ගණනාවකට	-10.921
▁කෝවිඩ්	-10.9212
▁අවාසනාවන්ත	-10.9212
▁විසදුම	-10.9213
ගස්වැව	-10.9215
▁පටු	-10.9217
▁නසා	-10.9219
ස්ටර්	-10.922
▁තරංග	-10.9221
වූවන්	-10.9225
▁හිමිවරුන්	-10.9237
▁මෙයයි	-10.9238
▁ප්රවීන	-10.9241
ෑව	-10.9243
▁ආගම	-10.9247
▁ලාංකිකයෙකු	-10.9247
▁නිවෙස්වල	-10.9247
▁මංසන්ධියේ	-10.9251
ට්ටි	-10.9257
▁ගොවියා	-10.9257
▁විකුණුම්	-10.9258
▁පොල්තෙල්	-10.926
▁9ක්	-10.926
▁චාමර	-10.926
▁සිත්	-10.9262
එය	-10.9263
රික්	-10.9264
li	-10.9265
▁යන්නට	-10.9265
තව	-10.9267
▁මතට	-10.9267
▁සීමාවට	-10.927
ගත්තා	-10.927
▁හැකිවූ	-10.9271
▁නොකිරීමට	-10.9273
95	-10.9273
▁හදුනා	-10.9276
▁නිවා	-10.9276
▁ආපනශාලා	-10.9277
▁දේශන	-10.9277
▁යුද්ධ	-10.9279
▁ප්රහාරයේ	-10.928
▁සංවාදයක්	-10.928
▁ටයර්	-10.9282
▁අන්තර්ජාල	-10.9285
ුවක්	-10.9288
▁සම්බන්ධයක්	-10.9296
▁අබ්දුල්	-10.9299
ෆී	-10.9302
▁නේවාසිකව	-10.9304
▁කටුගස්තොට	-10.9304
▁නොදන්නා	-10.9305
ha	-10.9305
▁පැමිණිල්ලේ	-10.9308
▁හදුනාගෙන	-10.9308
▁අප්රිකාවේ	-10.931
▁වික්රමසිංහගේ	-10.931
මිල	-10.931
▁එල්ලවූ	-10.9314
▁දකුණේ	-10.9317
▁සංවර්ධනයට	-10.9317
▁වර්ජනයේ	-10.9322
▁රථවල	-10.9322
▁පැවසු	-10.9323
▁සිදුවනවා	-10.9323
▁බෙලිඅත්ත	-10.9328
▁සැළකිල්ල	-10.9328
▁වානිජ	-10.9328
▁විමසූ	-10.9328
▁දුව	-10.9328
▁අතීතයේ	-10.9334
▁ශ්රම	-10.9334
▁අයකර	-10.9336
▁මන්ද	-10.9337
▁කලාපයක්	-10.934
▁රාශියක්	-10.934
▁අංශවල	-10.9344
▁අලින්	-10.9345
▁පිවිස	-10.9346
▁අමානුෂික	-10.9351
▁පවසති	-10.9352
▁හැසිරුණ	-10.9352
▁දන්නේ	-10.9356
රයේ	-10.9358
▁කාලයකට	-10.9358
වෙළ	-10.9359
▁ලබාගනිමින්	-10.936
et	-10.9363
▁ඇතිවීමේ	-10.9367
▁පුත්	-10.9371
▁160	-10.9371
▁ලැබීමෙන්	-10.9373
▁බළකාය	-10.9374
චන්ද්ර	-10.9374
▁ඔක්ටේ	-10.9375
පතන	-10.9376
▁විදෙස්ගත	-10.9382
33	-10.9387
▁හු	-10.9388
▁සාලි	-10.9391
ස්ථානය	-10.9392
▁බින්	-10.9392
එක්සත්	-10.9393
ස්ථාන	-10.9394
▁හිංසා	-10.9398
▁ජයසුමන	-10.9398
ලාව	-10.94
▁විපක්ෂනායක	-10.9401
▁අධිකරණයක්	-10.9401
▁ගැනුනා	-10.9403
▁කොට්ට	-10.9403
▁පරිසරයට	-10.9404
▁ජනතාවක්	-10.9404
st	-10.9408
▁ජාවාරමක	-10.9418
▁ලෝ	-10.9418
▁කාර්යාලවල	-10.9419
▁ක්ෂේත්රවල	-10.942
▁නෛතික	-10.9422
▁ජාඇල	-10.9422
▁ස්වාධීනත්වය	-10.9425
▁ජනාධිපතිවරණයේ	-10.9431
▁පාකිස්තානය	-10.9437
පූර්	-10.9438
▁ලබාගත්තා	-10.9439
දීයි	-10.9443
▁කාර්තුව	-10.9446
▁සහභාගිත්වයෙන්	-10.9448
▁වැලලා	-10.945
▁ප්රයෝජන	-10.9457
තන්	-10.9458
▁ආර	-10.9461
▁සංවිධානයක්	-10.9469
▁නික	-10.947
හිටපු	-10.9471
▁පාන	-10.9472
▁මට්ටමට	-10.9473
▁ඒකට	-10.9477
මෙ	-10.9478
▁පත්වු	-10.9478
▁මුහුදට	-10.9479
▁පන්තිය	-10.9479
ැක්	-10.9483
ගිරි	-10.9483
▁6ක	-10.9485
▁ප්රධානි	-10.9485
▁රූපවාහිනි	-10.9487
81	-10.9489
▁පලාත්	-10.949
▁ගාන්ධි	-10.9492
එහෙත්	-10.9493
▁වැල	-10.9499
▁සිටිති	-10.95
වරයාගේ	-10.95
▁ස්ථාපනය	-10.9506
▁දූපත	-10.9506
▁නිර්දේශය	-10.9511
▁නොද	-10.9512
▁සතියක	-10.9513
▁එකහමාරක	-10.9517
▁චන්ද්රසිරි	-10.9518
▁වීම්	-10.953
▁ජාත්යන්තරය	-10.9531
▁කන්නය	-10.9536
▁ලක්වීමෙන්	-10.9538
▁ප්රකාරව	-10.954
▁ප්රදර්ශන	-10.9541
▁ගෙවීමේ	-10.9541
▁පසුවන්නන්	-10.9548
W	-10.9556
▁ජාල	-10.9562
කොටුව	-10.9562
▁මට්ටක්කුලිය	-10.9564
▁සමරවික්රම	-10.9564
▁වෙමිනි	-10.9564
▁තත්ත්ව	-10.9566
▁නිවාඩ්	-10.9566
▁කවුරුන්	-10.9567
▁මුහුද	-10.9567
▁ඇඟ	-10.9568
▁මන්ත්රීවරිය	-10.9569
▁පකිස්ථානු	-10.957
▁පාඩුව	-10.9572
▁පැවැත්වෙනු	-10.9574
ඇති	-10.9575
▁නඩුවට	-10.9577
▁අවශ්යතාවයක්	-10.9581
තුඩුව	-10.9586
▁ශාස්ත්ර	-10.9586
▁ජයලලිතා	-10.9588
▁නොතිබූ	-10.9588
▁බුත්තල	-10.9588
▁මුන්දලම	-10.9588
▁800	-10.9591
▁සොහොයුරා	-10.9593
▁තායිලන්තය	-10.9595
▁අඩුවීම	-10.9595
▁ඩො	-10.9597
▁අනිවාර්යයෙන්ම	-10.9602
▁අත්බෝම්බ	-10.9604
▁දුරකතනය	-10.9604
වාස	-10.9611
▁බහුදි	-10.9611
▁නිවැසියන්	-10.9612
▁උපදේශන	-10.9612
▁ළමයෙකු	-10.9612
ලාගේ	-10.9613
▁ඖෂධය	-10.9614
▁සයි	-10.9616
▁දිස්ත්රීක්	-10.9617
▁අනන්යතාව	-10.9618
▁හමුවුණා	-10.9618
▁දේවාල	-10.9622
වීර	-10.9625
▁හැකිව	-10.9626
▁කොල්ලකෑම්	-10.9627
▁අවසානයේදී	-10.9628
▁දෙකෙහි	-10.9631
▁කතාබහ	-10.9632
ලම	-10.9635
▁පාර්සල්	-10.9636
▁නරඹ	-10.9636
▁වනඅලි	-10.9639
්යා	-10.964
▁ඒජන්සිය	-10.964
▁අබේ	-10.9641
▁කෙසේද	-10.9641
▁කඩු	-10.9643
▁හයක්	-10.9643
▁කීපයක්	-10.9643
▁හිටියා	-10.9644
▁කබීර	-10.9645
▁අවසානය	-10.9646
▁දිව	-10.9647
▁කොල්ලකා	-10.9647
▁අන්තවාදී	-10.9653
▁සැලක	-10.9653
▁ලබ	-10.9654
දීමේ	-10.9657
▁මුතු	-10.9658
▁125	-10.966
▁700	-10.966
▁සනිටුහන්	-10.966
▁සැලසෙන	-10.9661
▁රීති	-10.9662
▁ගතයුතු	-10.9671
▁ශිල්පීන්	-10.9673
▁වර්ජන	-10.9676
▁අරාබියේ	-10.9682
▁මාලදිවයින්	-10.9684
▁කැඳ	-10.9688
▁සර්	-10.9693
▁ළගා	-10.9693
රක්	-10.9694
▁නත්තල්	-10.9694
▁විඳින	-10.9696
විලි	-10.9698
▁ඇතිවී	-10.9702
▁ලීටරයක්	-10.9703
ලර්	-10.9704
▁බෝට්ටුව	-10.9706
▁මණ්ඩලීය	-10.9706
▁හෙල	-10.9709
▁පිළිතුර	-10.9709
කරුවකු	-10.9712
▁බිරිඳට	-10.9712
▁ප්රාන්තය	-10.9715
▁දෝෂ	-10.9716
84	-10.9726
▁නිපුණතා	-10.9728
▁ඇතුළුවීම	-10.9728
▁ආරාධිත	-10.9728
▁එන්නේ	-10.9729
▁වද	-10.9729
▁ලැබිණි	-10.9736
▁ශිල්පී	-10.9738
▁විකිණීමට	-10.974
ිණි	-10.9741
▁වර්ධන	-10.9742
▁ඝන	-10.9742
▁සැමරීම	-10.9747
▁මාර්ගගත	-10.9752
▁විතානගේ	-10.9757
▁දේවස්ථානයේ	-10.976
▁භික්ෂුන්	-10.9761
▁ලසිත	-10.9762
▁යතුරුපැදියේ	-10.9765
▁නීතීඥවරයා	-10.9777
▁ආදායම්ලාභී	-10.9779
▁වැඩියෙන්	-10.9781
▁මතුවන	-10.9784
▁ඉවත්වීමට	-10.9785
ීපාල	-10.9789
▁විරෝධතාවට	-10.9789
▁කොටුවේ	-10.9792
▁දැවි	-10.9792
කරගත්	-10.9793
▁ශාඛාව	-10.9797
▁එළිදැක්වීම	-10.9799
▁වැඩිකිරීම	-10.9801
▁නායකත්ව	-10.9802
▁ඇල්	-10.9804
▁අයථා	-10.9806
ධ්ය	-10.9806
▁සමුද්රී	-10.9806
▁අසුන්	-10.9808
ාලෝක	-10.9809
▁පිළිගන්නා	-10.9813
▁විමල	-10.9815
කට්	-10.9815
ැස්	-10.9817
▁තුර්කි	-10.9817
ලුව	-10.9817
▁වෙළඳපොළේ	-10.9818
ුවන්	-10.9821
▁ආබාධ	-10.9821
රාන්	-10.9823
▁රාම	-10.9823
▁දීමනාවක්	-10.9823
▁ශූරතාව	-10.9824
▁තහනමක්	-10.9825
▁ඉහතදී	-10.9826
▁පදවිය	-10.9827
▁යාමක්	-10.983
▁ගැබිණි	-10.983
▁උපාංග	-10.9832
▁මැයෙන්	-10.9844
බඩ	-10.9845
▁අල්ල	-10.9846
▁16ක්	-10.9849
▁රැකියාවක්	-10.9849
▁සිදුවූයේ	-10.9849
▁බය	-10.985
▁පවත්වනවා	-10.9853
▁ඔස්ට්රේලියාවේ	-10.9855
▁සවිබල	-10.9856
▁නිරතවීමට	-10.9857
ලාභීන්	-10.9857
85	-10.9857
▁නීතියක්	-10.9859
▁නියමු	-10.986
▁ආහාරයට	-10.986
▁ප්රභා	-10.9862
මලේ	-10.9865
▁ක්රියාවලියට	-10.9868
▁අලෙවිසැල්	-10.9873
▁සටහන්ව	-10.9875
▁ඔන්ලයින්	-10.9879
▁කළමණාකරණ	-10.9879
▁V	-10.988
▁13ක්	-10.9881
▁සභාවල	-10.9886
67	-10.9886
▁වගාවට	-10.9887
ලන්ද	-10.9888
▁පැදිකරු	-10.9889
▁සබඳතාවක්	-10.989
7ක	-10.9895
▁වගකීමෙන්	-10.9895
▁හසුව	-10.9896
▁ප්රා	-10.9896
▁නියෝජිතායතනය	-10.9902
ුනා	-10.9903
▁ඉස්සර	-10.9905
te	-10.9906
▁අඩවියට	-10.9911
▁මෙතන	-10.9914
භා	-10.9914
▁අරන්	-10.9921
▁පුනරුත්ථාපනය	-10.9922
▁යානයකින්	-10.9923
▁කෑමට	-10.9925
▁කරු	-10.9926
ෙස්	-10.9929
▁ගලගොඩඅත්තේ	-10.9929
▁නවදිල්ලි	-10.9929
▁මංසන්ධිය	-10.9929
▁ප්රමුඛතම	-10.9936
▁හිමිවී	-10.9941
ශාන්	-10.9943
▁හඳුන්වාදීම	-10.9944
▁ලෝකයට	-10.9947
▁අඩුවීමක්	-10.995
▁වැලැක්වීම	-10.9954
▁දුම්කොළ	-10.9954
▁රජරට	-10.9955
▁ප්රශ්නයට	-10.9955
▁විශ්වාසයක්	-10.9957
▁ජාතින්	-10.9958
▁වැදීම	-10.9962
▁විත්තිකාර	-10.9964
▁පෙරළීමෙන්	-10.9964
▁15ක	-10.9965
▁සැසිය	-10.9966
බෝධි	-10.9969
ඩබ්	-10.9974
▁හයි	-10.9976
▁ආභරණ	-10.9979
▁යාවත්කාලීන	-10.9979
▁සුදර්ශන	-10.9979
▁දුරකථනයෙන්	-10.998
▁පිවිසුම	-10.9983
▁කෝවිල	-10.9984
▁මවක	-10.9991
▁කෙනෙකු	-10.9996
▁25000	-10.9999
ෙව්	-11
▁ලක්වුණා	-11
▁දැමු	-11.0002
දුක්	-11.0002
▁කිහිපයේදී	-11.0002
▁කියැවෙයි	-11.0004
▁බොරලැස්ගමුව	-11.0004
▁අක්රිය	-11.0004
▁තමන්ව	-11.0005
බීමතින්	-11.0007
74	-11.0009
▁වෙළඳාම	-11.0009
▁පැනවූ	-11.0009
▁ස්ට	-11.0015
▁බැලු	-11.0017
▁පහක	-11.0017
තක්	-11.0019
62	-11.0021
▁විමර්ශනවල	-11.0027
▁ගිල	-11.0029
▁සායනික	-11.003
පන්දු	-11.0032
▁රළ	-11.0032
▁වෛද්යවරු	-11.0033
▁පර්යන්තයේ	-11.0035
අප	-11.0037
▁බහින්	-11.0041
▁තාප	-11.0042
▁සැලසුම	-11.0044
ගණ	-11.0045
▁රත්	-11.0046
කොළ	-11.0046
▁ඇතිවු	-11.0046
ධර්ම	-11.0052
▁අභාවය	-11.0053
▁ෂෙහාන්	-11.0054
▁විදේශිකයන්	-11.0054
▁උපක්රම	-11.0055
▁පලාගිය	-11.0055
▁ප්රමාණයේ	-11.0061
▁ගැසීම	-11.0066
▁සාර්ථකත්වය	-11.0067
▁රැල්ල	-11.0068
▁මූලස්ථානයේදී	-11.007
මාර්ග	-11.0076
▁කොඩිප්පිලි	-11.0079
▁පොහෝ	-11.0079
64	-11.008
▁සුමන	-11.0081
▁ජයතිලක	-11.0083
▁පළවන	-11.0085
ාස්	-11.0087
▁කැමතියි	-11.0088
ro	-11.0089
▁ඇන	-11.0089
▁ද්විපාර්ශ්වික	-11.0104
පහ	-11.0106
▁හේතුවෙනුයි	-11.0106
▁හමුවක	-11.0112
▁සරණ	-11.0118
කුමාර්	-11.0121
▁බොර	-11.0122
▁පරිපූරක	-11.0129
▁මුදලිගේ	-11.0129
▁හවුල්	-11.013
▁ලේකම්වරයාගේ	-11.0133
▁මද	-11.0133
▁පළකරමින්	-11.0135
▁බලමණ්ඩලය	-11.0145
▁පහන්	-11.0146
▁මළසිරුර	-11.0154
▁මාලිංග	-11.0155
▁හස්තියා	-11.0155
▁දහම	-11.0155
යෙකුට	-11.0157
▁ප්රමුඛත්වය	-11.0158
61	-11.0159
▁වංචාවක්	-11.016
▁මිනී	-11.0164
▁නිවාඩුව	-11.0164
▁දොරටුව	-11.0165
▁තරුණියක	-11.0165
රයි	-11.0167
රුවන්	-11.0167
▁උද්ඝෝෂණයේ	-11.0168
▁ගැටළුවට	-11.0169
▁පරිශ්ර	-11.0172
▁සැරයන්වරයා	-11.0173
▁ගැලීම්	-11.0176
ul	-11.0179
▁අසාධ්ය	-11.018
▁කන්කසන්තුරේ	-11.018
▁ප්රිමියර්	-11.018
▁පාත්ර	-11.0182
නීති	-11.0185
▁සහෝදරිය	-11.0187
▁ලැයිස්තුවේ	-11.0189
▁ඔයේ	-11.0192
▁83	-11.0195
hi	-11.0195
▁හැරුණු	-11.0195
▁නැතුව	-11.0197
▁www	-11.02
පර්	-11.0201
54	-11.0201
▁කියවීමේ	-11.0203
▁අක්රීය	-11.0205
▁ආයෝජකයන්	-11.0205
▁වෙහෙස	-11.0205
▁යාන්ත්රණය	-11.0206
න්නා	-11.0206
▁ප්රේමරත්න	-11.0207
▁වැදුණු	-11.0209
57	-11.0214
▁අමාත්යාංශයේදී	-11.022
කෘත	-11.0225
ේගම	-11.0226
කුළ	-11.023
එළිය	-11.0231
▁දිමුත්	-11.0231
▁රත්නප්රිය	-11.0231
▁කුමක්	-11.0232
▁2ක	-11.0242
▁ප්රවේශපත්ර	-11.0244
▁119	-11.0246
කිරි	-11.0249
▁මන්ත්රිවරුන්	-11.0252
▁ආසාදිතව	-11.0254
▁දංකොටුව	-11.0256
8000	-11.0261
▁හැකිවී	-11.0263
▁පැවැත්ම	-11.0267
ිං	-11.0267
▁කසුන්	-11.0269
යැයි	-11.0279
▁ආසාදිතයෙකු	-11.0281
පැසිෆික්	-11.0282
▁පදිංචිකරුවෙකි	-11.0282
ර්ත	-11.0282
▁ඉරණම	-11.0283
▁විවේචන	-11.0283
▁සැප	-11.0284
▁පියාසර	-11.0286
76	-11.0287
▁ක්රියාමාර්ගයකට	-11.0289
71	-11.029
සේවා	-11.0293
▁හේ	-11.0296
වරා	-11.0296
▁පර්	-11.0297
51	-11.0306
▁හපුතලේ	-11.0308
▁තලංගම	-11.0308
▁බොදුබල	-11.0308
▁සංදර්ශන	-11.0308
▁ලබාදෙන්න	-11.0308
▁සැත්කම්	-11.0309
▁කොස්ගොඩ	-11.031
▁කොටගල	-11.031
▁ජීවිතයේ	-11.0311
ුණි	-11.0313
▁කොට්ඨාශයට	-11.0314
▁කොටහේන	-11.0316
▁මැදි	-11.0316
▁තනිව	-11.0318
▁උපයන	-11.0321
▁ඉවත්කර	-11.0322
▁වෘත්තිකයන්	-11.0324
▁හසරංග	-11.0333
▁පෙට්ටි	-11.0337
▁වත්තේ	-11.0337
ධර	-11.0339
ජන්	-11.034
▁විහාරස්ථාන	-11.0343
▁කපිතාන්	-11.0353
පාද	-11.0355
▁හානියට	-11.0355
▁වීඩියෝව	-11.0355
▁සමා	-11.0356
▁අනුබද්ධ	-11.0358
▁එක්ස්ප්රස්	-11.0359
▁දැමුණු	-11.036
▁සංශෝධිත	-11.0385
▁තල්දූව	-11.0386
▁පුදබිම	-11.0386
▁ගම්පොල	-11.0387
ල්ලේ	-11.0387
▁ඇත්තටම	-11.0389
මෙලෙස	-11.039
▁ළග	-11.0391
▁පියෙක්	-11.0391
▁011	-11.0394
▁නළ	-11.0395
▁නායයෑම්	-11.04
▁සිවු	-11.04
හය	-11.0401
▁සිද්ධි	-11.0401
▁4ක	-11.0402
▁ක්රියාකාරීත්වය	-11.0402
▁කැපවී	-11.0402
▁විත්තිය	-11.0407
▁නීතිඥයින්	-11.0407
▁සද	-11.0408
▁පෙම්වතිය	-11.0411
▁විකාශන	-11.0411
▁කල්පනා	-11.0411
▁කන්කසන්තුරය	-11.0412
▁අබේරත්න	-11.0412
▁පන්තියේ	-11.0413
▁රාජධානිය	-11.0413
▁ඩ්රෝන	-11.0414
▁චාරිකාවක	-11.0417
▁84	-11.0423
▁ලියාපදිංචිය	-11.0434
▁30000	-11.0434
ධා	-11.0436
▁අංශයෙන්	-11.0436
චර්	-11.0436
▁කාන්තාවට	-11.0439
▁ලුණු	-11.044
▁අවබෝධයක්	-11.044
යන්හි	-11.0445
▁සිදුකිරීමේ	-11.0446
▁සේවකයන්ට	-11.0446
ාගම	-11.0447
ad	-11.0449
නම	-11.0452
▁නිලධාරීන්ගෙන්	-11.0452
▁අධ්යක්ෂවරුන්	-11.0453
▁ඉන්පසු	-11.0454
▁කුස	-11.0456
▁හිර	-11.0457
ේෂ්	-11.0458
▁ජො	-11.0459
▁රෝගයට	-11.046
▁අභය	-11.046
▁නීතිපතිවරයාගේ	-11.0461
▁විමසන	-11.0465
▁ජාවාරම්කරුවෙකු	-11.0466
▁රෝගියා	-11.0466
▁දළු	-11.0467
ශීලි	-11.0471
මාර්	-11.0472
▁ඇගයීම	-11.0474
46	-11.0474
▁ආසනය	-11.0475
▁ගංගා	-11.0476
▁යෙදුණ	-11.0478
▁ගායන	-11.0482
▁මිනිත්තු	-11.0484
▁නිවාසවල	-11.0485
ද්දි	-11.0488
▁සම්මන්ත්රණය	-11.0489
▁ගොඩබෑම	-11.0489
▁ප්රාග්ධන	-11.049
▁විද්වතුන්	-11.049
▁දේශපාලනඥයන්	-11.049
ලිංගම්	-11.049
▁ගෝල	-11.0491
රල්	-11.0491
▁අවබෝධ	-11.0502
▁කණ්ඩ	-11.0504
▁200ක්	-11.0505
▁වේදනාව	-11.0506
▁බීම	-11.0511
ණ්ඩි	-11.0514
▁බුලත්සිංහල	-11.0516
▁සුමංගල	-11.0516
oogle	-11.0516
වෙත	-11.0517
ජර්	-11.0519
▁සූදු	-11.0524
ස්ථා	-11.0531
▁උත්	-11.0532
▁2007	-11.0532
▁2004	-11.0534
▁රාජ්යයන්	-11.0539
ිල්ල	-11.054
▁අල්විස්	-11.054
ඳුනන	-11.0541
▁Update	-11.0542
▁පහුගිය	-11.0542
▁අහමඩ්	-11.0542
▁කාලසටහන	-11.0542
▁පුදුම	-11.0542
▁රවීන්ද්ර	-11.0543
▁වික්රමනායක	-11.0543
▁අග්රාමාත්යවරයාට	-11.0543
▁පස්සර	-11.0547
▁පෙරමුණු	-11.0551
නින්	-11.0552
කමින්	-11.0554
▁කියලයි	-11.0554
▁මල	-11.0556
▁යෞවන	-11.0568
▁ප්රදේශවාසින්	-11.0568
▁එදිරිසිංහ	-11.0569
▁කර්නල්	-11.0569
▁සාක්ෂිකරුවන්	-11.057
▁කැරට්	-11.057
▁ලක්විය	-11.0571
▁සංචාරයේදී	-11.0572
▁තබාගැනීම	-11.0573
▁දෙදෙනෙකුගේ	-11.0575
▁කැනඩාවේ	-11.0577
▁විජිත්	-11.0579
▁සන්ධානයට	-11.058
භව	-11.0583
▁විරෝධතාවයක්	-11.0591
න්ද්ර	-11.0594
▁රෝගාතුර	-11.0595
▁ආලෝක	-11.0598
▁ගොඩනැගිල්ලක්	-11.0599
▁වහ	-11.0604
▁පුහුණුවක්	-11.061
▁99	-11.0611
▁මෙහෙවර	-11.0612
▁උත්සාහයක්	-11.0616
පොර	-11.0619
▁කම්හල	-11.0621
▁පුෂ්ප	-11.0621
▁පේදුරුතුඩුව	-11.0621
▁දියනෑම	-11.0621
▁කාංචන	-11.0622
▁පොම්ප	-11.0622
▁ශානි	-11.0623
▁වයිස්	-11.0623
▁නැගීම	-11.0624
▁ඇතුළත්ව	-11.0625
▁ඇෆ්ගනිස්ථාන	-11.0625
▁මඩුල්ලක්	-11.0625
▁විතර	-11.0627
ශය	-11.0629
▁පර්ල්	-11.0632
▁පිපිරීම්	-11.0634
▁ඇතිකර	-11.0636
▁ජීවිතයට	-11.0636
▁රං	-11.0637
▁කිව්	-11.0637
▁භාජනය	-11.0638
රීම	-11.0639
▁පහරදීමක්	-11.0639
▁පාසල්වලට	-11.0642
▁විසඳුම	-11.0643
▁ජයලත්	-11.0652
▁යුරෝපයේ	-11.0654
ාන්තර	-11.0655
▁ඉසුරු	-11.0655
▁හොත්	-11.0656
▁වැඩිමහල්	-11.0656
▁කිහිපයේ	-11.0656
▁පුරුෂයා	-11.0658
▁සූත්රය	-11.0659
58	-11.0663
▁නගරයෙන්	-11.0665
▁කිර	-11.0665
▁තායිලන්තයේ	-11.0666
▁වික්රම	-11.0667
ස්ත	-11.0671
න්කුලම	-11.0671
▁ඩිල්ෂාන්	-11.0675
▁පැවසිය	-11.0675
▁ජනශක්ති	-11.0676
▁පළමුවරට	-11.0676
යූ	-11.0677
බද	-11.0677
8ක	-11.0679
▁පළාතට	-11.0687
▁ක්රීඩාංගනයේ	-11.069
අපි	-11.0694
▁විසිර	-11.0694
▁හරියට	-11.0694
▁පථය	-11.0695
▁ජීවී	-11.0699
▁කැලෑ	-11.0699
▁පළතුරු	-11.0701
▁හෙලිකොප්ටර්	-11.0701
▁අර්බුදයෙන්	-11.0702
▁ශීඝ්රයෙන්	-11.0704
▁අධ්යක්ෂිකා	-11.0705
▁සහභාගිවීම	-11.0707
▁හමා	-11.0707
ෂියා	-11.0712
ඈ	-11.0714
▁ව්යසනය	-11.072
▁වුවමනාව	-11.0721
▁යුරෝපය	-11.0723
▁මංතීරුව	-11.0724
▁ගිහිල්ලා	-11.0728
▁විජයදාස	-11.0729
J	-11.0731
▁මංජුල	-11.0731
රන	-11.0732
ම්පිටිය	-11.0734
▁පෙති	-11.0744
ඩර්	-11.0752
▁බස්නායක	-11.0754
▁ඩෙල්ටා	-11.0755
▁සලසන	-11.0755
▁පැදවූ	-11.0755
▁සිසුවාගේ	-11.0757
බ්රි	-11.0762
වාදි	-11.0764
▁අසළදී	-11.0765
▁82	-11.0771
වරයාට	-11.0773
ur	-11.0778
▁ඇණවුම්	-11.0782
▁එවක	-11.0789
▁ඇමතිතුමා	-11.0792
▁ආර්ථිකයේ	-11.0794
▁උමා	-11.0795
ග්රහණය	-11.0798
▁වැඩිහිටියන්	-11.0798
ල්ඩ්	-11.0802
ස්ථානාධිපතිවරුන්	-11.0802
▁හැඳ	-11.0804
▁හිමිකරගෙන	-11.0805
▁හෙදියන්	-11.0807
▁හිරුණිකා	-11.0809
▁හතලිස්	-11.0809
ne	-11.081
▁සිතාසි	-11.0811
විද්යාලයීය	-11.0812
▁මලල	-11.0813
▁පියාගේ	-11.0814
▁තුර	-11.0817
▁ගැනෙන	-11.0819
චන	-11.0821
▁කරවීමට	-11.0822
ළිය	-11.0828
▁අලගියවන්න	-11.0836
▁නිල්වලා	-11.0837
▁ප්රසිද්ධියේ	-11.0837
▁නිවේදනයෙන්	-11.0839
▁පිලිබඳව	-11.0839
▁ලබාදෙන්නේ	-11.0841
▁ග්රහ	-11.0846
▁පොකුණ	-11.0847
▁ගොඩක්	-11.0852
▁මිදී	-11.0855
▁දිසාව	-11.0859
▁බියක්	-11.0859
▁තුවක්කු	-11.0861
▁ලහිරු	-11.0863
▁වටිනාකමක්	-11.0866
▁සෙවීමට	-11.0868
88	-11.0868
▁උඩුගම	-11.0869
▁ගැලීම	-11.088
▁වැඩිපුර	-11.0881
▁පරීක්ෂණවල	-11.0882
▁අභ්යාසය	-11.0883
▁සංචාරයට	-11.0887
ගැන්	-11.089
▁වනජිවි	-11.0891
▁බිරිය	-11.0892
▁පද්ම	-11.0899
▁වෙහෙර	-11.0899
▁පිටපත්	-11.0901
▁සමාජයට	-11.0905
▁හැඩ	-11.0906
▁ගැනීමක්	-11.0907
▁ජලාශවල	-11.0917
▁රක්ෂිතය	-11.0918
▁අරාබිය	-11.0918
▁අනුනායක	-11.0921
▁නියෝජිතයෙකු	-11.0922
▁ධූරයට	-11.0924
▁හැරි	-11.0927
පුද්ගල	-11.0928
▁හෝටලය	-11.0928
▁ගොඩනැගිල්ලක	-11.0934
▁අධිකාරිවරයා	-11.0938
▁බීමත්ව	-11.0939
▁සැමට	-11.0942
▁ධනුෂ්ක	-11.0945
▁කොකේන්	-11.0945
ධන	-11.0946
▁පසුබිමක්	-11.0949
▁තෝරාගෙන	-11.0949
▁නොකළහොත්	-11.095
▁පිළිබඳවත්	-11.0951
▁දේශපාලනයට	-11.0951
ඩේ	-11.0956
▁සිටියාය	-11.0957
▁නළු	-11.0959
නයක්	-11.0963
▁හැකිවන	-11.0966
▁ඉතිරිව	-11.0967
▁පිංකම	-11.0969
▁කුසලතා	-11.097
▁ගිනිගත්හේන	-11.0973
▁නුවරඑලිය	-11.0973
▁අස්ථි	-11.0973
▁අධිකරණයේදී	-11.0977
ිම්	-11.0979
අග්රාමාත්යවරයාගේ	-11.0981
▁බීමත්	-11.0981
▁බෙදාදීම	-11.0985
▁කාන්තාවකි	-11.0985
▁ගඟට	-11.0987
▁ප්රචණ්ඩත්වය	-11.0998
▁සේවකයා	-11.0998
▁වසන්	-11.0998
▁හඩ	-11.0999
▁ප්රාර්ථනා	-11.1
▁යුරෝපීය	-11.1
▁වීරක්කොඩි	-11.1
▁එන්ජින්	-11.1
▁අබේසේකර	-11.1001
▁අතරමැදි	-11.1001
▁සාධනීය	-11.1002
▁2030	-11.1005
▁ගණුදෙනු	-11.1008
▁ගායනා	-11.101
53	-11.1014
ුනේ	-11.1018
ක්රම	-11.1018
▁වීදි	-11.102
▁කැල	-11.1023
▁කදු	-11.1025
78	-11.1026
ාරු	-11.1028
▁ජෝසප්	-11.1028
▁තැනැත්තා	-11.1028
▁පැල්මඩුල්ල	-11.1028
▁පිදුම්	-11.1029
▁කරවීම	-11.1029
දෙනෙක්	-11.1033
▁පරික්ෂණය	-11.1033
5000	-11.1035
▁2024	-11.1038
ශෝ	-11.1039
▁කරගැනීමේ	-11.1039
▁රැස්කළ	-11.104
▁පිළිතුරක්	-11.1043
▁විශිෂ්ඨ	-11.1044
▁වාඩි	-11.1045
▁නිකවැරටිය	-11.1056
▁පුරුදු	-11.1056
▁ගින්නකින්	-11.1059
▁නගන	-11.1061
▁පරීක්ෂකවරයෙකු	-11.1062
▁පිරිපහදුව	-11.1064
▁ඇතිවුණා	-11.1065
▁යෑමේ	-11.1066
▁දඩයම්	-11.1068
▁අමල්	-11.1069
▁වයසේ	-11.1072
▁සම්බන්ධීකරණය	-11.1072
▁දහස	-11.1076
පීරිස්	-11.1077
▁ඇත්ද	-11.1078
වුවද	-11.1082
▁ශෝක	-11.1082
▁ට්රැක්ටර්	-11.1084
▁පැටවුන්	-11.1084
▁අසුන	-11.1085
▁ලාෆ්	-11.1085
500	-11.1086
▁පාකිස්ථානයේ	-11.1087
▁රාජකාරිය	-11.1089
▁කරද්දී	-11.109
▁මුලින්	-11.1095
කොන්	-11.1096
▁දුප්පත්	-11.1099
▁සාධාරණයක්	-11.11
▁අංගනය	-11.1102
▁සටහනේ	-11.1104
▁මතක	-11.111
▁ලැබීමේ	-11.1111
▁ජලාපවාහන	-11.1111
▁පදනම්ව	-11.1114
▁ට්රක්	-11.1115
▁දරමින්	-11.1115
▁යමක්	-11.1117
▁උත්සවයේ	-11.1124
▁ව්යාපාරයට	-11.1127
▁පුදා	-11.1127
▁දැනුම්දුන්	-11.1129
▁පටිපාටිය	-11.113
▁ශාන්ති	-11.1134
▁බහුලව	-11.1136
▁ජෙනරාල්වරයා	-11.1139
▁ජෙනරල්	-11.1139
▁නිගමනය	-11.1139
▁සිලින්ඩරයක	-11.114
වත	-11.1142
▁නිර්	-11.1144
▁වේදිකාවේ	-11.1146
▁සිදුවෙමින්	-11.1146
▁සංක්රමණය	-11.1149
▁විෂයන්	-11.1154
▁අනුපාතිකය	-11.116
▁0	-11.1165
▁ඩයස්	-11.1167
▁මයිකල්	-11.1167
සඳ	-11.1168
▁තරුණයෙකි	-11.1168
▁විවාද	-11.1169
▁ත්රිකුණාමල	-11.1171
▁දේශිය	-11.1174
▁වස්තු	-11.1174
▁ෂෙ	-11.1175
▁උල්	-11.1175
මිළ	-11.1176
▁මුහුණදෙන	-11.1176
▁30ක	-11.1178
▁ශ්රේෂ්ඨාධිකරණයේ	-11.1181
▁එළඹි	-11.1183
▁මෙහෙම	-11.1183
▁ලබාදෙනු	-11.1185
▁ශක්ති	-11.1186
▁පුවරුව	-11.1187
▁ඇෆ්ගනිස්ථානය	-11.1187
▁සිදුකළේ	-11.1188
▁පාප්	-11.119
▁නිපදවන	-11.1192
ියර්	-11.1192
▁අනතුරකට	-11.1193
▁කාර්යාලයෙන්	-11.1193
▁සිඩ්නි	-11.1195
▁කුමන්ත්රණයක්	-11.1196
▁තායිලන්ත	-11.1197
▁විනිවිදභාවය	-11.1204
▁කර්මාන්තකරුවන්	-11.1204
ෙද්දී	-11.1206
▁නිති	-11.1208
ෙනුයි	-11.121
▁පත්වෙලා	-11.1213
ගනේ	-11.1214
▁පැර	-11.1219
▁ඇපයක්	-11.1219
▁වාර්තාවූ	-11.1222
▁දෙදහස	-11.1223
▁ඇඟලුම්	-11.1224
▁කොංග්රස්	-11.1224
▁සම්බා	-11.1225
▁රැලිය	-11.1226
▁පුරාණ	-11.1228
▁මතයක්	-11.1229
▁කිව්වේ	-11.123
▁රූපවාහිනිය	-11.123
▁ආපන	-11.1232
▁වන්දනාවේ	-11.1232
මං	-11.1232
▁උපවාසයක්	-11.1234
▁වන්දියක්	-11.1235
▁ශූර	-11.1236
▁පාරිභෝගිකයන්ට	-11.124
▁සහතිකයක්	-11.1241
තමන්	-11.1245
▁සමහරු	-11.1249
ූව	-11.1251
දමා	-11.1251
▁ෆීල්ඩ්	-11.1252
▁භාරකාර	-11.1253
▁සිදුකරගෙන	-11.1253
▁දරුවාට	-11.1256
▁විධි	-11.1257
▁ගසාගෙන	-11.1261
▁කුළුණ	-11.1263
▁ගියේය	-11.1264
▁සැපයෙන	-11.1267
▁ප්රජාවට	-11.1269
ලන්ඩ්	-11.1277
▁ඇතුළුවීමට	-11.1277
▁කර්මාන්තශාලාව	-11.1277
ට්ටා	-11.1277
බො	-11.1278
▁කැදවුම්කරු	-11.128
▁නල්ලතන්නිය	-11.128
▁ප්රදේශවලත්	-11.1282
▁කොර	-11.1284
▁තබාගත්	-11.1284
▁අනතුරුවලින්	-11.1286
▁ඇතා	-11.1287
ශාලා	-11.1288
කුරු	-11.1288
▁සියල්ලම	-11.1298
▁ක්රමවේදයන්	-11.1298
▁18ක්	-11.1298
වීදිය	-11.1299
▁ජනපතිවරයා	-11.1299
▁වෑ	-11.13
▁පැයක	-11.1301
▁දඟ	-11.1303
ව්ව	-11.1304
▁තුනකින්	-11.1306
▁සමාලෝචන	-11.1307
▁පන්නිපිටිය	-11.1309
▁සුන්බුන්	-11.1309
▁සැකකෙරෙන	-11.131
▁සෙල්ලම්	-11.1312
හෙට්ටි	-11.1312
පිරි	-11.1313
▁වීථි	-11.1313
▁හදනවා	-11.1315
▁නිහඬ	-11.1316
▁ගතවන	-11.1318
▁and	-11.1318
▁මිහින්තල	-11.132
න්ඩි	-11.1324
▁දන්ත	-11.133
▁තිරු	-11.133
▁ෂාෆ්ටර්	-11.1337
▁වාර්තාවෙන්	-11.1338
▁හිට	-11.1338
▁වැඩකරන	-11.1339
▁91	-11.1342
▁නන්දලා	-11.1342
▁එවන	-11.1343
▁ස්වාමින්	-11.1345
▁ලෝකඩ	-11.1346
▁දෙනෙකුද	-11.1355
▁අඩුවී	-11.1356
▁අනන්යතාවය	-11.136
කැලේ	-11.1361
▁යුගය	-11.1364
▁අනාවැකි	-11.1366
▁යම්කිසි	-11.1366
▁කමාන්ඩර්	-11.1366
▁ලොකුගේ	-11.1367
▁පණිවුඩය	-11.1369
▁අවශ්යව	-11.1376
බණ්ඩාර	-11.1383
බ්බ	-11.1384
▁මැන	-11.1386
▁අධ්යාපනයට	-11.139
▁උයන	-11.1391
▁උත්සන්න	-11.1394
▁චින්තක	-11.1394
▁ජයග්රාහී	-11.1394
▁තලවකැලේ	-11.1394
▁මෙනවිය	-11.1394
▁පවුම්	-11.1394
▁මුදාහරින	-11.1394
වොත්	-11.1395
▁ප්රගති	-11.1402
▁පිළිම	-11.1402
▁දැකිය	-11.1403
▁60ක්	-11.1405
▁කොටා	-11.1407
▁ගම්මානවල	-11.1407
ඩන්	-11.1408
▁07ක්	-11.1408
වසර	-11.1413
▁කාට	-11.1414
▁දේවස්ථාන	-11.142
▁සිටියදීයි	-11.1421
පුරා	-11.1421
▁අසභ්ය	-11.1423
▁මුස්තාෆා	-11.1423
▁ටිල්වි	-11.1423
▁අනිත්	-11.1424
ජල	-11.1428
▁සැපයීමේ	-11.1429
▁විශ්වාසභංගය	-11.1431
▁මවට	-11.1434
නුවර	-11.1437
▁සිදුකරන්නේ	-11.1438
co	-11.1445
▁වෛරසයට	-11.1451
▁මැදපෙරදිග	-11.1452
▁බිස්කට්	-11.1452
▁එතරම්	-11.1453
▁ස්ටාර්	-11.1453
▁බැව්	-11.1455
▁ගෙවී	-11.146
සීම්	-11.1461
▁එතැන්	-11.1463
ir	-11.1463
▁කාරණයක්	-11.1463
▁කලාව	-11.1465
▁නගරවල	-11.1465
▁සාලිය	-11.1465
හ්	-11.1466
▁ඔයා	-11.1467
▁පිරිනමන	-11.1469
▁ජාති	-11.1469
▁කෙරෙයි	-11.1481
▁පැවරෙන	-11.1481
▁ගංඟා	-11.1481
▁හිටියේ	-11.1482
▁පහරදීම්	-11.1489
▁සේවාවේ	-11.149
▁ගුරුවරයෙකු	-11.1493
යමින්	-11.1497
▁කුර	-11.1497
▁චක්රලේඛ	-11.1498
▁17ක්	-11.1499
▁අඛන්ඩව	-11.15
▁ධනාත්මක	-11.1511
▁දිනාගැනීමට	-11.1511
▁අතුරුදන්වූවන්	-11.1512
▁දැක්වේ	-11.1516
▁වරදකරුවන්	-11.1518
▁ශ්රීලංකා	-11.1519
▁එක්විය	-11.1523
▁යෙදවීම	-11.1524
▁දිරි	-11.1526
▁ශක්තියක්	-11.1529
වුයේ	-11.1529
ාත	-11.1532
රථ	-11.1533
▁මහියංගණය	-11.1533
▁මරණයක්	-11.1535
▁වැලිවේරිය	-11.1539
තුමිය	-11.1539
▁මලයාසියා	-11.1539
▁අවංක	-11.154
වුනා	-11.1541
▁ලියන	-11.1541
▁සැකකරුගෙන්	-11.1548
වරුන්ට	-11.1549
▁පන්දුව	-11.1552
▁සැසිවාරයට	-11.1554
▁අඩුකර	-11.1556
▁නොදැන	-11.1557
▁ආයුධවලින්	-11.1558
▁හිතන්නේ	-11.156
96	-11.1562
▁900	-11.1562
q	-11.1564
▁එළඹීමට	-11.1566
▁අංශක	-11.1567
▁ඇර	-11.1567
▁බලාපොරොත්තුව	-11.1569
90ක්	-11.157
▁ශාලාවේදී	-11.1579
ගො	-11.1582
▁88	-11.1586
▁මාධ්යවේදීන්ට	-11.1587
▁බලමින්	-11.159
▁මහාධිකරණයේ	-11.1594
▁උවමනාව	-11.1596
▁උත්තරීතර	-11.1597
▁විමර්ෂණ	-11.1597
▁පරාක්රම	-11.1597
▁මලික්	-11.1598
▁රැකවරණය	-11.16
▁ගැටුම්කාරී	-11.1601
▁පළකරන	-11.1602
▁දිස්ත්රික්කයේත්	-11.1603
▁නොලැබුණ	-11.1606
▁තාත්තා	-11.1606
▁10කට	-11.1608
▁දේශසීමා	-11.1608
▁ජැ	-11.1612
▁සාද	-11.1619
▁දෙකකදී	-11.162
▁ක්රියාන්විතය	-11.1625
▁භයානක	-11.1626
▁රැදවියන්	-11.1626
▁තිසර	-11.1628
කීර්ති	-11.1629
▁100ක	-11.1629
▁දැකීම	-11.1632
▁ගෙවල්	-11.1633
▁මරු	-11.1634
▁බොහොමයක්	-11.1637
▁කියවීම	-11.1639
92	-11.1641
▁ඇග	-11.1641
▁මහජනතාවගෙන්	-11.1642
▁අස්වීමේ	-11.1648
▁බැඳී	-11.1651
පොලීසිය	-11.1652
▁රාජධානියේ	-11.1654
▁හතළිස්	-11.1656
▁නිදොස්	-11.1656
▁කල්මුණේ	-11.1656
▁ඔත්තු	-11.1656
▁මගහැර	-11.1658
▁බද්දක්	-11.1658
▁ක්රියාවලියක්	-11.1658
9ක	-11.1659
▁විශ්ලේෂණය	-11.1665
▁මගීන්ට	-11.1665
▁කෙනෙකුට	-11.1666
▁සිටිමු	-11.1667
▁යවන්න	-11.1669
▁උද්යාන	-11.167
▁බෝම්බයක්	-11.167
▁වැඩිකර	-11.1675
▁නියෝජිතයා	-11.1677
▁81	-11.1678
▁ගැටුමකින්	-11.168
▁96	-11.1683
▁කඩාවැටීම	-11.1685
▁මුසම්මිල්	-11.1685
▁ග්ල	-11.1688
▁පෙත්සම්කරුවන්	-11.1688
චා	-11.1689
▁ආරම්භවීමට	-11.1691
▁නායකයින්ගේ	-11.1695
▁සිසුවියක්	-11.1695
▁තරුණියගේ	-11.1698
▁විමසීම්	-11.1699
▁ඔස්ට්රේලියාවට	-11.1706
ක්කා	-11.1708
▁වරායෙන්	-11.1709
කඩේ	-11.1714
▁කිංග්ස්	-11.1715
▁රෝගියෙකු	-11.1715
▁ගැලපෙන	-11.1715
▁ලත්	-11.1715
▁යෙදවුම	-11.1716
▁වියට්නාමය	-11.1717
▁හතරදෙනෙකු	-11.1717
▁හැකිවූයේ	-11.1719
▁තනතුරේ	-11.1721
▁අමාත්යංශයට	-11.1722
▁සායන	-11.1723
▁එල	-11.1726
තෙක්	-11.173
▁ප්රකාශකයා	-11.1734
▁වාරි	-11.1743
▁භෞතික	-11.1745
යෝජක	-11.1745
▁අලුත්කඩේ	-11.1746
▁අලස්	-11.1747
▁කේන්ද්රයේ	-11.1747
▁ශාඛා	-11.1752
87	-11.1759
▁අමෙරිකා	-11.1764
ගැනිම	-11.1768
වාහ	-11.1768
▁එකතුව	-11.1772
▁ඇස්ට්රාසෙනෙකා	-11.1774
▁කැනීම්	-11.1774
▁සාමාන්යාධිකාරි	-11.1774
වෙච්ච	-11.1775
view	-11.1775
▁අබේසිංහ	-11.1775
▁අභිනව	-11.1776
▁සතුටට	-11.1777
▁නිශ්චිතව	-11.1779
▁පිහිටු	-11.1783
▁Ma	-11.1784
▁සෙන්	-11.1785
▁පළමුවනදා	-11.1785
▁ක්රීඩකයෙකු	-11.1786
▁සියවස	-11.179
ීමෙන්	-11.179
▁සත්යය	-11.179
ොල්	-11.1791
▁එක්වීම	-11.1792
▁සමාගම්වලට	-11.1794
▁ශිෂ්යාව	-11.1795
▁87	-11.1799
▁ඔක්සිජන්	-11.1804
▁උපවාසයේ	-11.1805
▁බෙදී	-11.1807
නික	-11.1807
▁ජාතිවාදී	-11.1808
▁20000	-11.181
▁ශ්රේණි	-11.1812
▁අන්තයේ	-11.1812
▁වගවීම	-11.1813
▁පහේ	-11.182
ඟු	-11.1822
▁ලැයිස්තුව	-11.1823
▁සිල්	-11.1823
නමුත්	-11.1825
▁එකිනෙකා	-11.1826
▁සාකච්ජාව	-11.1828
රින්	-11.1834
▁සූක්ෂම	-11.1834
වුල්	-11.1834
▁පැදිය	-11.1835
▁රහිතව	-11.1835
▁අණදෙන	-11.1836
▁ඒකාධිපති	-11.1836
▁මඩු	-11.1838
▁එතන	-11.1839
▁ඉඩමක්	-11.1842
▁අත්බෝම්බයක්	-11.1844
▁ඇමැතිවරයා	-11.1844
▁සෝම	-11.1846
▁මොහොත	-11.1846
▁ඉංජිනේරුවන්	-11.185
න්ති	-11.1853
▁අතු	-11.1863
▁මොනරාගල	-11.1864
▁ළමයා	-11.1864
▁අර්ථසාධක	-11.1864
▁නොවු	-11.1865
▁පුටුව	-11.1868
▁උද්යානයේ	-11.1873
▁හතරක	-11.1876
▁දෙකෙන්	-11.1877
▁ඉහළයාම	-11.1882
▁බහුල	-11.1887
▁කාර්යභාරය	-11.1887
▁ගැටළුවලට	-11.1887
▁ජීවනෝපාය	-11.1894
▁රටාව	-11.1895
▁නිදා	-11.1895
▁විපක්ෂයට	-11.1896
සභා	-11.1896
▁ඉටුකරන	-11.1899
▁පාදය	-11.1899
▁දැරීම	-11.1902
▁පෙළපාලි	-11.1904
▁හෑ	-11.1909
▁අයකු	-11.1909
▁සංවිධායකවරුන්	-11.191
▁පුරාවට	-11.191
▁එමින්	-11.1911
▁ඉස්	-11.1911
▁කුරුස	-11.1915
▁නෙදර්ලන්තය	-11.192
▁අවභාවිත	-11.192
▁විභාගයෙන්	-11.1922
ෙමි	-11.1922
▁අත්තනගල්ල	-11.1925
▁අරණායක	-11.1925
▁කැනේඩියානු	-11.1925
▁සේවාදායකයා	-11.1925
සිදු	-11.1925
▁සගවා	-11.1927
▁නම්කර	-11.1932
▁තවම	-11.1932
▁ව්යාපෘතියට	-11.1933
▁පවිත්ර	-11.1933
ගුරු	-11.1934
▁කම්පන	-11.1934
වට්ට	-11.1935
ෂු	-11.1936
▁කවුරුන්ද	-11.1937
▁24ක්	-11.1938
▁භූමියේදී	-11.194
▁සමුළුවේදී	-11.1944
▁බැණ	-11.1944
කෝන්	-11.1944
▁ධජය	-11.1944
▁මහව	-11.1945
▁මහේෂ්	-11.1946
▁බහා	-11.1946
කලා	-11.1951
▁ධූරයේ	-11.1953
▁ඔබගේ	-11.1954
▁හිමිනම	-11.1954
▁ඉවහල්	-11.1955
▁එප්පාවල	-11.1955
▁බඩඉරිඟු	-11.1955
▁ප්රභූ	-11.1955
▁නියඟය	-11.1955
▁ඊසාන	-11.1955
▁අමුත්තන්	-11.1955
ියේ	-11.1955
▁ක්රියාන්විත	-11.1956
හත්	-11.1957
▁වෙළෙඳුන්	-11.1958
▁සංසදයේ	-11.1959
▁බැංකුවට	-11.1966
▁බත්	-11.1969
ත්වයක්	-11.1969
ලැබුනු	-11.1971
ක්ෂණ	-11.1971
වරණය	-11.1975
▁වනතෙක්	-11.1975
ර්ෂල්	-11.1976
▁රසායන	-11.1979
ෙහෙ	-11.1983
▁කුරුවිට	-11.1987
▁ක්රිඩා	-11.1987
වැල්	-11.1987
▁ගැණුනු	-11.1987
▁පෙන්වීම	-11.1988
▁ඇන්ඩ්	-11.199
▁එකක	-11.1996
▁පරිශ්රයට	-11.1997
▁සිදුනොවන	-11.1999
▁වෙළඳසැලක	-11.2001
ීමක්	-11.2001
▁කිලෝග්රෑමයක්	-11.2001
▁විද්යාඥයින්	-11.2002
තෙ	-11.2004
▁මාසයක	-11.2004
▁යතුරුපැදියක	-11.2004
▁සම්බන්ධතාව	-11.2008
▁පැත්තෙන්	-11.2009
▁එකඟතාවකට	-11.201
▁දිවුරුම්දීම	-11.2011
▁කැමරාවක	-11.2014
▁වීරකැටිය	-11.2016
▁නිරිතදිග	-11.2016
▁වැඳ	-11.2016
▁කලබල	-11.2021
▁සමීපව	-11.2025
▁ටිරාන	-11.2027
▁ගසක්	-11.203
▁පැවසූවේ	-11.203
▁40ක	-11.2039
▁නීතීඥවරුන්	-11.204
▁කිරීම්වල	-11.204
▁බෝර	-11.2041
▁පරීක්ෂණවලට	-11.2041
65	-11.2042
▁පන්න	-11.2043
ගින්න	-11.2045
▁අවුරුද්දේ	-11.2045
▁පසුකර	-11.2045
▁ඌර	-11.2046
▁අහිංසක	-11.2046
▁කොච්චිකඩේ	-11.2046
▁ටේරෂරීස්	-11.2046
▁නිරෝෂන්	-11.2046
▁දැක්විය	-11.205
▁500ක	-11.2051
්දැයි	-11.2051
▁මන්ත්රිවරයා	-11.2053
▁වෙනකොට	-11.2054
▁අනාගතයේ	-11.2061
▁තුර්කියේ	-11.2065
▁දීමක්	-11.2069
ලයින්	-11.2071
▁වර්තමානය	-11.2072
▁වාතාවරණයක්	-11.2073
▁ගනි	-11.2074
ඩෙ	-11.2076
▁වහල	-11.2077
▁ඉදිකිරීමේ	-11.2077
▁ප්රචලිත	-11.2077
▁කොන්	-11.2077
▁ප්රියමාලි	-11.2077
▁අවධානමක්	-11.208
▁කෞතුකාගාරය	-11.2081
▁පෙත්සම්කරු	-11.2081
▁ස්ථානයකට	-11.2084
▁ශ්රීලනිපය	-11.2085
▁මහත්මියට	-11.2087
▁පැදියකින්	-11.2091
ෝන්	-11.2092
▁පදනමක්	-11.2093
▁යුගයේ	-11.2096
ස්සා	-11.2096
▁ආපදාවට	-11.2097
▁ගෙවුණ	-11.2099
▁අරමුණක්	-11.2101
▁කර්මාන්තශාලා	-11.2105
▁මාලදිවයිනේ	-11.2107
▁කඹුරුපිටිය	-11.2108
▁සම්මුතිය	-11.2108
▁කේරල	-11.2108
▁මතුවී	-11.2121
▁24ක	-11.2123
▁ඡන්දයෙන්	-11.2126
මිය	-11.213
▁නොවිය	-11.2132
▁කිව්ව	-11.2133
මාසිකව	-11.2134
▁විසිනි	-11.2135
▁වැටලීමට	-11.2137
▁නොතිබුණ	-11.2139
▁විසිනුයි	-11.2139
▁කි්රයාමාර්ග	-11.2139
තික	-11.2139
▁රත්ගම	-11.2142
▁පුහුණුවීම්	-11.2143
ාගාරයේ	-11.2143
▁ලියා	-11.2143
▁හදලා	-11.2143
අම්ම	-11.2143
▁යටතේයි	-11.2146
▁ලෙඩ	-11.2148
ෝල්	-11.2149
▁ආධාරයෙන්	-11.2151
▁අපරාධකරුවන්	-11.2151
▁12ක	-11.2153
▁මාර්ගයේදී	-11.2155
7000	-11.2158
▁මූලස්ථානයට	-11.2159
වෙන්නේ	-11.2161
▁පිරිපහදු	-11.2162
මාධ්ය	-11.2166
▁500ක්	-11.2168
▁එක්නැලිගොඩ	-11.217
ma	-11.217
▁අවපාතය	-11.217
▁මහඇමති	-11.2171
▁ස්වල්පයක්	-11.2176
▁සංගමයට	-11.2176
▁ගැනුණේ	-11.2177
පෙර	-11.2177
▁උසාවිය	-11.2178
▁යහපත	-11.2179
ෙයාර්	-11.2181
▁හුරු	-11.2183
▁නොහැකිවීම	-11.2184
▁කලු	-11.2187
▁මෙයින්	-11.2188
▁නොවන්නේ	-11.2189
▁ලැබි	-11.2191
▁ආරම්භයේ	-11.2191
යෙන්ම	-11.2193
63	-11.2193
පත්ර	-11.2195
▁කොවි	-11.2195
ෝර්	-11.2197
▁පැන්	-11.2197
▁තායිවානය	-11.2198
ශාන්ත	-11.2198
▁අපහසුතාව	-11.2199
▁හමාරක	-11.22
▁තත්වයන්	-11.22
▁ඔමික්රොන්	-11.2201
▁ප්රදානෝත්සවය	-11.2201
▁ප්රසම්පාදන	-11.2201
▁ඇවිල්ලා	-11.2201
▁ජාසිංහ	-11.2202
▁දියතලාව	-11.2202
▁කොස්ගම	-11.2205
▁උදාකර	-11.2208
▁තානාපතිවරුන්	-11.2214
හම	-11.2214
▁එහා	-11.2215
ජනාධිපතිවරයා	-11.2219
හල්	-11.2219
▁අවන්හල	-11.2228
▁ලබාගන්න	-11.223
▁ශ්රීලනිප	-11.223
▁උසාවි	-11.2232
▁ඔවුහු	-11.2232
▁තුන්වැනි	-11.2233
රාජ්ය	-11.2234
හම්	-11.2236
යාමේ	-11.2238
▁නේවාසිකාගාර	-11.224
▁හෙක්ටයාර	-11.2241
▁යොදාගැනීම	-11.2242
▁වැළ	-11.2243
▁වැටි	-11.2244
▁ස්වාධීනව	-11.2244
▁අමාත්යවරුන්ගේ	-11.2244
▁අධිකයි	-11.2244
▁කරමිනුයි	-11.2246
කාර්	-11.2249
▁යුවල	-11.2251
▁පුන	-11.2255
▁ප්රමාදය	-11.2256
▁වෙන්දේසි	-11.226
▁ජර්මනියේ	-11.2261
▁සෝමාලියා	-11.2263
▁ඇණහිට	-11.2263
drive	-11.2263
▁මව්බිම	-11.2263
▁මහත්මීන්	-11.2264
▁සැරයන්වරයෙකු	-11.2265
▁රාමුව	-11.2265
▁4000	-11.2266
▁ප්ලස්	-11.2269
▁භාරව	-11.227
▁70ක්	-11.2274
▁තිබියදීත්	-11.2279
▁පන්දහස	-11.228
▁වෙළෙඳසැල්	-11.2281
▁කෘතිය	-11.2284
▁ඩිපෝ	-11.2285
▁දායකයින්	-11.2286
▁සුළඟේ	-11.2289
▁අද28	-11.229
▁දෙවියන්	-11.2293
▁ඉස්ලාමීය	-11.2294
▁මුතුරාජවෙල	-11.2294
▁තර්ක	-11.2295
▁පෙරලී	-11.2296
▁පනහ	-11.2298
▁ඇෆ්ගනිස්ථානයේ	-11.2299
▁වර්ගය	-11.2301
▁මෙගා	-11.2301
▁පැණි	-11.2306
▁ගග	-11.2309
▁දූ	-11.2317
▁ගුරුවරුන්ට	-11.2318
he	-11.2321
කුඩා	-11.2321
▁පිවිසුම්	-11.2323
▁පෙන්වාදුන්	-11.2323
▁අධිචෝදනා	-11.2326
▁ඩග්ලස්	-11.2326
▁නිව්යෝර්ක්	-11.2326
▁කයිට්ස්	-11.2326
▁වෙරළබඩ	-11.2327
▁පරිප්පු	-11.2328
▁මන්ත්රීවරයාට	-11.2329
▁මට්ටම්	-11.233
▁කෙතරම්	-11.2331
▁බිරිඳගේ	-11.2336
ාර්	-11.2341
▁ප්රචාරණ	-11.2342
▁හන්දියේ	-11.2344
මඩුව	-11.2346
▁පොලිය	-11.2348
▁තත්ත්වයක	-11.2349
▁ලොරිය	-11.2349
▁දවස්	-11.2351
▁පහරදීමකින්	-11.2355
▁සරල	-11.2355
▁කාත්තන්කුඩි	-11.2357
▁දිලුම්	-11.2357
▁කියාසිටියා	-11.2357
▁රිජ්ව	-11.2358
▁තදාසන්න	-11.2358
▁සහභාගිවීමට	-11.2359
50ක්	-11.2359
▁විශිෂ්ටතම	-11.236
්නෙ	-11.2362
▁ඇමතිනි	-11.2362
ලයේ	-11.2363
වැඩි	-11.2365
කාලය	-11.2366
▁සැලකීම	-11.2372
▁දුම්	-11.2376
▁මාළිගාව	-11.2381
▁ආයතනික	-11.2381
▁පාඨ	-11.2386
▁තැපෑල	-11.2389
comfiled1	-11.2389
▁අභ්යාස	-11.239
▁වෙඩිතැබීම	-11.239
▁පැවැත්වුණි	-11.2391
▁නැගු	-11.2392
▁තෙදින	-11.2392
▁පාසලක්	-11.2393
▁දිනකම	-11.2396
මහින්ද	-11.24
▁පිලිපීනය	-11.2404
▁පැවසේ	-11.2404
▁හදන	-11.2411
▁පරිසරයක්	-11.2414
91	-11.2417
▁හිතවාදී	-11.2417
දෙමින්	-11.2419
▁කැබිතිගොල්ලෑව	-11.2421
▁සෙබලුන්	-11.2421
▁සෙවණ	-11.2421
▁සභාවෙන්	-11.2421
▁එරටින්	-11.2422
▁කදවුරේ	-11.2423
▁ලිපියෙන්	-11.2425
නෑ	-11.2425
▁පාර්ශ්වයේ	-11.2427
ct	-11.2428
▁සිහිනය	-11.2431
▁අරමුණෙන්	-11.2434
▁කථිකාචාර්ය	-11.2435
99	-11.2436
▁බිඳවැටීම	-11.2436
▁දූෂණයට	-11.2449
▁ආදාහන	-11.2449
▁මැක්	-11.2452
▁මිතුරෙකු	-11.2453
▁සුපුරුදු	-11.2453
▁හඳුන්නෙත්ති	-11.2453
▁සභාපතිවරුන්	-11.2454
ජේම්ස	-11.2454
▁සිටියද	-11.2455
▁පිලපිටිය	-11.2456
ට්ටුව	-11.2463
▁පෙන්න	-11.2464
▁සුරක්ෂිතතා	-11.2474
හාන්	-11.2474
▁විටෙක	-11.2477
▁නිපදවීම	-11.2478
▁නේපාලය	-11.2479
▁අසා	-11.2481
▁පූජක	-11.2485
▁උනන්දුවක්	-11.2486
▁බලාපොරොත්තුවෙන්	-11.2487
▁ධීවරයින්ට	-11.2488
කර්ම	-11.2492
▁සමාගමෙන්	-11.2499
▁විගණකාධිපති	-11.2499
බන්	-11.2504
▁මාලිගා	-11.2506
om	-11.2506
▁වෙළඳපොළට	-11.2506
▁නිසාවෙන්	-11.2506
▁තීරයට	-11.2508
▁පටහැනිව	-11.2509
ගාමී	-11.2513
▁ප්රපාතයකට	-11.2517
▁හොරොව්පතාන	-11.2517
▁ෆෙඩරල්	-11.2517
▁චැනල්	-11.2517
▁වීඩියෝවක්	-11.2517
usp	-11.2518
▁වටහා	-11.2522
ම්භ	-11.2528
▁බැලීමේ	-11.2529
▁තත්වයේ	-11.2531
▁ගොඩනැගීමේ	-11.2531
▁ක්රීඩාවේ	-11.2532
▁පරීක්ෂණයේදී	-11.2533
▁පොරොන්දුව	-11.2535
▁සුන්දර	-11.2536
▁මුණගැසී	-11.2537
▁දේශය	-11.2542
▁චෝදනාවලට	-11.2543
▁සාමාජිකයින්ට	-11.2545
▁ඇතිවීම	-11.2548
▁පටිගත	-11.2549
▁අන්තෝනි	-11.2549
▁බීජිං	-11.2549
▁කෙසෙල්වත්ත	-11.2551
▁සැලකෙන්නේ	-11.2552
▁වැළඳී	-11.2553
▁වෙද්දී	-11.2554
ලෑ	-11.2555
▁එක්කෝටි	-11.2556
▁ලේඛණ	-11.2557
▁මාගේ	-11.2559
ිනා	-11.2562
නියාව	-11.2562
▁තරඟයේදී	-11.2565
▁අන්දම	-11.257
▁දිනෙක	-11.2575
▁නොයන	-11.2576
▁ඉතාලි	-11.2577
▁චෙ	-11.2577
sharing	-11.2581
▁නොතබන	-11.2581
▁විසර්ජන	-11.2581
▁සාමූහික	-11.2581
▁හිඟුරක්ගොඩ	-11.2581
▁ඛේදවාචකය	-11.2581
▁ගොඩනගා	-11.2581
▁පලස්තීන	-11.2581
▁නිකුතුව	-11.2581
▁මාධ්යවේදියා	-11.2581
de	-11.2581
▁සාධන	-11.2583
▁හිම	-11.2584
▁ලබාදෙනවා	-11.2587
▁හරක්	-11.2589
▁චක්රලේඛයක්	-11.2591
ඹේ	-11.2591
▁විනිසුරුවරිය	-11.2592
▁සමාගම්වල	-11.2594
වහන්සේ	-11.26
▁ලබාදීමටයි	-11.2601
▁අදින්	-11.2602
▁10ට	-11.2603
ම්බු	-11.2603
▁වතාවත්	-11.2603
▁කර්මාන්තයට	-11.2603
▁තට්ටු	-11.2605
▁විශ්වවිද්යාලවල	-11.2606
▁000	-11.2611
▁අස්වීමට	-11.2613
▁නීතිරීති	-11.2613
▁වයිරසය	-11.2613
▁කඩඉම	-11.2614
▁තිරණය	-11.2614
සුම්	-11.2615
ම්බි	-11.2617
▁ෆා	-11.2618
▁450	-11.2619
▁වාරික	-11.2619
ංචි	-11.2621
▁මනි	-11.2622
▁අපරාධයක්	-11.2623
▁අලාභය	-11.2624
ික්	-11.2625
▁අර්	-11.2626
▁එන්නතක්	-11.2628
▁ශෝකය	-11.2628
▁සූදානම්ව	-11.263
▁යොදන	-11.2634
▁වෙන්ව	-11.2635
es	-11.2636
▁බවත්ඒ	-11.2637
▁ඈත	-11.2638
▁පහව	-11.2639
▁කොඩිය	-11.2642
▁පිළිගැනීමට	-11.2643
▁නොච්චියාගම	-11.2646
▁විකිරණ	-11.2646
▁සහජීවනය	-11.2646
විල්ල	-11.2646
▁රියර්	-11.2648
▁අගවිනිසුරුවරිය	-11.2648
▁රඟ	-11.265
▁අසාධාරණය	-11.2652
▁පිරිසක්ද	-11.2653
දෙනකු	-11.2653
▁ගෙන්වීමට	-11.2654
▁වෛරසයේ	-11.2662
▁ඉගැන්වීම්	-11.2663
▁විදේශගතව	-11.2665
ශී	-11.2665
ග්රෑ	-11.2667
▁සාධාරණය	-11.2667
▁පිළිබඳවයි	-11.2667
▁නායයාම්	-11.2668
▁කෙරෙමින	-11.2669
▁අගවිනිසුරුවරයා	-11.2671
▁සැසි	-11.2672
▁ධාරිතාවක්	-11.2678
▁ආන්දෝලනය	-11.2678
▁යෝෂිත	-11.2679
▁මාරසිංහ	-11.2679
▁බැම්ම	-11.2679
▁ජොන්සන්	-11.2679
▁ඉදිරිපස	-11.2679
▁තිදරු	-11.2679
සහගත	-11.268
▁08ක්	-11.2683
▁පවතිනු	-11.2684
▁සිරදඬුවම්	-11.2684
▁ළඟාවීමට	-11.2685
▁කැදවන	-11.2686
▁ප්රමුඛතාව	-11.2687
▁අත්වැල්	-11.2694
▁වියදමින්	-11.2695
▁වයස්කාර	-11.2699
▁නායයාම	-11.2699
▁එතැන	-11.2702
▁කොහොම	-11.2703
▁සමත්වී	-11.2704
▁හතක්	-11.2707
ඳුර	-11.271
▁සම්පාදක	-11.2711
▁ආකර්ෂණය	-11.2711
▁ජයරාම්	-11.2711
▁රෝයල්	-11.2711
▁ඉරුදින	-11.2712
▁මැඩලීම	-11.2712
ස්ටන්	-11.2712
▁ගොණු	-11.2713
▁ජනවරම	-11.2713
▁මෝඩි	-11.2715
▁මරණකරු	-11.2719
▁ගැන්වීම	-11.2721
▁පැටවා	-11.2722
▁අදාළවයි	-11.2722
▁ඊශ්රායල	-11.2724
▁වකවානුව	-11.2724
▁තරඟයෙන්	-11.2726
▁පසුදින	-11.2729
▁කවුරුත්	-11.2729
▁නිලමේ	-11.273
▁මූලිකත්වයෙන්	-11.2731
▁විපක්ෂව	-11.2732
▁ශිව	-11.2735
▁පිරී	-11.2736
▁35ක්	-11.2736
▁ලබාගත්තේය	-11.2739
▁පත්වූවන්	-11.274
▁එකග	-11.274
▁වතුකරයේ	-11.2744
▁සපුරාලීම	-11.2745
පත්තු	-11.2747
▁මතින්	-11.2748
▁ගමනට	-11.2748
▁22ක්	-11.2749
▁මළු	-11.275
සිම්	-11.2752
▁බිහිකිරීම	-11.2757
▁බදවා	-11.2757
▁පිරවීම	-11.2758
ිඳු	-11.2759
▁බලකරමින්	-11.276
▁චාරිකාවකට	-11.2762
▁අඩවියේ	-11.2764
▁පිවිසීම	-11.2768
▁නොතිබීම	-11.2777
▁සමරන	-11.2777
පදි	-11.2777
▁දරුවෙක්	-11.2777
මෙරට	-11.2777
හෙ	-11.2779
▁ගැටලූව	-11.278
▁එකගතාව	-11.278
▁ජීවන්	-11.2783
▁පෘථිවිය	-11.2784
▁අමාත්යවරයාගෙන්	-11.2786
▁නාවල	-11.2793
වතු	-11.2793
▁පෙන්වන	-11.28
▁ඉනිමේ	-11.2801
▁තහනමට	-11.2802
රෝධ	-11.2804
▁හම්බ	-11.2805
▁ස්තූති	-11.2806
▁දියණියගේ	-11.2807
▁මෝසම්	-11.281
▁තලෙයිමන්නාරම	-11.281
▁වික්ටෝරියා	-11.281
▁ඩිංගි	-11.281
▁ප්රයත්නය	-11.281
▁වැරදිකරුවන්	-11.2812
ගැන	-11.2812
▁ඉවත	-11.2812
▁පසෙක	-11.2814
▁බැලීමේදී	-11.2815
▁වැළලා	-11.2815
▁තැබීම්	-11.2816
▁දේවි	-11.2824
▁පළකළා	-11.2827
▁උළෙලට	-11.2829
මඩු	-11.283
්රි	-11.2832
▁ඉවත්වන	-11.2834
▁ප්රමාණයකින්	-11.2834
▁ආකාරයක	-11.2836
▁දැන්වීම	-11.2842
▁ආව	-11.2842
▁කඩාකප්පල්	-11.2842
නෙත්	-11.2843
▁වාලච්චේන	-11.2843
▁බවුසරය	-11.2843
▁අතිවිශේෂ	-11.2843
▁සබරගමු	-11.2846
▁ලීටර	-11.2847
▁අද29	-11.285
▁සාදයක්	-11.285
▁හිතවත්	-11.2853
▁පන්සල	-11.2854
වීමේදී	-11.2855
▁50කට	-11.286
▁බංග්ලාදේශයේ	-11.2864
ජ්ජ	-11.2866
ප්රදේශ	-11.2871
▁අළෙවි	-11.2876
▁මනූෂ	-11.2876
▁විලියම්	-11.2876
▁සුමතිපාල	-11.2876
▁පොලිස්පතිවරයාගේ	-11.2877
▁වැසී	-11.2878
▁පහකට	-11.288
▁පවතියි	-11.2883
▁ප්රමාදයක්	-11.2887
කරනවා	-11.2889
▁කාර්යයක්	-11.289
මාණ	-11.2893
ධාරි	-11.2895
▁අස්වන	-11.2898
▁රැළියට	-11.2899
▁වේලාවට	-11.2902
▁නීතිපතිවරයාට	-11.2903
▁සම්පුර්ණ	-11.2904
▁අධ්යාපනයේ	-11.2906
▁ලබාදීමේදී	-11.2908
▁තෑගි	-11.2909
▁ලියකියවිලි	-11.2909
▁කාමරයේ	-11.291
▁සක්රිය	-11.291
පැවැත්	-11.291
▁ගාල්ලේ	-11.2911
▁වර්ගයක්	-11.2911
▁ධාරාව	-11.2913
▁නිරීක්ෂණයට	-11.2914
ලාභී	-11.2916
▁ශිරාණ	-11.2916
▁කින්නියා	-11.2918
ධුර	-11.2921
වන්නන්	-11.2922
▁වීරයා	-11.2924
com	-11.293
පරණගම	-11.293
▁ගර්භය	-11.2931
▁නිරන්තර	-11.2934
ේෂන්	-11.2941
▁හුසේන්	-11.2943
▁කිඹුලා	-11.2943
▁පරිවාස	-11.2944
me	-11.2945
▁කොන්ත්රාත්තුව	-11.2946
▁හැඳුනුම්පත	-11.2946
▁පැවැත්වීමේ	-11.2951
▁නොකරන්නේ	-11.2954
▁කුමන්ත්රණ	-11.2955
ණයක්	-11.2958
▁සංකීර්ණයේදී	-11.2961
▁අතුරුදන්වූ	-11.2965
▁වැටලීමක්	-11.2966
▁පන්නල	-11.2966
▁සිදුවීමෙන්	-11.2968
▁ඉක්මවන	-11.2975
▁දූපතේ	-11.2976
▁අඩපණ	-11.2977
▁ටෙලිනාට්ය	-11.2977
▁සනීපාරක්ෂක	-11.2977
▁සෙල්සිය	-11.2977
▁ඔස්ට්රෙලියානු	-11.2977
▁ජනිත්	-11.2977
▁කොස්වත්ත	-11.2979
▁මධු	-11.298
▁අනතුරුදායක	-11.298
▁නවසීලන්තයේ	-11.2982
▁ජයන්ති	-11.2985
▁සේවකයන්ගේ	-11.2985
▁සොයාගැනීමට	-11.2986
දේව	-11.2988
▁පණිවිඩ	-11.299
කෝටි	-11.2991
▁සැමරීමට	-11.2991
▁220	-11.3002
▁විවාදයක්	-11.3003
▁පාක්ෂිකයන්	-11.3007
▁සංවිධානවල	-11.3007
▁යුනි	-11.3007
▁නිළිය	-11.3009
▁අපහසුතාවය	-11.301
▁මිනිසා	-11.301
▁නිවැරදිව	-11.3011
▁සාප්පු	-11.3012
වුල	-11.3014
▁සුරංග	-11.3014
මඩ	-11.3015
▁කෝටිපති	-11.3016
▁තෙල්දෙණිය	-11.302
▁ගහන්න	-11.3023
▁සඟවාගෙන	-11.3024
▁රෝගයෙන්	-11.3025
▁කොස්තාපල්	-11.3028
▁නිලධාරියෙකුට	-11.3031
▁ප්රමාණයක	-11.3032
us	-11.3032
▁කඳුකර	-11.3032
මරණීය	-11.3033
▁වැටීමට	-11.3035
▁නියං	-11.3035
▁කන්දක්	-11.3037
▁රැකගැනීම	-11.3038
▁හිමිවනු	-11.3042
▁පහරක්	-11.3044
▁නෝර්වේ	-11.3044
▁කණිෂ්ඨ	-11.3044
▁පරස්පර	-11.3044
▁මාකඳුරේ	-11.3044
▁නොපැමිණි	-11.3044
▁ප්රසිද්ධියට	-11.3044
▁කැදවීමට	-11.3044
ධනය	-11.3047
▁අද26	-11.3051
▁බසින	-11.3052
▁මොහුට	-11.3053
▁තියෙන්නෙ	-11.3055
▁පොලි	-11.306
▁බැසීම	-11.3072
▁ඔවුන්ව	-11.3076
▁දිඹුල	-11.3078
▁ආම්පන්න	-11.3078
▁කාළගුණ	-11.3078
▁තාප්පය	-11.3078
▁අරගලයේ	-11.3079
▁Ch	-11.3079
▁කුමක්දැයි	-11.3079
▁අනුකූල	-11.3081
▁මිත්රත්වය	-11.3084
▁ෆෙ	-11.3088
▁පරීක්ෂණයකට	-11.3089
▁සිදුකෙරුණු	-11.3089
▁ඉන්පසුව	-11.3094
▁වරම්	-11.3096
උතුරු	-11.3099
▁කාලීනව	-11.31
▁දේහයට	-11.3102
හළ	-11.3105
▁පරීක්ෂණයෙන්	-11.3105
▁කරති	-11.3108
ණන්	-11.311
▁රැසකින්	-11.3111
▁ප්රජාතන්ත්ර	-11.3111
▁වාරයේ	-11.3112
▁මත්පෙති	-11.3112
▁බයිඩ්න්	-11.3112
▁ගතවී	-11.3112
ෙහෙලිය	-11.3113
▁නෙවිල්	-11.3113
▁බාරදුන්	-11.3115
▁යොමුකරමින්	-11.3115
▁බළ	-11.3116
▁තුවාලකරුවන්	-11.3117
▁නිලධාරීහු	-11.312
▁ජිවිත	-11.3122
▁කීට	-11.3123
▁පිලිබද	-11.3124
▁අළු	-11.3126
▁225	-11.3128
▁හමුදාවෙන්	-11.3133
▁ඇදුම්	-11.3135
▁අයවැයට	-11.3139
▁වේවි	-11.3139
▁එමනිසා	-11.3146
▁මුණසිංහ	-11.3147
▁ඉවුර	-11.3149
▁අරගලයට	-11.3149
▁රටම	-11.3153
▁අද24	-11.3156
▁ඒකමතිකව	-11.3157
ේෂ්වර	-11.3159
▁හිංසනය	-11.316
▁වාර්තාවෙයි	-11.3161
▁නිලධාරිවරයා	-11.3164
▁මදු	-11.3164
▁කොල්ලය	-11.3166
ගරු	-11.3167
ve	-11.3168
වැසි	-11.3169
ිමින්	-11.317
▁කතාවක්	-11.3171
se	-11.3171
▁නගරයක්	-11.3172
▁උදාවී	-11.3178
▁නොපැමිණීම	-11.318
▁එවැන්නක්	-11.318
▁ඇඟිලි	-11.3181
▁ශ්රේණියට	-11.3184
▁කන්දේ	-11.3185
▁සැකකරුවකු	-11.3189
▁මුදවා	-11.3189
▁ගැටලුකාරී	-11.3191
▁අද21	-11.3191
▁භාෂාවෙන්	-11.3192
▁චාරිත්ර	-11.3193
පිටි	-11.3193
▁සමඟම	-11.3198
තුළ	-11.3207
▁අහන්න	-11.3207
▁ලන්ඩනයේ	-11.321
▁ස්මාරකය	-11.3211
▁මද්දුම	-11.3214
▁අවිධිමත්	-11.3215
▁රාජකරුණා	-11.3215
▁නර්තන	-11.3215
▁නැවතුම්පොළ	-11.3215
▁දළඹු	-11.3216
▁ස්ථානගත	-11.3216
▁සීඝ්රයෙන්	-11.3218
▁නෙදර්ලන්ත	-11.322
▁හොරු	-11.3223
▁කැඳවු	-11.3225
ගර	-11.3227
කෙරෙන	-11.3227
රිදි	-11.3229
▁කුමාරි	-11.323
▁තැනට	-11.3234
▁පස්වරුව	-11.3235
▁වනෝද්යානයේ	-11.3235
▁විරෝධතාවල	-11.3235
▁මාසයකට	-11.3238
▁තලාව	-11.3239
දුනහොත්	-11.3243
▁ගෙනයන	-11.3244
▁ලේකම්වරයෙකු	-11.3248
▁කොටු	-11.3249
▁ඉංගිරිය	-11.3249
▁සුසන්ත	-11.3249
▁නිලධාරියකු	-11.3252
▁උදාව	-11.3254
▁ඇසූ	-11.3256
▁දිස්ත්රීක්කය	-11.3257
▁සිතියම	-11.3262
▁විද්ය	-11.3262
▁පුද්ගලයන්ගේ	-11.3266
▁ගිං	-11.3275
මුණ	-11.3276
▁විහාරස්ථානයට	-11.3276
▁මැරීම	-11.3277
▁අරමුදලට	-11.3278
▁to	-11.3284
▁මට්ටමකට	-11.3286
ta	-11.3291
සිල්	-11.3292
▁හස්ත	-11.3293
ංච	-11.3293
▁මෙහෙයුමක	-11.3293
▁දෙන්නට	-11.3294
▁හොරකම්	-11.3296
▁වක්ර	-11.3296
▁මුල්කර	-11.3297
▁ගෙඩි	-11.3298
▁ත්යාගය	-11.3299
83	-11.33
ගර්	-11.3303
▁පත්රයට	-11.3305
▁යුද්ධයේ	-11.3305
සුරිය	-11.3313
▁හද	-11.3313
▁ළදරු	-11.3315
▁නිර්මාතෘ	-11.3318
▁පිරිනමා	-11.3318
▁පල්ලෙකැලේ	-11.3319
▁කිසිවකු	-11.3319
▁සරසවියේ	-11.332
▁අඩුවෙන්	-11.332
▁යුරෝ	-11.332
ගැන්වීම	-11.3323
පල්ල	-11.3323
ච්ඡ	-11.3323
▁නුවරට	-11.3326
අතවරයට	-11.3331
ධූර	-11.3331
▁අද16	-11.3335
▁මහජනතාවගේ	-11.3344
▁එදිනම	-11.3346
▁තරගාවලි	-11.3353
▁ඇඟවීම්	-11.3353
▁සරිලන	-11.3353
▁දැමිය	-11.3353
▁චානක	-11.3353
▁නලීන්	-11.3354
▁සර්වඥ	-11.3355
මාල	-11.3357
▁ඉටුකළ	-11.3359
▁වේවා	-11.336
▁හැසිරෙන	-11.336
සත්	-11.3362
සුරු	-11.3365
▁වනුයේ	-11.3365
▁පත්වූයේ	-11.3365
▁රහසිගත	-11.3366
▁පත්රිකාවක්	-11.3367
▁යාබද	-11.3367
▁වසරකම	-11.3371
▁පාර්ශ්වයන්	-11.3371
▁අද20	-11.3372
▁පත්කරනු	-11.3381
▁14ක	-11.3381
▁සමාජගත	-11.3383
▁සංවර්ධනයක්	-11.3388
▁අස්වැසුම	-11.3388
▁පොල්ගහවෙල	-11.3388
▁බිල්	-11.3388
පතිවරයා	-11.3391
▁එක්ස්	-11.3392
▁පන්දුවක්	-11.3393
▁ප්රතිපත්තියට	-11.3394
▁කැමැත්තෙන්	-11.34
▁හිතකර	-11.3402
න්දර	-11.341
▁අටක්	-11.341
▁මැදගම	-11.3413
▁300ක්	-11.3416
▁නායයෑමේ	-11.3418
▁නැකත	-11.3419
▁කෙටුම්පතක්	-11.3419
ප්රිය	-11.342
▁170	-11.3423
▁ඔබාමා	-11.3423
▁දෙපාර්ශ්වය	-11.3423
▁වහලය	-11.3426
▁ලිපිනයේ	-11.3431
▁ගීතා	-11.3432
▁දේශනා	-11.3438
▁සාකච්ඡාවල	-11.344
ay	-11.3441
▁සභාපතිවරයාට	-11.3444
වකු	-11.3445
▁බලයෙන්	-11.3447
▁බුදුන්	-11.3451
▁පල්ලේගම	-11.3455
දෙන්නැයි	-11.3456
▁විශේෂඥයන්	-11.3457
▁ගහන	-11.3457
ෲ	-11.3458
දොම්පේ	-11.3459
▁රහසේ	-11.3459
ල්ටන්	-11.3459
▁මුදාගැනීම	-11.346
▁ගමන්වාර	-11.346
▁පැරිස්	-11.3461
▁උපහාර	-11.3463
අඩි	-11.3465
▁නික්ම	-11.3467
▁පාවෙමින්	-11.3469
▁එකල	-11.3472
▁විවාහය	-11.3472
▁උන්වහන්සේගේ	-11.3473
▁පිරිවෙන්	-11.3476
▁පැවසීම	-11.3476
▁සිරුරේ	-11.3477
▁ප්රදේශවලදී	-11.3479
▁රෝගයක්	-11.348
ංග්	-11.3482
▁අනුරාධපුරයේ	-11.3486
▁වැටලීමේදී	-11.3488
▁අත්හිටුව	-11.349
▁දෙය	-11.349
3ක	-11.349
▁තොණ්ඩමන්	-11.3494
▁නිරාවරණය	-11.3494
▁භුක්ති	-11.3494
ang	-11.3494
ුයේ	-11.3495
▁වගකිවයුතු	-11.3495
▁දේපළවලට	-11.3495
▁භාණ්ඩවල	-11.3496
▁පතිත	-11.3497
▁තදින්	-11.3498
වාසි	-11.3498
▁වැටුපක්	-11.3499
▁සංචිතයට	-11.3502
▁සමනය	-11.3507
▁පකිස්ථානයේ	-11.351
▁ශිෂ්යයින්	-11.3513
▁අසලට	-11.3516
▁පිර	-11.3518
▁දාන්න	-11.3523
▁අලී	-11.3525
▁කැනඩා	-11.3525
යෙකුගේ	-11.3528
▁ජෝශප්	-11.3529
▁පෞද්ගලීකරණය	-11.3529
▁බෙදාහරින	-11.353
▁දිනකදී	-11.353
▁දේශපාලඥයින්	-11.3533
▁අද12	-11.3542
▁අගමැතිතුමා	-11.3542
නිෂ්	-11.3545
නර්	-11.3545
▁ගාල්	-11.3546
▁සැමි	-11.3547
▁117	-11.3549
▁වෙළෙඳපොළේ	-11.3551
▁මැඩපැවැත්වීම	-11.3552
▁තැන්	-11.3554
▁පත්වීමේ	-11.3554
▁ශිෂ්යාවන්	-11.3555
▁වැළදී	-11.3562
▁ඇඟළුම්	-11.3565
▁දියවඩන	-11.3565
▁බෙහෙවින්	-11.3565
▁වාර්ථා	-11.3565
මිණි	-11.3566
▁වඳුර	-11.3566
▁හමුවු	-11.3568
▁මීදුම්	-11.3571
දීන්	-11.3574
▁වම්	-11.3575
▁යහ	-11.3578
▁කිහිපයක්ම	-11.3579
▁පැල්	-11.3581
▁බ්ල	-11.3585
▁ආශිර්වාදය	-11.3589
▁නාමලේඛනය	-11.3591
ජ්ය	-11.3591
▁ප්රවණතාව	-11.3593
භාව	-11.3596
▁කිතුල්	-11.36
ඇල්ල	-11.36
▁ගම්වැසියන්	-11.3601
▁සීතාවක	-11.3601
▁රණවීර	-11.3601
▁කුරුඳුවත්ත	-11.3602
▁සමීපතම	-11.3602
▁ජින	-11.3607
ිති	-11.361
▁පැවසුවාය	-11.3611
කුලිය	-11.3614
▁වැසියන්ට	-11.3618
මෙය	-11.3621
▁ප්ල	-11.3622
▁රිට්	-11.3623
▁පිළිවෙළ	-11.3632
▁ඔස්	-11.3633
ිනී	-11.3634
▁ලේකම්වරු	-11.3635
ou	-11.3636
▁ඥාන	-11.3636
▁එදිනෙදා	-11.3636
▁පාරම්පරික	-11.3636
▁ස්වයංක්රීය	-11.3636
▁බිළිඳා	-11.3637
▁මහානාම	-11.3637
▁සයිබර්	-11.3637
▁මධුෂ්	-11.3638
▁ආකල්ප	-11.3638
▁හසුවී	-11.3639
▁උදවිය	-11.364
▁ඔෆ්	-11.3644
▁තොටුපළේ	-11.3646
▁දණ්ඩ	-11.3649
දානය	-11.3652
▁විහාරස්ථානයක	-11.3654
මහල්	-11.3657
▁ඉවත්වීම	-11.3659
▁Re	-11.366
ලියා	-11.3662
▁පහරදෙන	-11.3662
▁සිරියාවේ	-11.3664
▁විත්තිකරුට	-11.3665
තනය	-11.3666
▁පර්යන්ත	-11.3668
▁වේල්ල	-11.3671
▁සංයුතිය	-11.3672
▁සන්ධ්යා	-11.3672
▁ප්රමිතීන්	-11.3673
▁අයගෙන්	-11.3675
lo	-11.3677
▁ආදිවාසී	-11.3683
▁අංශවලට	-11.3691
▁මාසයට	-11.3693
▁අමාත්යාංශයෙන්	-11.3695
▁කාඩ්පත්	-11.3697
▁විමර්ශනයට	-11.3701
▁චැ	-11.3707
▁අරලගංවිල	-11.3709
▁ආන්දෝලනාත්මක	-11.3709
▁මුද්දර	-11.3709
▁නේටෝ	-11.3709
▁බලපෑමට	-11.3716
▁ගැටුමට	-11.3718
▁කාන්තාවන්ගේ	-11.3719
▁ලක්ෂපාන	-11.372
▁පිටුව	-11.3724
▁300ක	-11.3725
▁අද19	-11.3725
▁ප්රතිශක්තිකරණ	-11.3729
▁නිරතවීම	-11.373
▁මහකොමසාරිස්වරයා	-11.3732
▁සම්ම	-11.3734
▁පාලම්	-11.3734
▁මහලේ	-11.3738
▁සමර	-11.3742
▁සෙත්	-11.3742
▁විචාරණය	-11.3742
▁වාර්තාගත	-11.3742
▁මුරලිදරන්	-11.3745
▁අරඹා	-11.3745
▁බාධාවකින්	-11.3745
▁ඉන්දුනීසියාව	-11.3747
ඇය	-11.3748
▁මහජනයා	-11.375
▁ගේන්න	-11.375
▁පැවත්	-11.3755
▁එකසිය	-11.3759
▁2001	-11.3761
▁වසම	-11.3765
▁ක්රමයේ	-11.3765
▁යෝග්ය	-11.3768
▁කාන්දුවක්	-11.3772
▁ආපු	-11.3777
මිල්	-11.378
▁ටයිම්ස්	-11.3781
▁රෙජිමේන්තු	-11.3781
▁නියාමක	-11.3782
▁පසුවිය	-11.3783
▁රුවන්වැල්ල	-11.3784
▁පැලවත්ත	-11.3784
▁අනාගතයක්	-11.3785
▁හිගය	-11.3785
▁තිදෙනෙක්	-11.3785
gov	-11.3787
කරන්නේ	-11.3788
කුයි	-11.3791
▁කවි	-11.3793
▁රුසියාවෙන්	-11.3794
▁පාදක	-11.3796
▁රැජිණ	-11.3797
▁සොයන	-11.3797
▁යාන්ත්රණයක්	-11.3802
▁තඹ	-11.3804
සක	-11.3804
▁වතාවත්වල	-11.3804
▁සාගරයේ	-11.3806
▁හවුල්කාර	-11.3811
▁පවුලක	-11.3817
ඟින්	-11.3817
▁කරුවලගස්වැව	-11.3818
▁චෛත්ය	-11.3818
▁මූලාශ්ර	-11.3818
▁කාර්යයේ	-11.3818
ළා	-11.3819
▁සුජීව	-11.382
හෙයකින්	-11.3821
▁නොවීමට	-11.3821
දුම්	-11.3823
▁රහ	-11.3824
▁අබලන්	-11.3825
▁පිරිත්	-11.383
▁පිරිනැමීමට	-11.3834
▁ජලාශයට	-11.3836
▁මන්දිරයට	-11.3836
▁අද23	-11.3846
▁නොගත	-11.3846
▁එළැඹ	-11.3848
▁2002	-11.3851
▁විරා	-11.3851
▁බි්රතාන්ය	-11.3853
▁ස්වෛරී	-11.3854
▁පුරාවස්තු	-11.3854
▁මොහොමඞ්	-11.3854
▁ලග්ගල	-11.3854
▁වාද්දුව	-11.3854
▁හුස්ම	-11.3854
▁රත්රන්	-11.3855
▁පාකිස්තානයේ	-11.3856
ගමු	-11.3857
▁මුහුණදීම	-11.3858
▁101	-11.386
▁වෘත්තිකයින්	-11.3862
පස්	-11.3865
▁හුවමාරුවක්	-11.3867
නියන්	-11.3868
ෆු	-11.3871
▁පිලිබදව	-11.3878
▁රෝහල්වලට	-11.388
▁අස්වී	-11.3881
▁ලැයිස්තුවෙන්	-11.3882
▁නේපාල	-11.3882
▁අමාත්යවරු	-11.3886
▁දෙකයි	-11.3887
▁නිරූප	-11.3888
▁ද්වීපාර්ශව	-11.3891
▁ධාතූන්	-11.3891
▁පුබුදු	-11.3891
▁විද්යාපීඨ	-11.3891
▁සෙබලෙකු	-11.3891
▁කොම්පඤ්ඤවීදිය	-11.3891
▁සංඛ්යාලේඛන	-11.3891
▁පොලිතින්	-11.3891
▁දස්කම්	-11.3891
▁හමුදාවන්	-11.3891
▁කළොත්	-11.3892
▁උගුල	-11.3892
▁එතෙක්	-11.3893
▁පත්වුණේ	-11.3894
▁නැතහොත්	-11.3897
▁තිලක්	-11.3897
▁පුජා	-11.3897
▁හිටිය	-11.3898
▁උනන්දුව	-11.3899
▁හසන්	-11.39
▁කාර්යභාරයක්	-11.3901
▁පඩි	-11.3902
▁කණුවක	-11.3907
ෙන්නට	-11.3909
vi	-11.3911
▁ලාභයක්	-11.3913
▁ජන්ම	-11.3914
▁ගණනින්	-11.3914
▁දෝෂාභියෝගය	-11.3918
▁ගැනුම්	-11.392
ජනාධිපතිවරයාගෙන්	-11.392
ෙට්	-11.3923
▁ඉන්දුනීසියාවේ	-11.3925
▁නානුඔය	-11.3928
▁මොබිටෙල්	-11.3928
▁සුබපැතුම්	-11.3928
▁නොමග	-11.3928
▁පිළියම්	-11.3929
▁කොස්තාපල්වරුන්	-11.3929
ෆෝ	-11.3929
▁බැරල්	-11.3938
▁විද්යාඥයන්	-11.394
▁හීන	-11.395
▁කටාන	-11.3956
▁අඟ	-11.3958
▁තැනක්	-11.3961
▁කුලපති	-11.3962
▁ප්රේක්ෂක	-11.3964
▁ශ්වසන	-11.3965
▁වලස්මුල්ල	-11.3965
▁පිළිගනු	-11.3967
▁දණ්ඩනය	-11.3968
ඩම්	-11.3969
▁මුලස්ථානය	-11.397
▁රටපුරා	-11.3972
▁දුක	-11.3974
▁ප්රදේශයේදි	-11.3975
▁කාර්යාලයක්	-11.3975
▁1200	-11.3976
▁අවධානම	-11.3976
▁සහයෝගීතා	-11.3977
▁මහත්වරුන්ගේ	-11.3979
▁කොල්ලකෑමේ	-11.398
▁බලශක්තිය	-11.3983
▁විනිශ්චය	-11.3986
විනි	-11.3986
යාර්	-11.3986
▁මැලේසියාවේ	-11.3988
▁යුක්ති	-11.3989
දමන	-11.3991
▁විකුණන	-11.3992
▁පිළ	-11.3994
▁තත්පර	-11.4002
▁හැදෑරීම	-11.4002
▁දිරිමත්	-11.4003
▁පොහොට්ටුව	-11.4005
▁බරක්	-11.4005
කරුවෙක්	-11.4008
▁භෝග	-11.4009
▁3කට	-11.4012
▁දෙදෙනාගෙන්	-11.4013
තැන්	-11.4014
▁හරිමින්	-11.4015
▁ශබ්ද	-11.4016
▁අලෙවිසැල	-11.4018
▁අධිරාජ්ය	-11.4019
▁මුවා	-11.4025
▁ආසියාව	-11.4026
කැටිය	-11.4031
▁ගොඩනැඟීම	-11.4031
▁වීදුරු	-11.4031
▁කණගාටුව	-11.4032
▁ක්රියාවලියේ	-11.4034
▁පාක්ෂිකයින්	-11.4036
▁සෙලෙන්ස්කි	-11.4039
▁කඳාන	-11.404
තරම්	-11.404
▁චන්ද්රසේන	-11.4041
▁පිහිටුවීමේ	-11.4041
පිල	-11.4042
▁කිහිපයක්ද	-11.4044
▁ජනාධිපතිතුමාගේ	-11.4044
▁රෑ	-11.4044
▁බැහැදැක	-11.4046
පක්ෂ	-11.4046
▁තැබිය	-11.4046
▁දැක්කා	-11.4048
▁අද25	-11.4052
▁කියූ	-11.4053
▁105	-11.4053
▁අද27	-11.4054
▁අයදුම්පත	-11.4055
▁උපරිමයෙන්	-11.4064
සාමි	-11.4067
රජයේ	-11.4069
▁ප්රසංගය	-11.4072
▁තරුණියන්ට	-11.4076
▁අතුකෝරල	-11.4077
▁පිළිසකර	-11.4077
▁කඩදාසි	-11.4077
▁වෙදආරච්චි	-11.4077
▁තිදෙනකු	-11.4077
▁21ක්	-11.4081
රූප	-11.4086
▁කොවිඩ්19	-11.4088
කරණයට	-11.4089
▁අද15	-11.409
▁භටයින්	-11.4093
▁බෙල්ල	-11.4094
▁අනුගත	-11.4094
පෑම	-11.4094
▁දෙකඩ	-11.4097
▁ධිවර	-11.4099
▁කාඩ්	-11.41
▁අද13	-11.4101
▁බන්ධනාගාරයට	-11.4109
▁සැකකරුවන්ගෙන්	-11.4109
▁සිතු	-11.4112
▁අද18	-11.4112
ිදු	-11.4112
▁ආර්ථීක	-11.4114
▁ප්රතිවිරුද්ධ	-11.4114
▁මිත්තණිය	-11.4114
▁පියතුමන්	-11.4116
▁මොනවාද	-11.4117
විධ	-11.4118
▁අවකාශය	-11.4122
▁සිද්ධස්ථාන	-11.4127
▁වෛද්යවරිය	-11.413
▁මෙලෙසින්	-11.413
▁කාර්යාංශයට	-11.4133
▁යොමුවන	-11.4135
ග්රාහ	-11.4137
▁සභාපතිනි	-11.4143
▁අගයක	-11.4143
▁සැකය	-11.4144
▁අභියස	-11.4145
▁බන්ධනාගාරගතව	-11.4149
▁6000	-11.415
සුමන්දිරන්	-11.4152
▁අනධ්යයන	-11.4152
▁සැහැල්ලු	-11.4152
▁නවගත්තේගම	-11.4152
▁ආරියරත්න	-11.4154
▁චතුර	-11.4155
▁හඳුනාගැනීමේ	-11.4155
▁වෙළඳපළ	-11.4155
▁අතරමග	-11.4156
▁නිර්ණය	-11.416
▁පතල	-11.416
▁දික්	-11.4161
▁තැනක	-11.4162
හිඳ	-11.4163
▁දුරක්	-11.4163
▁පදවා	-11.4164
▁මුලා	-11.4165
▁පිටපතක්	-11.4169
ate	-11.4176
▁ආශ්රිතයින්	-11.4176
▁පියාට	-11.4177
▁සම්පන්න	-11.418
▁නොසන්සුන්	-11.4181
▁ශල්යකර්මය	-11.4183
▁සමාගමක	-11.4186
▁ගීතය	-11.419
▁ක්රියාකරන	-11.419
▁නියැ	-11.4191
▁නැගිට	-11.4191
▁අද07	-11.4191
▁තොටුපලේ	-11.4192
▁ක්රියාමාර්ගයට	-11.4193
▁අමිල	-11.4193
▁හයදෙනෙකු	-11.4193
▁කොමිසමක්	-11.4193
▁කැපුම්	-11.4194
▁දුෂ්කරතාවට	-11.4196
▁කාසිය	-11.4197
▁පාලකයින්	-11.4201
යෑම	-11.4203
▁වැඩපිළිවෙළට	-11.4206
▁අද22	-11.4207
▁වෙද	-11.4208
▁පැවතුණ	-11.4209
▁අයර්ලන්තය	-11.4209
▁සැරිසරන	-11.4212
▁සහයෝගිතාව	-11.4217
▁ගායක	-11.4217
▁3500	-11.4219
වේලි	-11.4219
▁විධිමත්ව	-11.4222
▁ක්රියාමාර්ගයක	-11.4223
කාල	-11.4224
ිළි	-11.4227
▁ඡුන්ද	-11.4228
▁තැනැත්තිය	-11.4228
▁දෙහිඅත්තකණ්ඩිය	-11.4228
▁පුණ්ය	-11.4228
▁නිසැක	-11.4228
▁අද06	-11.4229
▁තරමට	-11.4232
▁උදයංග	-11.4232
▁ගීය	-11.4237
▁පරම්පරාව	-11.424
▁සිදුවෙනවා	-11.4246
▁කොළඹින්	-11.4246
▁කොල්ලකෑම	-11.4252
▁පිස්තෝල	-11.4259
සම්බන්ධන්	-11.4261
▁ස්ථානයේදීම	-11.4261
▁පතා	-11.4261
▁නැඟී	-11.4262
▁නොලැබ	-11.4265
මුත්ත	-11.4266
▁CCTV	-11.4266
▁ළහිරු	-11.4266
තුමනි	-11.4266
▁විද	-11.4267
ගන්නවා	-11.4269
▁වුනේ	-11.427
▁සීදුව	-11.4273
▁කටා	-11.4273
▁සුනඛයින්	-11.4274
▁මැතිතුමාගේ	-11.4275
▁ස්තුතිය	-11.4285
▁බැංකුවක	-11.4285
සෞඛ්ය	-11.4287
රුම්	-11.4289
▁හදවත්	-11.4289
▁ස්වල්ප	-11.429
▁අද10	-11.4294
▁පිටවන	-11.4294
▁කාමරයක	-11.4297
▁පැමිණෙන්නේ	-11.43
▁ඡායාරූපය	-11.4302
▁ඥාතියෙකු	-11.4304
▁සාහිත්ය	-11.4305
▁හේතූන්	-11.4305
▁පරතරය	-11.4305
▁කොපමණ	-11.4305
▁වචනය	-11.4305
▁ගිණි	-11.4306
▁මාලිගාවත්ත	-11.4307
▁නොබලා	-11.4308
▁අද01	-11.4308
▁ඉඳලා	-11.4309
▁වැඩිවිය	-11.4313
▁නිලන්ත	-11.4313
▁නාහිමි	-11.432
▁විගණකාධිපතිවරයා	-11.4326
▁ජයගෙන	-11.4327
▁විශ්	-11.4328
▁පුරුෂ	-11.4328
▁හිමිකරගත්	-11.433
▁ඇදීම	-11.433
▁නේද	-11.4331
▁බැට	-11.4333
▁පසුවන්නේ	-11.4333
▁25ක	-11.4334
රත්නම්	-11.434
▁කඳවුරුවල	-11.434
▁අනුශාසනා	-11.4343
▁නැංගුරම්	-11.4343
▁රොමේෂ්	-11.4343
▁විදේශිකයින්	-11.4343
ගනී	-11.4343
▁දඬුවමක්	-11.4343
▁පාහේ	-11.4347
▁හිතනවා	-11.4349
▁තෝරාගැනීම	-11.4349
▁කරමි	-11.4352
▁රිෂා	-11.4355
▁කරදර	-11.4362
රීන්	-11.4368
▁ප්රතිසන්ධාන	-11.4368
උතුම්	-11.4368
▁තැටි	-11.4369
▁සන්ධානයෙන්	-11.437
යියා	-11.4372
▁සැපයුම්කරුවන්	-11.4373
▁ගේට්ටුව	-11.4374
▁ඊශ්රායලය	-11.4378
▁අරමුදලෙන්	-11.4378
▁තුර්කිය	-11.438
▁ජනාධිපතිනි	-11.438
▁ආශ්රිතයන්	-11.438
▁කිහිපයකදීම	-11.4381
▁ජර්මානු	-11.4382
▁වනාතවිල්ලුව	-11.4382
▁විතාරණ	-11.4382
▁පයාගල	-11.4382
▁ආසියාතික	-11.4382
▁රොහාන්	-11.4382
▁ඔස්ට්රෙලියාව	-11.4386
▁ඉල්ලන	-11.439
▁අද02	-11.4392
▁කාමරයක්	-11.4404
▁සංහිදියාව	-11.4407
▁තරගාවලියේදී	-11.4412
▁බ්රසීලය	-11.4413
▁ඒකරාශී	-11.442
▁පැවිදි	-11.442
▁මැලේරියා	-11.442
▁මුල්කරගනිමින්	-11.4421
▁සෙබළෙකු	-11.4421
▁විර	-11.4423
▁ප්රතිසංවිධාන	-11.4426
▁යටපත්	-11.4426
ධාර	-11.4429
▁ඩොලරයක	-11.4431
ෆො	-11.4431
▁සොරාගත්	-11.4432
▁සියල්ලන්	-11.4433
▁අදහසයි	-11.4434
▁05ක	-11.4435
▁මැලේසියාව	-11.4435
සුන්දර	-11.4438
▁යෝග	-11.4439
ාර්ථ	-11.4439
▁පැනයක	-11.4441
▁භාගය	-11.4444
▁ආබාධයක	-11.4446
▁ජනරජයේ	-11.4446
▁නිෂ්පාදනයට	-11.4446
▁සිහින	-11.4447
▁ඕමාන	-11.445
▁ඩිප්ලෝමා	-11.4459
ශංකර්	-11.4459
▁පොලිසීය	-11.4459
▁තීන්දුවට	-11.446
නාදන්	-11.4463
▁ජනාධිපතිවරණයෙන්	-11.4465
▁මාධව	-11.4466
▁සිසුවෙක්	-11.4467
and	-11.4467
▁වලාන	-11.4476
▁ස්විට්සර්ලන්ත	-11.4478
▁වැදීමට	-11.4482
ංගල්	-11.4483
▁5කට	-11.4483
▁විද්යාලයෙන්	-11.4485
▁පත්වනු	-11.4488
▁දේශපාලනයේ	-11.4489
▁හැකිවීම	-11.449
කරුවා	-11.4491
▁එකඟතාවයකට	-11.4492
▁සම්බුද්ධ	-11.4498
▁සිදුකෙරෙනවා	-11.4499
▁භාරතීය	-11.45
▁ඔටෝ	-11.4501
▁ඇල්ලේ	-11.4502
▁පෙලේ	-11.4505
▁චක්ර	-11.4507
අනතුරින්	-11.4511
ගත්ත	-11.4514
දොල	-11.4516
▁සැලසුමක්	-11.4519
▁නායකත්වයට	-11.4519
▁ආසනයේ	-11.4522
▁ධාතු	-11.4525
▁හැටි	-11.4528
▁නාමයෙන්	-11.4532
විදුලි	-11.4535
▁ශාලාවක්	-11.4536
පළාත්	-11.4537
▁පුද්ගලයින්ගෙන්	-11.4537
හයිලෙවල්	-11.4538
▁මංකොල්ල	-11.4538
▁ශුද්ධ	-11.4538
▁ටෙන්ඩරය	-11.4538
▁රොයිටර්	-11.4538
▁අගතියට	-11.4538
▁වැටීමක්	-11.454
▁තියනවා	-11.4542
▁පාවා	-11.4546
▁යටි	-11.4549
▁ප්රභේද	-11.4553
වුඩ්	-11.4556
▁ජීවිතාන්ත	-11.456
▁සාමකාමීව	-11.4565
▁යුතුකම	-11.4566
වරණ	-11.4568
▁තැබීමක්	-11.4569
▁ටැ	-11.457
▁ඩිෆෙන්ඩර්	-11.4577
▁ද්විපාර්ශවික	-11.4577
▁බාලවයස්කාර	-11.4577
▁ඉරියව්	-11.4577
ආටිගල	-11.4577
▁කලවාන	-11.4579
▁දැරියට	-11.4581
▁ගෝලය	-11.4582
යෙකි	-11.4582
▁මෙහෙ	-11.4583
▁ප්රයෝජනයට	-11.4584
▁දිනයන්හි	-11.4587
▁ශාඛාවේ	-11.4588
▁දැනෙන	-11.459
▁මංගල්යයේ	-11.4592
ඌ	-11.4593
ාගල	-11.4593
▁අස්කර	-11.4593
▁කෝලි	-11.4595
▁තිළිණි	-11.4599
තුරෙයි	-11.4601
ce	-11.4605
▁විමසුම	-11.4609
▁වරෙන්තුවක්	-11.4613
කරුණානිධි	-11.4617
▁සිදුනොකරන	-11.4617
▁පිළිස්සු	-11.4617
ගිනි	-11.4619
▁නායයාමේ	-11.4619
▁අකුරට	-11.4622
▁නොගෙව	-11.4623
▁අඟව	-11.4626
▁1990	-11.4627
දහසේ	-11.4628
▁කොමසාරිස්වරිය	-11.4628
▁සාධාරණත්වය	-11.4628
ගිරිය	-11.463
ටික්	-11.4633
▁නීල්	-11.4638
▁ඇමතුම	-11.4639
ුමක්	-11.4642
රුවේ	-11.4642
▁අතුරුදන්වීම	-11.4646
▁සාදා	-11.4647
තුමාගේ	-11.4647
▁මෘදුකාංග	-11.4655
▁කවුන්සිලයට	-11.4655
▁නියෝගයකට	-11.4655
▁අනුරාධ	-11.4656
▁චූදිත	-11.4656
▁මැගසින්	-11.4656
▁වටපිටාව	-11.4656
▁දෙවරක්	-11.4656
▁එක්තරා	-11.4656
▁ප්රචණ්ඩකාරී	-11.4658
▁කෝටාව	-11.4658
▁බැකෝ	-11.4659
මෝදර	-11.4661
▁ප්රවණතාවක්	-11.4663
▁අයෙකුගේ	-11.4667
ත්තර	-11.4668
පල්	-11.4674
ද්රා	-11.4676
▁අද14	-11.4679
▁ලබාදීමටත්	-11.468
▁සබඳතාව	-11.468
▁113	-11.4687
▁අවතැන්ව	-11.4694
▁රක්ෂිතයට	-11.4694
▁සම්බන්ධීකාරක	-11.4696
▁අභිමානය	-11.4696
▁මැනිං	-11.4696
▁විදුලිබිල	-11.4697
▁අසුරා	-11.4698
▁නාඩු	-11.47
▁හදන්නේ	-11.4701
දිසානායක	-11.4703
මහනුවර	-11.4703
▁අන්තර්ජාලයට	-11.4708
▁කැඩ	-11.4711
මුල	-11.4711
▁රැස්වීමකදී	-11.4713
▁104	-11.4715
▁නෙළුව	-11.4716
▁ජයගත්	-11.4719
▁වනිඳු	-11.4719
▁උසාවියට	-11.4725
▁පිටියේදී	-11.4725
▁තනතුරක්	-11.4726
▁අද03	-11.4726
▁ටින්	-11.4727
▁ගිණුමට	-11.4729
▁අද11	-11.4736
▁කන්ටේනරය	-11.4736
▁කොඩිතුවක්කු	-11.4736
▁ප්රශස්ත	-11.4736
▁මොස්කව්	-11.4736
▁ඇරඹෙන	-11.4736
▁දරුවකු	-11.4737
▁ඔයිල්	-11.4738
▁පුන්	-11.4738
▁ලාභය	-11.474
▁මුහුදුබඩ	-11.4742
▁කෙන්යා	-11.4743
res	-11.4745
▁පදක්කමක්	-11.4748
▁ගැසී	-11.4752
▁වෙළදසැල්	-11.4754
▁පිටුපසින්	-11.4761
කෙළි	-11.4761
දාහ	-11.4762
▁වාට්ටු	-11.4764
▁රියදුරන්ගේ	-11.4764
දැර	-11.4765
▁සිටියත්	-11.4765
▁දිනයෙන්	-11.4769
සිටින	-11.4771
▁බෙන්	-11.4772
▁සදාචාර	-11.4776
▁අභිරහස	-11.4776
▁ඇහැලියගොඩ	-11.4776
▁ටෙලිකොම්	-11.4776
▁ඉලංගෙයි	-11.4776
▁ප්රේමලාල්	-11.4777
id	-11.4779
▁සංවිධායකවරයා	-11.478
කයෙකු	-11.4781
දෙන්න	-11.4783
2ක	-11.4788
▁ඕස්ට්රේලියාවට	-11.479
▁නොවනු	-11.4791
අනතුරුව	-11.4792
▁දැනුමක්	-11.4794
▁වෙස්	-11.4794
▁සත්යතාව	-11.4798
▁අග්ර	-11.4808
▁පිටියෙන්	-11.4809
▁වීමයි	-11.4809
▁ජීවි	-11.4811
▁කුරුඳු	-11.4816
▁ඇසුරු	-11.4816
▁ගෙනැවිත්	-11.4817
▁බ්රැන්ඩි	-11.4817
▁කනිෂ්ඨ	-11.4817
▁ජිප්	-11.4817
▁ගන්වා	-11.4818
▁වසරවල	-11.4819
▁වෘත්තීයවේදීන්	-11.4823
▁මුදුන්	-11.4836
▁ගණනාවකදී	-11.4836
▁නායයෑම	-11.4841
▁ටිකක්	-11.4841
▁අනුකමිටුව	-11.4843
▁අභ්යන්තරයේ	-11.4844
▁පසුබිමකයි	-11.4849
▁ශ්රවණාගාරයේ	-11.485
▁මුලදී	-11.485
▁උළෙලේදී	-11.4851
▁පිළිගන්න	-11.4853
තලාව	-11.4854
▁කීපයක	-11.4854
▁ලාංකිකයා	-11.4855
සුමන්තිරන්	-11.4857
▁අඹුසැමි	-11.4857
▁භානුක	-11.4857
▁දිලීප	-11.4857
▁මූලධර්ම	-11.4857
di	-11.486
▁කණගාටුවට	-11.4861
සො	-11.4864
▁ඉනිමට	-11.4865
▁ඔව්	-11.4868
ඉන්දීය	-11.4874
▁චෝදනාවකට	-11.4875
▁වෙළෙඳසැල	-11.4876
▁ප්රතිශෝධන	-11.4877
▁අභියාචනාධිකරණයේ	-11.4877
▁ඍජු	-11.4877
▁අලූත	-11.4877
▁අවදානමකට	-11.4877
▁රියැදුර	-11.4882
▁මනස	-11.4885
නගර්	-11.4888
▁උස්	-11.4888
▁පරික්ෂණයක්	-11.4889
ංගා	-11.4891
▁තිලංග	-11.4898
▁රතුපස්වල	-11.4898
▁සදුදා	-11.4898
▁බූස්ටර්	-11.4898
▁පණ්ඩිත	-11.4899
▁හතරකට	-11.4901
සලා	-11.4901
ෆ්ර	-11.4901
▁උදාහරණයක්	-11.4904
▁මියන්මාර	-11.4906
▁සංක්රමණිකයින්	-11.4907
▁උක්	-11.4908
▁වෙන්නෙ	-11.4909
විමේ	-11.4911
▁නාසා	-11.4911
▁මුහුණපා	-11.4912
▁සිටියදි	-11.4914
▁අවදි	-11.4915
▁සේවිකාව	-11.4916
▁විදුර	-11.4917
ිනුයි	-11.492
▁විහාරයට	-11.492
බාස්	-11.4921
▁අවභාවිතා	-11.4922
▁අතරවාරයේ	-11.4922
▁නිළධාරි	-11.4924
▁ඉල්ලූ	-11.4925
▁තීරයේදී	-11.4929
ැස	-11.4938
▁හිමියෝ	-11.4938
▁ඇමතූ	-11.4938
▁කච්චතිව්	-11.4938
▁කෙරවලපිටිය	-11.4938
▁කොවිෂීල්	-11.4938
▁ව්යුහය	-11.4938
▁සංකූලතා	-11.4939
▁ආරියදාස	-11.4939
▁අබේකෝන්	-11.4939
▁පින්නවල	-11.4939
▁පෙරහුරු	-11.4939
▁ටැංකිය	-11.4939
▁සමාජීය	-11.494
▁සමනල	-11.494
▁මහත්තය	-11.4941
▁දියණියන්	-11.4941
▁ආයතනයකට	-11.4943
▁පිළිරුව	-11.4944
▁ආකාරයකින්	-11.4944
▁විපක්ෂනායකවරයා	-11.4948
ක්ෂි	-11.4949
▁පෙරට්ටුව	-11.4956
▁සත්වෝද්යාන	-11.4956
▁ජාතියක්	-11.496
▁උදාවන	-11.496
▁පුරවැසියෙකු	-11.4963
▁ඡායාරූපයක්	-11.4964
2015	-11.4966
▁හෙළිකර	-11.4971
තීන්	-11.4979
▁වැලිපැන්න	-11.4979
▁සෞන්දර්ය	-11.4979
▁ඔබ්බට	-11.4979
▁කි්රයාවලිය	-11.498
▁කිරුළපන	-11.498
▁අතීතය	-11.4983
▁නිලධාරියාට	-11.4983
▁යුගල	-11.4985
▁ගමනාන්තය	-11.4985
▁යද්දී	-11.4985
මැද	-11.4987
▁කරමිනි	-11.4992
▁සුප	-11.4996
ාධාර	-11.5001
▁සිදුවුණේ	-11.5006
▁ඔක්	-11.5011
▁උත්සවයේදී	-11.5013
▁අපරාධකරුවෙකු	-11.5014
▁ලෝට	-11.5016
දෙයි	-11.5016
▁සංවාදයට	-11.5018
▁රූපලාවන්ය	-11.5021
▁අක්මීමන	-11.5021
▁අරුන්දික	-11.5021
▁බඳුන්	-11.5021
▁පණිවුඩ	-11.5022
▁සිව්වැනි	-11.5024
▁සිව	-11.5025
▁ව්යා	-11.5026
▁ඉසව්ව	-11.5027
විණි	-11.5029
▁පැහැරගැනීම	-11.503
▁පැටව	-11.503
▁සතුටින්	-11.503
▁යොමුකිරීමට	-11.5031
▁හැඟීම	-11.504
▁කඳවුරට	-11.5041
▁මන්තී්ර	-11.5045
▁ශිෂ්යයන්	-11.5047
▁ගුණරත්නම්	-11.5047
▁දැක්වීමක්	-11.505
▁පුරප්පාඩුව	-11.5056
▁ශූරතා	-11.506
▁කතාබහක්	-11.5062
▁අභිබවා	-11.5062
▁කඩුගන්නාව	-11.5062
▁චමීර	-11.5062
▁භෝජන	-11.5062
▁ඩයනා	-11.5062
▁ඉමහත්	-11.5062
▁උකස්	-11.5062
▁ප්රීති	-11.5062
▁අලව්ව	-11.5063
▁පැති	-11.5063
▁අද09	-11.5069
▁118	-11.5069
▁ප්රදේශවාසීන්ගේ	-11.5071
▁ස්පාඤ්ඤය	-11.5073
ෝස්	-11.5073
රස්	-11.5074
▁හයක	-11.5074
අර	-11.5075
▁පාගමනින්	-11.5075
▁පෙනීසිටි	-11.5076
▁රාහුල්	-11.5078
▁බෑන්	-11.5079
▁හඳුන්	-11.5081
▁කිලෝග්රෑමයක	-11.5082
එක්	-11.5087
ධිකාර	-11.5088
▁පුරවැසියන්ට	-11.5093
▁අපයෝජන	-11.5095
ac	-11.5095
▁කවුරු	-11.5098
▁විසඳ	-11.5098
▁අස්වැන්නක්	-11.5099
▁උද්ඝෝෂකයින්	-11.5103
▁තරාතිරම	-11.5103
▁බහලුම්	-11.5103
▁ජර්මන්	-11.5104
▁ලංසු	-11.5104
▁ස්වාමීන්වහන්සේ	-11.5104
▁පෙනෙන්නට	-11.5105
▁මූල්යාධාර	-11.5107
▁තල්ලු	-11.511
▁විදුහල්පතිනිය	-11.511
▁නව්ය	-11.512
▁වරදට	-11.512
▁ඉල්ලුමක්	-11.5122
▁අග්රමාත්යවරයා	-11.5124
▁ඉගැන්වීම	-11.5125
▁ගැනිමේ	-11.5127
▁නදී	-11.5129
▁රහසිගතව	-11.513
▁සොයාබැලීමට	-11.514
▁නොකොට	-11.514
▁තියන්න	-11.5143
▁අකමැති	-11.5145
▁ගොඩනැංවීම	-11.5145
▁මැඩපවත්වා	-11.5145
▁සමුපකාර	-11.5145
▁වැරැද්ද	-11.5145
▁අග්නි	-11.5145
ගාල්ල	-11.5148
▁සුළඟ	-11.5152
▁වංචාවට	-11.5153
▁පිස්තෝලයක්	-11.5153
▁ෆැ	-11.5154
▁කාර්යංශයේ	-11.5156
▁පැවැත්වීමටයි	-11.5157
▁නාන	-11.5157
▁විඳ	-11.5161
ment	-11.5161
▁බැංකුවෙන්	-11.5163
▁ඉල්ලූම	-11.5167
▁සහභාගීවීමට	-11.5167
කියා	-11.5167
▁ප්රදේශයන්හි	-11.5168
▁සිදුකෙරෙ	-11.5172
▁45ක්	-11.5174
▁ඇමතීමට	-11.5176
▁පරපුරට	-11.5177
▁මාලාවේ	-11.5184
▁සියඹලා	-11.5186
▁ඉන්දුනීසියානු	-11.5187
▁ගිඟුරුම්	-11.5187
▁ජිනිවා	-11.5187
▁ධාන්ය	-11.5187
පසුගියදා	-11.5193
▁වන්දනාකරුවන්	-11.5193
▁ක්ෂණිකව	-11.5195
මින්ද	-11.5197
ඵ	-11.5198
▁අතිශයින්	-11.5199
▁ජෝෂ	-11.5201
ඩියා	-11.5202
▁පිටින්	-11.5203
දේවී	-11.5204
විහාර	-11.5209
▁ගොවිතැන්	-11.5209
▁සංගණනය	-11.5209
▁ප්රමාණයකට	-11.5213
▁පිවිසීමට	-11.5216
▁සකසන	-11.5217
sh	-11.5221
▁මාධ්යයේ	-11.5222
▁106	-11.5222
▁හිමිවනවා	-11.5224
▁සියයකට	-11.5225
▁නෞකාවෙන්	-11.5225
▁උපයෝගි	-11.5226
▁තාක්ෂණයෙන්	-11.5226
▁ගිරිතලේ	-11.5229
▁නිර්ණායක	-11.5229
▁විස්තීර	-11.5229
▁වික්රමතුංග	-11.5229
▁කඩුල්ලක්	-11.5229
▁දිලිප්	-11.523
▁බෝම්බය	-11.523
▁ඇවන්ගාඩ	-11.5231
▁යනුවෙනි	-11.5232
▁අමරපුර	-11.5233
▁නොසිටීම	-11.5236
▁කෝපා	-11.5238
▁ජනරාල්වරිය	-11.5243
▁මැදිහත්වීමක්	-11.5247
▁නේපාලයේ	-11.5247
▁නිලධාරියාගේ	-11.5248
▁රැහැන	-11.5249
▁පෙන්වාදෙන	-11.5253
▁තරඟයට	-11.5253
▁මැටි	-11.5254
වාදීන්	-11.5254
▁අත්ත	-11.5256
▁පල්ලෙ	-11.5261
▁කණ	-11.5261
▁මොරවක	-11.5263
▁නැවැත්වීමට	-11.5263
um	-11.5263
ූන්	-11.5267
▁සුල	-11.527
යාපනය	-11.5271
▁චාවකච්චේරි	-11.5271
▁වායුගෝලයේ	-11.5271
▁ශාරීරික	-11.5271
▁තෝමස්	-11.5271
▁පන්සිය	-11.5271
රිකා	-11.5272
▁ගිලා	-11.5275
▁වැලිසර	-11.5276
බැද්ද	-11.5276
ර්ඩ්	-11.5277
▁ගැටළුකාරී	-11.5279
වෙක්	-11.5281
▁සිරකර	-11.5282
▁සංදේශයක්	-11.5283
පත්තුව	-11.5285
▁සොයාගැනීම	-11.5285
▁ගමින්	-11.5288
▁පාපැදිය	-11.529
▁උණුසුම	-11.5292
ද්ය	-11.5293
▁සිද්ධියේදී	-11.5298
▁750	-11.5299
▁ආත්ම	-11.5301
▁අස්ථාවර	-11.5301
▁පමා	-11.531
▁දෙපළ	-11.5313
▁නීත්යනුකූල	-11.5314
▁පන්ජාබ්	-11.5314
▁මොරගහකන්ද	-11.5314
▁හිස්බුල්ලා	-11.5314
▁ජනගහණය	-11.5314
▁බහින්බස්වීමක්	-11.5314
▁පත්කරමින්	-11.5315
▁කීවා	-11.5316
▁සියලූදෙනා	-11.5317
▁පලතුරු	-11.5318
▁දැම්මා	-11.532
▁මංතීරු	-11.5321
▁දණ	-11.5326
▁හානී	-11.5329
නෙකු	-11.5331
▁ඉන්ද්ර	-11.5333
▁කනගාටුව	-11.5336
විශේෂයෙන්	-11.5337
මෙවර	-11.5338
▁ඕනෙ	-11.5338
▁හර්ෂණ	-11.5339
▁රැකියාවල	-11.534
▁400ක්	-11.5344
▁ඉඩම්වල	-11.5344
▁ගනුදෙනුකරුවන්	-11.5349
▁කොමසාරිස්වරුන්	-11.5353
▁පවුලට	-11.5354
▁දකුණට	-11.5356
▁ආංශි	-11.5356
▁ඔරුගොඩවත්ත	-11.5356
▁බැංගලෝර්	-11.5356
▁රාමඤ්ඤ	-11.5356
▁230	-11.5356
▁ව්යායාම	-11.5357
▁අඟවනවා	-11.5357
▁අනුමාන	-11.5359
▁ගුජරාට්	-11.5359
▁කොලොන්නාව	-11.536
පෝෂ	-11.5361
▁115	-11.5361
▁සිල්වාගේ	-11.5361
▁ධනවත්	-11.5363
කරනු	-11.5367
▁බුක්	-11.5367
▁ප්රතිමාව	-11.5368
▁අද17	-11.5371
ිටි	-11.5377
▁ඥාතීන්ට	-11.5377
▁50000ක	-11.538
ාවල	-11.5381
▁පාලකයන්	-11.5382
▁අප්රිකා	-11.5383
▁පැහැරගත්	-11.5386
බොඩ	-11.539
▁යුවළක්	-11.5392
▁මිහින්තලය	-11.5393
▁බහින්බස්	-11.5399
▁කොල්කටා	-11.5399
▁සුගතදාස	-11.5399
▁තීරුබදු	-11.5399
▁සමථයකට	-11.54
▁පිළිකුල	-11.54
▁උමං	-11.5401
▁වියෙහි	-11.5401
▁පාර්සලය	-11.5401
▁තේරීපත්	-11.5402
▁දෑත්	-11.5405
▁සඟ	-11.5406
▁එක්වීමෙන්	-11.5408
▁අනිවාර්යයෙන්	-11.5408
▁නීත්යානුකූලව	-11.541
▁නවගමුව	-11.5411
කළේ	-11.5418
▁හදවත	-11.542
මියා	-11.5421
▁100කට	-11.5425
▁පස්සෙ	-11.5426
▁ආරවුල	-11.5426
▁හිමියා	-11.5428
වියලි	-11.543
▁ප්රතිඥාව	-11.5431
▁ඉඩමේ	-11.5431
▁වූහාන්	-11.5432
▁හැසිර	-11.5435
▁ඕස්ට්රේලියා	-11.5441
බෑ	-11.5441
▁දැරණියගල	-11.5442
▁එන්ජිම	-11.5442
▁පසුබෑම	-11.5442
▁මායිම්	-11.5442
▁විවර	-11.5442
▁ස්කො	-11.5443
▁සම්බන්ධතාවයක්	-11.5443
බර්ග්	-11.5445
▁විකල්පයක්	-11.5446
ent	-11.5447
▁පල්ලම	-11.5453
▁හිතු	-11.5455
ද්රව්ය	-11.5457
▁සංග්රහයේ	-11.5461
▁2003	-11.5461
▁ජීවත්ව	-11.5466
ලූම්	-11.5471
38ක්	-11.5473
▁ගණුදෙනුව	-11.5473
▁නේවාසිකාගාරය	-11.5477
▁සමූහය	-11.548
▁සංචාරකයින්ගේ	-11.5481
▁සම්මන්ත්රණයක	-11.5482
▁අතරතුරයි	-11.5482
▁පරමාණු	-11.5485
▁වර්ණකුලසූරිය	-11.5485
▁වෛරය	-11.5485
▁ලොක්කා	-11.5485
▁ප්රමුඛතා	-11.5486
ිනුත්	-11.5487
▁මහබැංකුවේ	-11.5488
▁බැද	-11.5489
▁නොහැකියි	-11.5491
36ක්	-11.5491
පසුව	-11.5493
▁210	-11.5493
▁රථවලට	-11.5493
හින්න	-11.5493
ak	-11.5495
▁සංක්රමණික	-11.5495
▁රසික	-11.5495
▁ද්වි	-11.5495
▁මෙහෙයුමකින්	-11.5495
▁ගේට්ටු	-11.5498
▁60000	-11.5498
▁ගවේෂණය	-11.5501
කූල	-11.5505
▁පෙන්වන්න	-11.5506
කෝපායි	-11.5507
▁පියවීම	-11.5508
▁ජාන	-11.5509
ාරාමය	-11.551
▁සියලුදෙනාට	-11.5511
වීථිය	-11.5522
▁වටවල	-11.5524
▁වාට්ටුව	-11.5524
▁වැනිදායි	-11.5526
▁ඇස්තමේන්තුව	-11.5526
▁ප්රභාකරන්	-11.5527
▁අතේ	-11.5527
▁නැවතී	-11.5528
▁ගෞතම	-11.5528
▁නාරම්මල	-11.5528
▁ස්පුට්නික්	-11.5528
▁අතපත්තු	-11.5529
▁කොමිසම්	-11.5529
ජනතාව	-11.553
▁චරිතය	-11.5532
▁ගාලූ	-11.5532
▁කැඳවාගෙන	-11.5537
▁ශල්යකර්ම	-11.5537
▁අයයි	-11.5538
▁සෙවන	-11.5544
▁අද04	-11.5547
හරණ	-11.5549
▁සහභාගීත්වය	-11.555
▁කෙරුන	-11.5551
▁පාවාදීම	-11.5552
▁කදවුර	-11.5557
▁සියයක්	-11.556
▁30කට	-11.5563
▁ගොවීන්ගේ	-11.557
▁තැනැත්තන්	-11.5572
▁චාමික	-11.5572
▁දේවප්රිය	-11.5572
▁කළහකාරී	-11.5573
▁රුවන්වැලි	-11.5573
▁නියෝජිතයින්ගේ	-11.5575
වාන	-11.5575
▁ජයනාත්	-11.5575
▁අමතන	-11.5576
▁කන්දකාඩ	-11.5578
▁කෙරුනා	-11.5581
තිකා	-11.5585
▁පටය	-11.5591
▁පාරිභෝගිකයින්ට	-11.5593
▁විශ්වවිද්යාලයට	-11.5596
▁112	-11.5602
▁ප්රඥප්තිය	-11.5602
▁දැනුම්දීමට	-11.5607
ඉන්දියාව	-11.5607
▁නිමි	-11.5608
▁සෞභාග්ය	-11.5609
▁කැළඹිලි	-11.5615
▁ගැළපෙන	-11.5615
▁හැදුනුම්පත	-11.5615
▁මීටියාගොඩ	-11.5615
▁ප්රේෂණ	-11.5615
▁අලංකාර	-11.5615
▁නූතන	-11.5615
▁හැමදාම	-11.5615
ාවලිය	-11.5616
▁විකුණ	-11.5618
▁ගෝලයෙකු	-11.5619
▁වෙළඳපල	-11.5621
▁නඟා	-11.5621
▁ගැනුනේ	-11.5623
▁රාත්රියේදී	-11.5624
▁සැකකරන	-11.5625
▁ව්යවසායකයින්	-11.5626
මේන්තුව	-11.563
▁ආදර්ශයක්	-11.563
▁සාමාජිකයා	-11.5631
▁2025	-11.5636
▁ගොවිතැන	-11.5638
ම්බා	-11.5638
ානුකූල	-11.5642
▁කෙරුණ	-11.5643
▁සැඟවී	-11.5648
▁රෝහලක්	-11.5649
▁ලැයිස්තුවට	-11.5651
▁ඖෂධයක්	-11.5656
▁නොසිටින	-11.5656
▁ඔවුනට	-11.5659
▁දිළිඳු	-11.5659
▁බංකොලොත්	-11.5659
▁ස්කෑන්	-11.5659
▁අනිසි	-11.5659
▁මන්දගාමී	-11.5659
▁උපන්දින	-11.5661
▁ගෙවත්ත	-11.5662
බ්ර	-11.5662
ියම්	-11.5663
▁වාහනවල	-11.5666
▁කෙන	-11.5671
▁තැන්පත්කරුවන්	-11.5672
▁හටගත්තා	-11.5672
ෙකි	-11.5673
▁ශ්රීලංකාව	-11.5673
▁රෝහලකට	-11.5678
▁පාර්ශවයෙන්	-11.5679
▁පිරිනැම	-11.5683
▁හෝටලයක්	-11.5685
▁මුල්ගල	-11.5691
▁නෙළ	-11.5695
▁උන	-11.5697
▁ක්ෂේත්රයන්	-11.5703
▁අවිනිශ්චිත	-11.5703
▁ගල්කිරියාගම	-11.5703
▁ලීසිං	-11.5703
▁වාමාංශික	-11.5703
▁ක්රමෝපාය	-11.5703
▁හුංගම	-11.5703
▁ආකෘති	-11.5703
සෙයි	-11.5705
▁තුන්ලක්ෂ	-11.5706
▁අශෝක්	-11.5707
▁නොපෙන	-11.5708
▁සාමාජිකයන්ට	-11.571
▁107	-11.5712
▁පක්ෂවලට	-11.5715
▁සිසුවියක	-11.5716
▁දෙනාටම	-11.5718
▁මනුෂ	-11.572
අධිකරණ	-11.5721
▁පාළු	-11.5722
ලෙන	-11.5729
▁ජාලා	-11.573
▁නලින්ද	-11.5733
▁විරු	-11.5734
▁පැකේජය	-11.5737
ස්තාන	-11.5737
▁පැවසුව	-11.5741
▁අන්තිම	-11.5742
▁අද05	-11.5742
▁ලක්කිරීම	-11.5743
▁රැස්කිරීම	-11.5745
▁ගැන්වීමේ	-11.5747
▁ඔක්කොම	-11.5747
▁පහත්බිම්	-11.5747
▁පිළියමක්	-11.5747
▁මැලේසියානු	-11.5747
▁රාජසන්තක	-11.5747
▁ප්රගීත්	-11.5747
▁ජීවිතයක්	-11.5749
▁කෙළ	-11.5749
▁සබඳතාවය	-11.5754
▁අස්විය	-11.5755
▁ඇමතීමෙන්	-11.5756
▁බීඩි	-11.576
▁03ක	-11.5761
▁සිරදඬුවමක්	-11.5763
▁පාලමක්	-11.5763
▁ප්රතිසන්ධානය	-11.5764
▁කාඩ්පත	-11.5765
▁උපකුලපතිවරයා	-11.5767
▁හැකියාවන්	-11.5768
▁සාකච්ඡාවකදීයි	-11.5768
කාමී	-11.577
▁ග්රන්ථය	-11.5771
▁වැද	-11.5772
▁සංවර්ධ	-11.5779
▁නොදීමට	-11.5781
▁කොක්	-11.5784
▁පැවැත්විණ	-11.5785
දාව	-11.5786
▁පෞද්ගලිකව	-11.5789
▁තාරකා	-11.5791
▁කිසිවිටෙක	-11.5792
▁පාවහන්	-11.5792
▁මද්දුමබණ්ඩාර	-11.5792
▁සිද්ධාර්ථ	-11.5792
▁අතිගරු	-11.5793
▁ජනාධිපතිවරයෙකු	-11.5793
▁ප්රතිලාභීන්	-11.5795
▁ඉරානයේ	-11.5795
▁බ්රෙන්ට	-11.58
▁ජිවත්	-11.5802
▁තරුණයකු	-11.5804
▁උත්සාහයක	-11.5805
▁මධ්යස්ථානයෙන්	-11.5808
▁ගැබ්	-11.5808
▁කුමාරසිරි	-11.5812
තැන	-11.5812
▁10කින්	-11.5813
▁හිමිවන්නේ	-11.5814
▁වෙලාවක	-11.5816
up	-11.5817
ිර්	-11.5818
▁103	-11.5821
▁ආරක්ෂිතව	-11.5822
▁කරන්නෙ	-11.5824
▁අවබෝධය	-11.5828
▁අභිමානවත්	-11.5837
▁ජයවීර	-11.584
▁අගුරු	-11.5842
බාල	-11.5843
▁මහඔය	-11.5844
▁ක්රියාමාර්ගවලට	-11.5852
භාවයෙන්	-11.5852
▁ඡන්දයක්	-11.5852
▁පලවා	-11.5855
▁ටිකට්	-11.5856
▁පුවක්	-11.5859
▁දිවෙන	-11.5863
▁අවස්ථාවේදි	-11.5871
▁කිරිම්	-11.5871
▁නරක	-11.5871
▁ඊජිප්තු	-11.5872
▁තිහ	-11.5872
▁ඵලදායි	-11.5873
▁පැවැත්වීමෙන්	-11.5875
▁නැංවීමේ	-11.5878
▁අපක්ෂපාතී	-11.5881
▁පීලිපැනීම	-11.5881
▁ඇරඹි	-11.5881
▁රේනෝ	-11.5882
▁දෙකහමාරක	-11.5882
▁බාලසූරිය	-11.5883
▁රෝම	-11.5883
▁ඇගවීම	-11.5885
බවයි	-11.5893
▁සහයෝගිතා	-11.5895
▁ගුවන්සේවා	-11.5895
▁හමාරක්	-11.5897
▁හැරෙන	-11.5897
▁එලි	-11.59
▁වඩු	-11.5902
තාමත්	-11.5903
▁දිස්	-11.5903
▁සිදුකොට	-11.5904
ජූ	-11.5906
▁පටවා	-11.5911
▁කුටිය	-11.5919
▁උදාහරණ	-11.5919
ෙක්ස්	-11.592
ers	-11.5922
▁විරෝධතාවයට	-11.5924
▁20කට	-11.5926
▁ගැවසෙන	-11.5926
▁පුලුවන්	-11.5926
▁හිතවතුන්	-11.5926
▁ඕමන්ත	-11.5926
▁හැඳින්වෙන	-11.5927
▁කාබන්	-11.5928
ec	-11.5928
වතී	-11.5931
▁වැළඳ	-11.5931
▁කුලියට	-11.5932
▁මහරෝහල	-11.5933
▁නිරුවත්	-11.5936
▁දෙදෙනෙක	-11.5939
▁රැළි	-11.5941
▁ක්රියාකාරිත්වය	-11.5945
▁ප්රමාණයෙන්	-11.5947
▁බාධකය	-11.595
තමා	-11.5952
▁සංඛ්යාවකට	-11.5953
▁ළඟම	-11.5953
ni	-11.5957
▁රියදුරන්ට	-11.5957
▁තිලිණ	-11.5965
▁ගොඩනැගි	-11.5968
▁සාගරය	-11.5969
ශ්වර	-11.597
සාරි	-11.5971
▁බෙල්ලන්විල	-11.5972
▁රක්වාන	-11.5972
▁විශ්ලේෂකයින්	-11.5972
ලියද්ද	-11.5973
▁පැතිරයාම	-11.5973
▁රාජ්යයට	-11.5973
▁මුහ	-11.5975
2022	-11.5977
▁සබන්	-11.5978
▁සැසිවාරයේ	-11.5979
▁වැර	-11.5979
▁පිරවුම්හල්වල	-11.5983
▁1994	-11.5984
▁බැංකුවල	-11.5984
බලා	-11.5986
▁අත්හිටවූ	-11.5987
▁ඉවත්කිරීම	-11.5989
▁සම්ප	-11.5992
▁මංසන්ධියේදී	-11.5992
▁නොවුණ	-11.5995
▁විද්යාලවල	-11.6003
▁ඉදිරිපිටින්	-11.6005
▁පියවා	-11.6006
ියෝ	-11.6007
▁එක්වර	-11.6009
▁අතුරුදහන්ව	-11.601
▁පෙට්ටිය	-11.6013
විස්	-11.6014
▁බුද්ධශාසන	-11.6017
▁ලැප්ටොප්	-11.6017
▁විමසිලිමත්	-11.6017
▁ස්වාභාවික	-11.6017
▁එළිසබ	-11.6017
▁මාරපන	-11.6017
▁මාරක	-11.6019
▁මධ්යසාර	-11.602
▁බෙදාහැරීමට	-11.602
දුන	-11.6021
▁මල්ලි	-11.6022
▁සමුළුවක්	-11.6024
▁මැදිහත්ව	-11.6029
▁වගාවන්ට	-11.603
▁සැකකාරියන්	-11.603
මුදල්	-11.603
▁සිටීමෙන්	-11.6032
▁නාලිකා	-11.6033
▁යුද්ධයක්	-11.604
6ක	-11.6042
▁මතුවූ	-11.6043
▁ගිහි	-11.6047
ෂන	-11.6055
▁විල්පත්තු	-11.6056
▁අඹු	-11.606
▁රදගුරු	-11.6063
▁සාක්ෂාත්	-11.6063
▁ස්වකීය	-11.6063
▁ප්රතිරූපය	-11.6063
▁ෆේස්	-11.6063
▁භූමිකාව	-11.6064
▁122	-11.6064
▁අහනවා	-11.6064
▁හක්	-11.6067
▁ලකුන	-11.6067
▁නියමයක්	-11.6071
▁ධුරයක්	-11.6071
්නෙකු	-11.6074
▁රැළියක්	-11.6078
▁150ක්	-11.6079
▁පුද්	-11.6083
▁කලාපවලට	-11.6084
කාලි	-11.6086
ter	-11.6089
▁වටිනාකම්	-11.6093
▁බේරාගැනීමට	-11.6094
▁අහිමිවීම	-11.6097
▁102	-11.6098
▁ඇන්ටන	-11.6101
චර	-11.6107
▁බැඳීම	-11.6108
▁ආරච්චිකට්ටුව	-11.6109
▁නුදුරේදී	-11.6109
▁සැදැහැවතුන්	-11.6109
▁හාලිඇල	-11.6109
▁අගලවත්ත	-11.6109
▁ව්යර්ථ	-11.6109
▁බයිඩන්	-11.6109
▁අලාභහානි	-11.6109
▁දැයට	-11.6109
▁හක්මන	-11.6109
▁ඝණ	-11.6109
▁සභාගත	-11.611
ොලො	-11.6111
▁මුදිත	-11.6111
දායී	-11.6111
▁ගන්නැයි	-11.6112
▁අභියාචනය	-11.6114
▁මර්දනයට	-11.6114
▁සම්මානයට	-11.6115
▁දැනගන්නට	-11.6115
▁අරසු	-11.6117
▁පැහැදිලිවම	-11.6124
ab	-11.6125
▁රියැදුරු	-11.6126
▁අන්දමට	-11.6132
▁උත්සාහයන්	-11.6133
සංග	-11.6135
▁පත්කිරීමේ	-11.6139
▁හමුවන	-11.6142
ලිස්	-11.6142
▁පරීක්ෂණයේ	-11.6145
තවද	-11.6145
▁පැමිණෙනු	-11.6149
▁කර්තෘ	-11.6155
▁සෞඛ්යාරක්ෂිත	-11.6155
▁The	-11.6155
▁මාළිගාවත්ත	-11.6157
▁සංඝනායක	-11.6158
▁ඉන්දියා	-11.616
▁හතක	-11.6163
▁බුද්ධිමත්	-11.6166
▁කම්පනයෙන්	-11.6168
▁පුස්තකාල	-11.6169
▁260	-11.6178
▁ප්රතිවාදී	-11.6179
▁ඉසව්වේ	-11.618
▁අමාත්යාංශවල	-11.6186
▁කොයි	-11.6194
▁එකඟතා	-11.6198
▁මිනිසුන්ට	-11.6199
▁බොහොම	-11.62
▁කැකුළු	-11.6201
▁ලිබියාව	-11.6201
▁වරකාපොළ	-11.6201
▁සළසා	-11.6201
▁නාවුක	-11.6201
▁හැමෝම	-11.6201
▁පැවැත්විමට	-11.6202
▁සැළකිය	-11.6207
▁බාරදීමට	-11.6207
45ට	-11.6207
ලබන	-11.6209
IS	-11.6214
එකී	-11.6215
▁කැඩී	-11.6215
හිමියන්	-11.6216
හැරිසන්	-11.6218
▁පෙරමුණෙන්	-11.6218
▁සහෝදරයෙකු	-11.6219
▁සපයනු	-11.6221
▁ආයතනවලින්	-11.6224
මණ්ඩල	-11.6227
▁ආණ්ඩුකාරවරුන්	-11.6227
▁ලාංකිකයින්ට	-11.6231
▁අලාභයක්	-11.6232
▁සැලසීමේ	-11.6233
▁උනන්දු	-11.6236
▁නඩුවකට	-11.6236
▁වධ	-11.6236
▁සංචාරකයින්ට	-11.6237
▁හැල	-11.6241
▁සිසිල	-11.6241
රීස්	-11.6242
▁සීඝ්ර	-11.6243
▁වාරියපොල	-11.6248
▁විෂබීජ	-11.6248
▁ජනවාරී	-11.6248
▁යථාර්ථය	-11.6248
▁ගිනිඅවි	-11.6248
▁බලප්රදේශය	-11.6248
▁ඔබේසේකර	-11.6248
විමෙන්	-11.6249
ඛා	-11.6249
▁පෝෂක	-11.6249
▁සාලාව	-11.625
ැහැ	-11.6252
▁සම්ප්රේෂණ	-11.6253
▁යෝජනාවේ	-11.6253
▁පරිච්ඡේදය	-11.6258
මුව	-11.6264
▁පදවි	-11.6265
▁ඇමතිනී	-11.6265
▁09ක්	-11.6266
▁රැඳ	-11.6267
▁අත්දැකීම	-11.6271
▁නිරතවී	-11.6276
ාරච්චි	-11.6279
▁නිර	-11.6279
▁අවශ්යතාවන්	-11.6286
▁තිබ්බටුවාව	-11.6294
▁නිරික්ෂණ	-11.6294
▁මිතුරා	-11.6294
▁ආදරණීය	-11.6294
▁කළමනාකාරීත්වය	-11.6294
▁කංසා	-11.6294
▁දන්සැල්	-11.6294
▁ලංවිම	-11.6295
▁ගුවන්යානය	-11.6295
▁අදානි	-11.6295
▁අසංක	-11.6295
▁පළවූ	-11.6295
▁ප්රියංකර	-11.6297
▁කෝටියක	-11.6298
හංස	-11.6298
▁මෙහෙයවීමෙන්	-11.6298
▁මෙකී	-11.63
44ක්	-11.63
▁මැතිනිය	-11.6301
▁එකකට	-11.6304
1000	-11.6306
ායතනය	-11.6306
යුත්ත	-11.6307
▁නුග	-11.6313
▁නොගෙවීම	-11.6315
▁පෙරිය	-11.6316
▁කොරියා	-11.6325
▁නොයෙක්	-11.6333
ර්ට්	-11.6334
▁අළුත්	-11.6335
ti	-11.6338
▁නවනීදන්	-11.6341
▁මුරුත්තෙට්ටුවේ	-11.6341
▁අකමැත්ත	-11.6341
▁සටන්කාමීන්	-11.6341
▁ඉස්මතු	-11.6341
▁ව්යවස්ථාපිත	-11.6341
▁භේදයකින්	-11.6341
▁සැළසීම	-11.6342
▁වර්ගීකරණය	-11.6342
▁නාදුන	-11.6342
▁ජයසුරිය	-11.6344
▁සුවිශේෂ	-11.6345
▁මෙහෙකාර	-11.6346
▁ප්රෙ	-11.6346
▁බවත්එය	-11.6349
▁121	-11.6351
▁සෑහීමක	-11.6352
▁ඩිජිටල්කරණය	-11.6352
▁ඇඳුමින්	-11.6352
▁සොහොයුර	-11.6354
▁ඇදුම	-11.6356
▁ඉක්මන්	-11.6357
▁පළිගැනීම්	-11.6358
▁එතුමාට	-11.636
▁අතුරුදන්වී	-11.6361
▁කැඩීම	-11.6366
▁ව්යාපාරයක	-11.6367
▁වේදිකා	-11.6367
▁කෘති	-11.6373
භාවයක්	-11.6374
▁නිවෙස්වලට	-11.6375
ෙදි	-11.6378
▁අත්දැකීමක්	-11.6379
පෝල්	-11.638
▁බඳවාගැනීම	-11.638
▁කටයුතුවලදී	-11.6381
▁දොඩංගොඩ	-11.6388
▁වරකාගොඩ	-11.6388
▁වැළඳීම	-11.6388
▁වදාළ	-11.6388
▁ස්වරූපය	-11.6388
▁සඟරාව	-11.6389
▁කලුතර	-11.6389
▁අන්තවාදය	-11.639
▁නාස්ති	-11.6391
▁ගොවිපළ	-11.6392
වංගුව	-11.6392
▁ධර්මපාල	-11.6392
▁හදාරන	-11.6393
▁තරණය	-11.6393
▁අනාගතයේදී	-11.6394
▁ධවල	-11.6394
▁ග්රහණයට	-11.6396
0000ක්	-11.6397
▁නියමුවන්	-11.6399
▁අපේක්ෂිතයි	-11.64
ගණයේ	-11.6401
▁වෙළෙඳපොළට	-11.6408
හත	-11.6408
▁De	-11.6409
▁කඳවුරක	-11.6409
▁ලවා	-11.6417
▁ක්රීඩාංගනයේදී	-11.6422
වුණ	-11.6426
▁තිබ්බ	-11.6428
▁ආදාහනය	-11.6428
ටිව්	-11.6428
▁අලුත්ගේ	-11.6429
▁ඕමානයේ	-11.6429
▁240	-11.6432
▁ආනමඩුව	-11.6436
▁ක්රෙඩිට්	-11.6436
▁සීමාසහිත	-11.6436
▁හසලක	-11.6436
▁දැමුණා	-11.6436
▁රෙදිපිළි	-11.6436
▁වැසිකිලි	-11.6437
▁නවත්වා	-11.6438
▁සීග්රයෙන්	-11.6439
වෘත්ත	-11.6441
▁මාසයක්	-11.6447
▁ඉදිකෙරෙන	-11.6449
▁ප්රජාවගේ	-11.645
▁4කට	-11.6453
▁360	-11.6456
▁5කින්	-11.6457
▁ඇතැ	-11.6458
පාක්ෂික	-11.6462
▁ළිඳකට	-11.6471
ත්මක	-11.6477
ද්වීප	-11.6479
▁ස්වේච්ඡා	-11.6483
▁සාධකයක්	-11.6483
වලදි	-11.6483
▁ඉක්මණින්	-11.6483
▁ගබ්සා	-11.6483
▁ගිරිඋල්ල	-11.6483
▁සියඹලාණ්ඩුව	-11.6483
▁හෙළාදකින	-11.6483
▁ජමාත්	-11.6483
▁වීදියේ	-11.6484
▁අරඹන	-11.6484
▁නැවුම්	-11.6485
▁සංකල්පයක්	-11.6486
▁කූට	-11.6486
ශාල	-11.6486
▁කලපුව	-11.6486
▁මහේන්ද්ර	-11.6487
▁රයන්	-11.6488
▁තායිවාන	-11.6492
▁කර්මාන්තශාලාවේ	-11.6493
▁ඇසින්	-11.6501
▁කෝසල	-11.6503
▁බැලුවා	-11.6504
▁අධ්යක්ෂකවරයා	-11.6505
ka	-11.6507
▁මූලිකත්වය	-11.6516
▁නිෂ්පාදනවල	-11.652
▁ජාවාරම්කරු	-11.6524
▁දුරකථනයක්	-11.6528
▁අනෝමා	-11.6531
▁ඇන්තනී	-11.6531
▁ටෝකියෝ	-11.6531
▁පුදුකුඩිඉරිප්පු	-11.6531
▁වස්කඩුව	-11.6531
▁වාසනාවන්ත	-11.6531
▁කාන්දු	-11.6532
▁ඇදිරි	-11.6534
▁ධර්මසේන	-11.6535
රළ	-11.6538
▁භාණ්ඩාගාරික	-11.6539
▁විනිසුරුවන්	-11.6539
▁මීගොඩ	-11.6544
ලිප්	-11.6546
▁මාරුව	-11.6547
▁තරගකාරී	-11.6553
▁මූල	-11.6555
▁මාලිගාව	-11.6559
▁ගොවින්	-11.656
▁අල්ලසක්	-11.6561
පන්දහසක	-11.6562
▁අපතේ	-11.6563
▁පේර	-11.6564
▁පාගමනක්	-11.6565
▁පරික්ෂාව	-11.6566
▁ඈත්	-11.6569
▁නිකේතනය	-11.6572
▁මිරිස්ස	-11.6573
▁වැටීම්	-11.6575
▁කෝවිලේ	-11.6579
▁ගම්බිම්	-11.6579
▁දුෂ්මන්ත	-11.6579
▁වරකාපොල	-11.6579
▁ශෙහාන්	-11.6579
▁පාපොච්චාරණය	-11.6579
▁බෙදුම්වාදී	-11.6579
▁සැමවිටම	-11.6579
▁ලබානොදීම	-11.658
▁අසාමාන්ය	-11.6581
▁සංවත්සර	-11.6581
▁තමාව	-11.6582
කරගැනීමට	-11.6585
▁පුතුන්	-11.6586
▁ගෙනයාමට	-11.6587
▁හැරිය	-11.6587
▁ඉඳ	-11.6588
▁ඉතුරු	-11.659
▁රුධිරය	-11.6591
▁සමානව	-11.6592
▁සාකච්ඡාවලදී	-11.6594
▁නිළධාරී	-11.6594
බැඳ	-11.6602
▁තුනේ	-11.6603
තාවයක්	-11.6605
▁නැමැත්තාගේ	-11.661
රාසා	-11.661
▁වාහනයේ	-11.6611
▁ක්රීඩාංගනය	-11.6613
70ක්	-11.6614
▁අධ්යනය	-11.6622
▁ඇරඹු	-11.6626
▁අක්කරෙයිපත්තුව	-11.6628
▁අධිනීතිඥ	-11.6628
▁තලෙයිබාන්	-11.6628
▁අවස්තාව	-11.6628
▁ඉතිං	-11.6628
▁ශරිර	-11.6628
▁මණ්ඩපය	-11.6628
▁පිළිගැන්වීම	-11.6628
▁කහතුඩුව	-11.6629
▁දෙවෙනි	-11.663
රිසි	-11.6631
වැඩ	-11.6632
▁මහන්සි	-11.6632
▁ජයලාල්	-11.6633
▁පස්දෙනා	-11.6633
▁වැටිලා	-11.6636
▁එළිමහන්	-11.6636
▁ආධිපත්යය	-11.6639
▁ස්ථානයේදී	-11.664
පොල්	-11.6642
▁මුගුර	-11.6642
▁පවර්	-11.6645
▁ප්රශ්නගත	-11.6646
▁බ්රසීලයේ	-11.6647
▁මැඩපැවැත්වීමට	-11.6648
▁ගුරුවරියක	-11.6649
86ක්	-11.6653
ොඩ	-11.6655
▁ශීඝ්ර	-11.6656
තුංග	-11.6657
ලියන්	-11.6658
කඩවල	-11.6663
ඇල	-11.6664
▁පෝලිමේ	-11.6667
භූත	-11.6668
▁ඉරාකයේ	-11.6669
▁ගැස්	-11.6672
▁භූමියක්	-11.6675
▁තෙවරප්පෙරුම	-11.6676
▁රචනා	-11.6676
▁ෆ්රැන්සිස්	-11.6676
▁දිඹුලාගල	-11.6676
▁වෙළෙන්ද	-11.6676
▁හුණුපිටිය	-11.6677
▁වැස්ස	-11.6678
▁ගහලා	-11.6679
ඩින්	-11.6681
▁බොදු	-11.6687
▁දිනුම්	-11.669
▁වඩ	-11.6691
▁ගතවීමට	-11.6697
▁ඩයස්පෝරාව	-11.6704
▁වරම	-11.6708
est	-11.6714
▁මගීන්ගේ	-11.6715
▁මහරෝහලේ	-11.6717
▁විකිණීමේ	-11.6719
බාධ	-11.6721
▁සේවිකාවක	-11.6722
▁පිළිවෙල	-11.6723
65ක්	-11.6724
▁ගොඩගසා	-11.6725
▁තොරතුරුවලට	-11.6726
▁රඟහල	-11.6727
▁හත්දෙනෙකු	-11.6727
▁ගමනින්	-11.673
▁ඇවිද	-11.673
▁වඳ	-11.6732
▁ජාතියේ	-11.6732
▁භූමියක	-11.6734
▁සැගව	-11.6735
▁ජනනය	-11.6735
85ක්	-11.6736
▁පොල්ල	-11.6736
▁සිසුවියගේ	-11.6748
▁අවප්රමාණය	-11.675
▁වෙලාවට	-11.675
නොවන	-11.6754
▁අත්සන	-11.6755
▁විප්ලවය	-11.6755
▁දුම්රියපොළ	-11.6759
▁නැතැයිද	-11.676
▁පැමින	-11.6767
කුඩි	-11.6767
හම්බන්තොට	-11.6771
▁දිවියට	-11.6772
පිලි	-11.6772
▁දිවංගත	-11.6774
▁බේස්ලයින්	-11.6774
▁ජූඩ්	-11.6774
▁සුවිශේෂි	-11.6774
▁මොළය	-11.6775
▁සම්බන්දයෙන්	-11.6775
▁108	-11.6777
▁නීල	-11.6778
▁පරීක්ෂණයකින්	-11.6781
ho	-11.6783
▁නායකයෙක්	-11.6784
▁කම්බි	-11.6789
▁වළක්වන	-11.679
▁අයකරන	-11.6794
▁Mo	-11.6795
▁මහනුවරදී	-11.6796
▁මොහුගේ	-11.6797
▁5000ක	-11.6798
▁ගතවීම	-11.6798
▁රාවය	-11.6801
▁ඩ්ර	-11.6801
▁ගොඩනගන	-11.6804
▁ස්වා	-11.6805
▁මිලෙහි	-11.6806
▁මියගියා	-11.6807
▁ගැසීමට	-11.6813
▁අයදුම්පත්ර	-11.6817
▁මුහුදේදී	-11.6818
▁නාස්තිය	-11.6821
▁ක්රීඩිකාව	-11.6822
▁පතොරම්	-11.6823
▁රාජස්ථාන්	-11.6823
▁සුභසාධන	-11.6823
▁මුද්රණාලය	-11.6823
▁එතනෝල්	-11.6823
▁කොන්සල්	-11.6824
▁විජේසූරිය	-11.6824
▁කොමිස්	-11.6824
▁අංකයක්	-11.6826
▁ආඥාපති	-11.6826
▁කීර්තිමත්	-11.6826
▁කැළි	-11.6828
▁කිරීම්වලට	-11.683
කුණ	-11.6831
▁කියපු	-11.6831
▁වැටුණා	-11.6834
▁කෙනා	-11.6835
▁මලු	-11.6837
▁අධිරාජ්යවාදී	-11.6839
▁දකින්නට	-11.6843
රක්ෂිත	-11.6843
▁විමර්ශනයකදී	-11.6844
▁ශක්තිමත්ව	-11.6845
▁ග්රන්ථ	-11.6846
බස්	-11.6847
▁නිෂ්පාදකයන්	-11.6848
නාශක	-11.6849
බාර්	-11.685
▁පොරොන්දුවක්	-11.685
▁පාලමේ	-11.6852
ධාරීන්	-11.6854
▁කපන	-11.6855
ලීන්	-11.6855
▁හතරවන	-11.6862
▁බලාගෙන	-11.6863
▁අසු	-11.6865
▁විද්යාගාර	-11.6866
▁අම්බ	-11.6866
ඩීන්	-11.6866
▁IMF	-11.6873
▁දුර්ලභ	-11.6873
▁ලිමිටඩ්	-11.6873
▁සිපෙට්කෝ	-11.6873
▁දැක්වීය	-11.6873
▁පුංචිහේවා	-11.6873
▁පිල්ලේ	-11.6874
ඉදිරි	-11.6874
▁දෙපා	-11.6876
▁ඇසුර	-11.6879
පාසල්	-11.6879
▁විරාමය	-11.688
1ක	-11.6883
▁සිරිපා	-11.6884
▁165	-11.6885
▁විත්තිකරුවන්ට	-11.6885
▁දිනයේදි	-11.6886
▁190	-11.689
ෙල	-11.6892
▁කාගේ	-11.6892
▁මැණිකේ	-11.6897
▁පැමිණෙනවා	-11.6901
ලන්තය	-11.6901
▁ඔස්ට්රේලියා	-11.6905
▁270	-11.6908
▁මළල	-11.6909
සම්පුර්ණයෙන්ම	-11.6911
▁ඉසුර	-11.6912
▁විශ	-11.6912
▁වැසිකිළි	-11.6913
▁තැබුණ	-11.6913
▁තාරක	-11.6915
▁පොදුවේ	-11.6915
▁වියදමක්	-11.6916
▁බෝට්ටුවක්	-11.6917
▁හිරේ	-11.6918
▁වියට්නාම	-11.6919
ළුෑණු	-11.6922
▁ප්රනාන්දුපුල්ලේ	-11.6922
▁පුතෙකු	-11.6922
▁දැරිවිය	-11.6923
▁මධ්යහ්න	-11.6923
▁විදුලිසැර	-11.6923
▁අයුරකින්	-11.6923
▁තීක්ෂණ	-11.6923
▁විමර්ශනයේදී	-11.6923
වේදය	-11.6925
▁කලකට	-11.6927
▁හයිඩ්	-11.6928
▁රුපියලේ	-11.6929
ෝදය	-11.693
▁ප්රේමජයන්ත්	-11.6934
▁ගබඩාවක්	-11.6948
▁සහභාගීවීම	-11.6949
▁මණ්ඩලයේදී	-11.695
▁වෙළදසැල	-11.6951
54ක්	-11.6951
▁කුසලානයේ	-11.6952
▁ගවේෂණ	-11.6953
▁ගුරුවරු	-11.6955
▁පැහැදිලියි	-11.6957
▁බැලීමක්	-11.6957
▁වදය	-11.6958
▁ගිවිසුමේ	-11.6961
▁සතුන්ට	-11.6962
ia	-11.6965
වාර්	-11.6966
▁අසළින්	-11.6969
▁දරනු	-11.6972
▁තටාකය	-11.6972
▁රහුමාන්	-11.6972
▁බිළිඳිය	-11.6973
▁අන්යෝන්	-11.6973
▁ප්රගතිශීලී	-11.6973
▁වෙළදපොල	-11.6975
වුවත්	-11.6977
▁වේදනා	-11.6979
▁ඇදී	-11.698
▁පොළේ	-11.6982
▁සිලින්ඩරයක්	-11.6983
▁ශීර්ෂ	-11.6984
▁සම්මානයෙන්	-11.6988
▁අපචාර	-11.6991
▁අද08	-11.6992
▁හැකිවුණා	-11.6992
▁ආකාරයෙන්ම	-11.6992
▁අයර්ලන්ත	-11.6997
▁ඒකීය	-11.6998
මිනුයි	-11.7001
▁තැනකට	-11.7002
▁ආරම්භයේදී	-11.7003
පමණ	-11.7004
▁කරගත්තා	-11.7004
▁බස්රථය	-11.7006
මුණි	-11.7007
උප	-11.7013
▁දැනුම්දීමකට	-11.7013
▁නොපැ	-11.7014
▁මනාව	-11.7015
▁තිබුන	-11.7016
▁අභියාචනයක්	-11.7016
▁එවීමට	-11.7018
TI	-11.702
ෙනුත්	-11.7021
▁මාලය	-11.7021
▁නීතිවිරෝධි	-11.7023
▁රාජාංගනය	-11.7023
▁QR	-11.7023
▁බලවතුන්	-11.7023
▁ඉටුකිරීමට	-11.7026
▁තැබුවා	-11.7028
▁මොහොතින්	-11.7031
▁ආදර	-11.7031
▁යවමින්	-11.7031
▁හඳුනාගත	-11.7037
▁එළඹීම	-11.7042
ගැට	-11.7051
▁ඇතුලත	-11.7051
▁බේරාගැනීම	-11.7051
▁පරිමාණයෙන්	-11.7055
▁ගබඩාවේ	-11.7056
▁බැඳි	-11.7059
▁වැටුණ	-11.706
▁ජපානයට	-11.7062
▁අඩුකිරීම	-11.7069
37ක්	-11.7071
▁අහංගම	-11.7073
▁කොන්ක්රීට්	-11.7073
▁කෝදාගොඩ	-11.7073
▁පරිශ්රමයක්	-11.7073
▁ඥාණසාර	-11.7073
▁රත්නසිරි	-11.7074
▁සෙබලා	-11.7074
▁ශෂී	-11.7074
ගනිමිනුයි	-11.7075
▁බලාපොරොත්තුවන	-11.7078
▁ආඥාවක්	-11.708
▁කොල්ලකන	-11.7083
ts	-11.7083
▁පල්ලි	-11.7084
▁බසය	-11.7084
▁කාසි	-11.7084
60ක්	-11.7085
▁පොලු	-11.7086
වෛද්ය	-11.7089
▁කඳුර	-11.7089
▁විරහිතව	-11.7089
▁ගෙන්වූ	-11.709
▁128	-11.7093
▁ඇසුරෙන්	-11.7094
▁මෙහෙයවනවා	-11.7096
▁කූඩුව	-11.7097
▁සත්වයා	-11.71
රිප්පු	-11.7101
▁135	-11.7101
▁සභාපතිත්වයෙන්	-11.7106
▁දේශනයක්	-11.7106
▁ලබාගත්තේ	-11.7111
කච්චි	-11.7113
හානි	-11.7117
72ක්	-11.7117
▁විරුද්ධත්වය	-11.7121
▁නොහැක	-11.7123
▁ඉපැරණි	-11.7124
▁කනස්සල්ල	-11.7124
▁කුමාරණතුංග	-11.7124
▁ජෝර්ජ්	-11.7124
▁රන්දෝලි	-11.7124
▁දොළොස්	-11.7124
▁දිරිගැන්වීම	-11.7124
▁කේබල්	-11.7124
▁පසුවුණා	-11.7125
▁චරිත්	-11.7127
▁බෑග්	-11.7128
▁කොහෙ	-11.7133
▁ඉටුකිරීම	-11.7135
▁පරදව	-11.7136
යන්න	-11.7139
▁චිත්රපටයේ	-11.714
▁ක්රමවත්	-11.714
▁ලේකම්වරුන්ට	-11.7141
▁රෝගින්	-11.7143
▁කම්පනයක්	-11.7144
▁මොනවා	-11.7146
▁පෙනි	-11.7147
▁විනිසුරුවරයෙකු	-11.715
ෂෝ	-11.7151
නාථ	-11.7151
▁නියැලී	-11.7151
දොළ	-11.7153
▁උපාධිධාරි	-11.7153
▁තත්වයෙන්	-11.7154
▁පිවිසීමෙන්	-11.7157
▁ශතක	-11.7157
ගෙඩි	-11.7158
▁විනිවිද	-11.716
▁ඉවර	-11.7163
▁ව්යවස්ථාවෙන්	-11.7165
▁සලකුණ	-11.7166
▁සීල	-11.7174
▁මුලස්ථානයේ	-11.7174
▁ඔක්ස්ෆර්ඩ්	-11.7175
▁ක්රිස්තියානි	-11.7175
▁කොමිෂම	-11.7175
▁දඹදිව	-11.7175
▁පෞරාණික	-11.7175
▁උදුරා	-11.7175
▁සෝමවංශ	-11.7175
▁සාපරාධී	-11.7176
කාලගුණයෙන්	-11.7176
▁බරින්	-11.7179
▁සුවඳ	-11.7182
▁පත්වෙමින්	-11.7183
ලන්ත	-11.7184
දක්වා	-11.7186
නගර	-11.7186
▁මුහුණදුන්	-11.7189
▁භුමිය	-11.7194
▁ආයු	-11.7196
▁බෙර	-11.7202
▁දූපතට	-11.7202
▁සාරා	-11.7203
ඝාතනය	-11.7206
ශීල	-11.7208
වෙතැයි	-11.7208
හිදි	-11.7215
හිමි	-11.7215
▁කුණාටු	-11.7216
▁ශාසනය	-11.7218
▁සමිත	-11.7219
▁සැළ	-11.7222
▁තාර	-11.7223
▁උපවාස	-11.7225
▁ඇතුළ	-11.7226
▁කහටගස්දිගිලිය	-11.7226
▁කිංස්ල	-11.7226
▁ඩෙල්ෆ්	-11.7226
▁වල්ලපට්ට	-11.7226
▁සංයුක්ත	-11.7226
▁කූඨ	-11.7226
▁ලබානොදෙන	-11.7227
▁කායික	-11.7227
▁හිතකාමී	-11.7227
▁කෙටිකාලීන	-11.7227
▁කම්පා	-11.7227
ධීර	-11.7228
▁උපයාගත්	-11.7228
▁සැකසුම්	-11.7229
▁පොළොව	-11.7231
▁අධිකාරීවරුන්	-11.7231
▁දැනගත්	-11.7232
ක්ෂක	-11.7233
▁යෝජනාවලියක්	-11.7233
▁උසස්පෙළ	-11.7234
▁ශෂි	-11.7238
▁පෝර	-11.7243
▁ශ්රීපාද	-11.7244
▁ඕවර	-11.7245
▁පීටර්	-11.7246
▁නොසන්සුන්තාව	-11.7251
▁හිමිකරුවෙකු	-11.7251
▁අධ්යාපනික	-11.7254
▁දක්වනු	-11.7256
භාෂ	-11.7262
රීට්	-11.7264
im	-11.7265
▁කාර්යක්ෂමතාව	-11.7267
▁රැස්විම	-11.7267
රෝග	-11.7271
▁දර්ශක	-11.7273
▁දේශපාලඥය	-11.7275
▁මාෆියාව	-11.7278
▁ලිවේරා	-11.7278
▁රත්වත්තේ	-11.7278
▁හුදෙක්	-11.7278
▁මාෂල්	-11.7278
▁නෝර්වු	-11.7278
▁ගුවන්යානා	-11.7278
▁ජීවිතාරක්ෂක	-11.7279
▁එසවීම	-11.7279
▁උනා	-11.7283
▁නිරූපණය	-11.7284
▁175	-11.7285
▁වෙර	-11.7287
▁හැලෙන	-11.7288
▁320	-11.7289
▁කැස්බෑ	-11.7289
▁බැස්ස	-11.729
▁කට්ටිය	-11.7296
▁රික්ට	-11.7296
තීර	-11.7296
ලොව	-11.7297
▁සමන්විතයි	-11.7299
▁මිනිසුන්ගේ	-11.7299
▁වාට්ටුවේ	-11.73
▁බයි	-11.73
▁යොද	-11.7305
▁1996	-11.731
▁ලියු	-11.731
▁කැපකිරීම	-11.7314
2000	-11.7314
▁ෂැ	-11.7317
500ක්	-11.7318
▁නියාමකවරුන්	-11.7318
▁පිහිනුම්	-11.733
▁පූජෝත්සවය	-11.733
▁කැබැල්ල	-11.733
▁මොඩර්න	-11.733
▁විජේරාම	-11.733
▁පළමුවන	-11.7332
▁පළාගිය	-11.7332
▁මෙහෙයුමේ	-11.7332
▁එතුමිය	-11.7333
▁ගොවිපල	-11.7334
▁හිතන්න	-11.7338
▁මේවනවිට	-11.7341
▁ජෙට්	-11.7342
rn	-11.7343
▁ඉල්ලිම	-11.7344
▁වැඩබිම	-11.7345
▁දිසාපති	-11.7346
▁පවුලක්	-11.7347
▁පෙරළිය	-11.7349
▁පැමිණීමත්	-11.7351
▁පවත්ව	-11.7352
▁ගුණාත්මකභාවය	-11.7355
▁රෝපණය	-11.7358
▁මාවතගම	-11.7359
▁රූගත	-11.7361
▁ග්රේ	-11.7362
▁දේශසීමාව	-11.7362
දැනට	-11.7363
▁ශිෂ්යයෙකු	-11.7363
op	-11.7365
තවත්	-11.7365
▁හොරුන්	-11.7368
▁වාරිකය	-11.737
ාරක්ෂක	-11.7373
▁පිරිනැමෙන	-11.7375
▁විත්ති	-11.7376
▁නන්දන	-11.7376
▁සභිකයින්	-11.738
▁ගජමුතු	-11.7382
▁ගම්මිරිස්	-11.7382
▁නිශ්පාදන	-11.7382
▁ලස්සන	-11.7382
▁චතුරස්රය	-11.7382
▁නිසියාකාර	-11.7382
▁ගර්භනී	-11.7382
▁තුසිත	-11.7382
▁අනුභව	-11.7383
ity	-11.7385
▁වැඩමුළු	-11.7387
▁අටක	-11.7388
▁ජාලිය	-11.7388
▁ලක්මාල්	-11.739
▁විහිද	-11.739
▁පැත්තකින්	-11.74
▁පාලකවරයා	-11.7404
▁ආරාධනයක	-11.7407
▁නවාස්	-11.7408
ai	-11.7408
▁රැස්වීමකට	-11.7409
▁සභාපතිවරයෙකු	-11.741
▁ඩිපෝව	-11.7411
▁යටවීමෙන්	-11.7412
▁අද31	-11.7413
▁කල්දැම	-11.7414
▁මිහි	-11.7414
▁අමුණ	-11.7417
▁මිර	-11.742
▁පැවසෙ	-11.7421
▁Co	-11.7423
▁134	-11.7423
▁හිමිවීම	-11.7426
▁138	-11.743
▁ලාංඡනය	-11.743
▁ට්රැක්ටරය	-11.7434
▁දීපව්යාප්ත	-11.7434
▁බූස්ස	-11.7434
▁සැපයූ	-11.7434
▁කැදවීම	-11.7436
▁වාහනවලට	-11.7436
▁උඳු	-11.7438
▁වාසනා	-11.7441
▁උපාධිධාරී	-11.7441
▁කැපවන	-11.7443
පට්ටි	-11.7445
▁සිලින්ඩර්	-11.7447
▁නිෂ්පාදක	-11.7451
▁මනු	-11.7455
▁සොහොයුරිය	-11.7461
▁ඔට්ටු	-11.7462
wa	-11.7463
▁මැතිවරණයකට	-11.7476
▁ප්රතිචාරය	-11.7476
40ක්	-11.7481
▁විගණනය	-11.7483
▁පිරවුම්	-11.7486
▁නිස්සංක	-11.7487
▁පුළුස්සා	-11.7487
▁බුවනෙක	-11.7487
▁සිරිමාවෝ	-11.7487
▁දොස්තර	-11.7487
▁භූකම්පනය	-11.7487
ඉලංගකෝන්	-11.7487
▁ඉණිම	-11.7487
▁සංඛ	-11.7488
▁දරුවෝ	-11.749
▁මතුපිට	-11.749
▁නතු	-11.7491
හතර	-11.7491
ig	-11.7493
▁තැන්වල	-11.7494
▁ඇතුළේ	-11.7495
▁රාමසා	-11.7497
▁මාළිගා	-11.7498
3000	-11.7499
▁සෙබළා	-11.75
▁ඉවරයි	-11.7507
ලේකම්	-11.751
▁අපොස	-11.7513
▁බැරකම	-11.7513
▁හිමිවූයේ	-11.7513
▁සත	-11.7516
▁නත්තල	-11.7518
▁අයකිරීම	-11.7519
▁උද්ඝෝෂණයට	-11.7519
ටෝනි	-11.752
▁අවසන්වීමට	-11.752
▁යුගයක්	-11.7523
▁නෙලීම	-11.7524
▁මුදාහැරීම	-11.7526
තුවාල	-11.7531
▁සංවිධායකයින්	-11.7536
▁ගොකරැල්ල	-11.754
▁පිළිබිඹු	-11.754
▁බැංකොක්	-11.754
▁රශ්මි	-11.754
▁සේනසිංහ	-11.754
▁ක්රමානුකූල	-11.754
▁මතභේදය	-11.7542
▁ආබාධය	-11.7549
▁පෙරළීම	-11.7558
▁සිරියාව	-11.7559
▁පණිවුඩයේ	-11.756
ill	-11.7564
ස්ටා	-11.7568
▁ගෙඩියක්	-11.7568
IT	-11.7569
▁භාරත	-11.7571
▁රෝස	-11.7571
කෙරුණු	-11.7572
▁ගවයන්	-11.7574
▁හැකිවිය	-11.7574
▁ඊශ්රායලයේ	-11.7578
▁ශීර්ෂය	-11.7581
එබැවින්	-11.7587
කාර්ය	-11.759
▁Lanka	-11.7593
▁කොබ්බෑකඩුව	-11.7593
▁ධෛර්ය	-11.7593
▁මිචෙල්	-11.7593
▁සෆාරි	-11.7593
▁සෛල	-11.7593
▁විජේසුන්දර	-11.7593
▁ළිං	-11.7594
▁පලායාමට	-11.7594
▁හොඳයි	-11.7597
▁ජයතිස්ස	-11.7597
▁මෙතැන	-11.7599
▁කාන්දුව	-11.7603
▁අබ්දුල්ලා	-11.7605
කයින්ගේ	-11.7608
▁ගණිතය	-11.761
▁සොර	-11.7615
pa	-11.7617
▁රැකියාවක	-11.7617
▁පැමිණිමට	-11.7617
්ටන්	-11.7619
▁මුණගැස	-11.7621
▁මුද්ර	-11.7622
▁පෙරදිග	-11.7623
▁පිරිවෙන	-11.7627
්නෙමු	-11.7636
▁විවේචනයට	-11.7637
▁කොටියා	-11.7638
▁මිටි	-11.7639
▁වැටීමේ	-11.7639
nc	-11.764
▁ව්යාප්තව	-11.7641
▁ගලහ	-11.7645
▁සහයෝගීතාවය	-11.7646
▁ඕස්ටේ්රලියාව	-11.7646
▁ගැණුම්	-11.7646
▁නිර්වින්දන	-11.7646
▁නිරෝගී	-11.7646
▁නිවිතිගල	-11.7646
▁සබ්මැරීන	-11.7646
▁ස්වාමිපුරුෂයා	-11.7646
▁සාත්තු	-11.7646
▁දශකය	-11.7647
▁වලපනේ	-11.7648
බදු	-11.7653
▁දවසක	-11.7656
▁සූර්යයා	-11.7661
▁දෙමාපිය	-11.7667
to	-11.7672
විදේශ	-11.7672
▁ගැනුනු	-11.7675
▁විෂමතාව	-11.7676
▁සහෝදරත්වය	-11.7678
▁ඇම	-11.7679
▁කවුන්සිල	-11.7682
▁පුස්තකාලය	-11.7684
▁වසමට	-11.7685
ොව්	-11.7685
ion	-11.7686
4000	-11.7689
▁විසදීම	-11.7692
▁දුර්වලතා	-11.7694
▁අධ්යක්ෂණය	-11.7697
▁රැඳවියෙකු	-11.77
▁කසිප්පු	-11.77
▁නිව්යෝක්	-11.77
▁දේශපාලනඥයෙකු	-11.77
▁මනම්පිටිය	-11.77
▁ලැව්ගිනි	-11.77
▁කොතරම්	-11.7701
▁සාලියවැව	-11.7702
▁කොල්ලකෑමට	-11.7703
▁පැදවීම	-11.7703
▁වත්තේගම	-11.7706
▁විචාරකයින්	-11.7706
▁චන්ද්රා	-11.7709
▁ප්රදානයක්	-11.7711
▁ප්රතිමා	-11.7711
▁කුළු	-11.7712
ග්රී	-11.7713
▁දඩයම	-11.7714
▁පසුවෙයි	-11.7717
▁පහසුකමක්	-11.7717
ෂිත	-11.7719
▁අගනා	-11.772
▁දැරුව	-11.7722
න්කුලම්	-11.7723
▁ස්විට්සර්ලන්තයේ	-11.7729
▁වැග	-11.7742
▁දශකයේ	-11.7746
▁පෙන්වීමට	-11.7754
▁අනියුක්ත	-11.7754
▁මාගම්පුර	-11.7754
▁ලුණුගම්වෙහෙර	-11.7754
▁මාලිගය	-11.7754
▁යුවාන්	-11.7754
▁රගර්	-11.7756
▁දල්වා	-11.7756
▁කැමැත්තක්	-11.7757
▁ගෝඩා	-11.7757
▁තුවක්කුවක්	-11.7758
▁කාටවත්	-11.7758
▁කාලසීමාවක්	-11.7759
▁යටවීම	-11.7759
ෙය්	-11.7759
▁අවාසි	-11.7759
▁අසලංක	-11.776
▁පෙම්	-11.7761
▁පිළිගැන	-11.7765
▁තරමින්	-11.7766
▁භාගයේ	-11.7767
▁142	-11.7768
▁විදිය	-11.7774
▁පිරෙන	-11.7774
▁නිවාසයේ	-11.7775
pe	-11.7775
▁නිෂ්පාදනාගාරය	-11.7776
▁ආසන්නයට	-11.7783
▁විදෙස්ගතව	-11.7784
▁නිර්මල	-11.7785
▁බිමල්	-11.7786
▁145	-11.7792
▁අශ	-11.7792
▁මෙහෙයවා	-11.7793
▁සූදානම	-11.7796
▁ඉසව්	-11.7796
▁පත්තර	-11.7797
▁සමිතියේ	-11.7801
▁කනගාටුවට	-11.7807
▁දිස්ති්රක්	-11.7808
▁එරාවුර්	-11.7808
▁කූඩැල්ලන්	-11.7808
▁කෘත්යාධිකාරි	-11.7808
▁ලිපිගොනු	-11.7808
▁කැමැති	-11.7808
▁එපමණක්	-11.7809
▁වැළැක්වි	-11.7809
▁ගොඩනැඟිල්ල	-11.7809
▁වැටලිම	-11.7809
▁බෙන්තොට	-11.7809
▁කතිකාව	-11.7809
▁යුරියා	-11.781
▁හඳුන්වාදෙන	-11.781
▁දීර්ඝකාලීන	-11.781
▁සිරියානු	-11.7811
▁දිස්ත්රීක්ක	-11.7812
▁නිශා	-11.7812
▁111	-11.7812
▁ලැගුම්හල	-11.7813
▁තුන්සිය	-11.7817
ලංක	-11.7818
▁දෝෂාභියෝග	-11.7823
▁බෙල්	-11.7828
▁බලාපොරොත්තුවක්	-11.7828
▁ජන්දය	-11.7835
9000	-11.7839
▁නැතත්	-11.7841
▁164	-11.7842
වෙහෙර	-11.7845
▁වචනයෙන්	-11.7848
▁පිපිර	-11.7854
▁පරික්ෂාවට	-11.7854
▁ජනයාට	-11.7854
▁ඇමතු	-11.7855
▁දෙන්නා	-11.7855
▁සහභාගිවී	-11.7858
▁නොසිට	-11.7859
▁වලක්වා	-11.786
බැල	-11.7862
▁අභිවෘද්ධිය	-11.7863
▁ආඩම්බර	-11.7863
▁කෘත්රිම	-11.7863
▁නිපැයුම්	-11.7863
▁පරමාධිපත්ය	-11.7863
▁රෙජිනෝල්	-11.7863
▁ගැබිනි	-11.7863
▁නියැලෙන	-11.7863
▁බෙදාහැර	-11.7864
▁අතරමංව	-11.7865
සාර්ක්	-11.7865
▁නොවැ	-11.7865
▁සුබවාදී	-11.7867
▁වෙළදාම	-11.7867
▁පැවසෙන්නේ	-11.7867
මැතිවරණ	-11.787
▁කෙරී	-11.7873
▁නඩ	-11.7874
▁කුමරිය	-11.7875
▁දියණියක	-11.7882
නං	-11.7882
▁නෙල	-11.7883
▁උපාධියක්	-11.7883
▁බාරයේ	-11.7886
▁දමන්නට	-11.7888
▁ලක්කළ	-11.789
▁ආරවුල්	-11.7891
▁කියන්නෙ	-11.7892
▁කැපවීමෙන්	-11.7893
▁මෙහෙයුමේදී	-11.7894
▁චන්ද්රයා	-11.7895
▁දමනු	-11.7898
▁සකස්කර	-11.7898
▁එගොඩ	-11.7899
▁ගණිත	-11.79
▁156	-11.7901
අපේ	-11.791
▁පාර්සලයක්	-11.7915
▁අතිවිශාල	-11.7918
▁තාජුඩීන්	-11.7918
▁පිපුරුම	-11.7918
▁පිළිස්සී	-11.7918
▁පොලිතීන්	-11.7918
▁දළඳා	-11.7919
▁සමරනායක	-11.7919
▁පැකට්ටුවක	-11.792
▁තැපැල්පති	-11.7922
▁අක්රමිකතාවක්	-11.7928
▁නාහිමියන්ගේ	-11.793
▁තනිවම	-11.7932
විග්නේෂ්වරන්	-11.7932
▁1978	-11.7934
අකුර	-11.7935
ඳා	-11.7938
වික්රම	-11.7938
▁116	-11.7942
▁පැටවීම	-11.7948
▁650	-11.7948
▁ඇපල්	-11.7949
▁රාහුල	-11.7951
▁දරන්නේ	-11.7957
▁බැලුව	-11.7961
▁කුමර	-11.7965
▁ප්රමුඛතාවය	-11.7969
ගහවත්ත	-11.7969
▁මංජු	-11.7969
▁විහිළු	-11.7971
▁ආයෝජනයක්	-11.7971
▁ඔරලෝසු	-11.7973
▁තලේබාන්	-11.7973
▁බොලිවුඩ්	-11.7973
▁ජනාවාස	-11.7973
▁කැමරන්	-11.7973
▁රාවණා	-11.7973
▁සුඩානය	-11.7973
▁ස්විස්	-11.7975
ඕවිට	-11.7975
▁කවදාවත්	-11.7975
▁මනෝජ්	-11.7975
▁සාක්ෂියක්	-11.7976
▁දෙපාර්ත	-11.7976
▁ඍජුව	-11.7977
▁නිවුන්	-11.7977
▁අඟල්	-11.798
▁අභයාරාම	-11.798
▁පිරිනැමුණ	-11.7981
▁වෙළෙඳාම	-11.7982
▁ඉඳි	-11.7984
▁පරදා	-11.7985
▁ජනමාධ්යවේදීන්	-11.7988
▁හදුන්වාදීම	-11.7993
▁සැලකිල්ලක්	-11.7997
▁ධාරිතාවය	-11.8001
▁ලොකුම	-11.8001
▁එක්වනු	-11.8002
▁ගැටීම	-11.8003
▁උරුමයන්	-11.8005
▁අනිවාර්යය	-11.8006
▁ඉදිරියේදි	-11.801
▁ලේඛනයක්	-11.8012
▁වනාන්තරය	-11.8013
ප්රතිව්යුහගතකරණය	-11.8016
නුවන්	-11.8021
▁හෘදයාබාධ	-11.8021
▁පීඩනයක්	-11.8022
පාස්	-11.8025
▁පළකළේ	-11.8028
▁ප්රතිව්යූහගත	-11.8028
▁ස්වභාවයක්	-11.8028
▁රත්තරන්	-11.8029
▁සම්බුදු	-11.8029
▁චයිනා	-11.8029
▁කාදර්	-11.8029
▁ළමාරක්ෂ	-11.8029
▁අමරසේකර	-11.803
▁බොහෝමයක්	-11.803
▁විජේසිරි	-11.8031
▁සදා	-11.8032
▁අටදෙනෙකු	-11.8033
▁මියයෑම	-11.8033
▁තියෙනව	-11.8034
▁සභාවාරය	-11.8034
▁අඳුරු	-11.8036
▁සුලක්ෂ	-11.8037
▁හැරුණා	-11.8038
ලේඛන	-11.8039
▁පවත්වන්නට	-11.8041
කාඩු	-11.8047
▁කි්ර	-11.8047
මියගිය	-11.805
▁123	-11.805
භාණ්ඩ	-11.805
▁විදින	-11.8051
▁ලොරියක්	-11.8053
▁රැඳි	-11.8056
▁හුවා	-11.8058
▁සුනඛයා	-11.8058
CC	-11.806
▁ගුවන්තොටුපළේ	-11.8062
▁වැන්	-11.8063
නෙයි	-11.8072
ගං	-11.8074
ශයේ	-11.8075
74ක්	-11.8081
▁උදැසන	-11.8085
▁දක්වමිනුයි	-11.8085
▁බකමූණ	-11.8085
▁හර්තාල්	-11.8085
▁වතුපිටිවල	-11.8085
▁ගනේමුල්ල	-11.8085
▁මගියෙකු	-11.8085
▁දප්පුල	-11.8085
▁අබේවික්රම	-11.8085
▁සුමේධ	-11.8085
oc	-11.8088
▁ගැඹුරින්	-11.8089
▁අතිකාල	-11.809
▁අභියෝගාත්මක	-11.809
▁මයික්	-11.8096
▁මුසු	-11.8096
▁ප්රදේශීය	-11.8096
▁1977	-11.8098
▁බන්ධනාගාරයෙන්	-11.8098
කොඩි	-11.8099
▁සුනඛ	-11.8105
▁හමුදාධිපති	-11.8107
mo	-11.8108
▁භූමදානය	-11.811
▁දහයක්	-11.8111
බද්ද	-11.8112
▁උත්පාදන	-11.8113
▁දකින්නේ	-11.812
ard	-11.8123
▁සිතන	-11.8124
▁අවසරයක්	-11.8125
▁චො	-11.8132
▁පිරිපහදුවේ	-11.8138
▁නාඋල	-11.8139
ෙදී	-11.8141
▁කොහොඹ	-11.8141
▁තිරිමාන්න	-11.8141
▁මෙල්බර්න්	-11.8141
▁ලූතිනන්	-11.8141
▁හෙරෝයින්	-11.8141
▁තොරතුර	-11.8141
▁ICC	-11.8142
▁දීපාල්	-11.8142
▁ආකාරයටම	-11.8142
▁මන්දැයි	-11.8142
▁අපකීර්තිය	-11.8142
▁සන්දේශ	-11.8142
▁ප්රදේශයන්	-11.8143
▁ලැව්	-11.8144
▁පූගොඩ	-11.8147
කටුව	-11.8149
▁පැදියක	-11.815
▁පැමිණිලිකාර	-11.8152
පැන	-11.8152
▁පලෙයි	-11.8155
▁දෝෂයකට	-11.8156
▁200ක	-11.8159
අනි	-11.816
▁කිළිනොච්චිය	-11.8164
▁කණ්ඩායම්වලට	-11.8168
▁විසදීමට	-11.8172
දිවයින	-11.8174
▁නියමුවා	-11.8176
මාලා	-11.8177
▁බැටරි	-11.8177
▁ගැලවී	-11.8182
▁පුලි	-11.8183
▁සුරේන්	-11.8185
▁මහපොළ	-11.8191
▁සංදේශය	-11.8195
▁200කට	-11.8195
▁පිටරට	-11.8195
▁ශර්මා	-11.8197
▁අභිමතය	-11.8197
▁කොටිකාවත්ත	-11.8197
▁පන්ලක්ෂ	-11.8197
▁මුල්වරට	-11.8198
▁අනිවාර්යෙන්ම	-11.8198
▁අත්පත්රිකා	-11.8198
▁යාචක	-11.8199
▁සංකීර්ණයක	-11.8199
▁හැකිතාක්	-11.8199
▁සෙවනගල	-11.8199
ාධිකාරී	-11.82
▁ගැන්වීමට	-11.82
▁නොදක්වන	-11.82
▁බරැති	-11.8203
▁තේරි	-11.8203
▁109	-11.8205
▁අධ්යක්ෂවරයෙකු	-11.8205
▁හැදි	-11.8218
▁155	-11.8221
▁අරලිය	-11.8221
▁ප්රමාදවීම	-11.8226
රහිත	-11.8228
ආණ්ඩුව	-11.8229
▁ආක්රමණ	-11.8231
▁කැණීම	-11.8233
▁විභාගයේදී	-11.8234
▁විශේෂත්වය	-11.8235
▁අඩක්	-11.8236
▁7500	-11.8241
▁ඝාතක	-11.8242
▁මන්ත්රීවරයෙක්	-11.8243
▁පංතිය	-11.8244
▁පටයක්	-11.8245
▁මධ්යස්ථානයේදී	-11.8245
▁330	-11.8254
▁උල්ලංගණය	-11.8254
▁මීගහතැන්න	-11.8254
▁රාජ්යතාන්ත්රික	-11.8254
▁විග්රහ	-11.8254
▁රවටා	-11.8254
▁පල්ලේකැලේ	-11.8254
▁විජයමුණි	-11.8255
▁පැටවෙකු	-11.8255
▁පාළම	-11.8256
▁මුරපොළ	-11.8258
▁2000ක්	-11.8258
▁පහරදෙමින්	-11.8259
▁දර්ශකයේ	-11.8259
▁නිපදවා	-11.8259
▁කාලෙ	-11.8263
▁තත්වයකට	-11.8264
▁සැකකරුවෙක්	-11.8266
▁ටීවී	-11.8268
▁ජයගැනීමට	-11.827
▁ආසා	-11.8271
▁නැංව	-11.8273
▁ෆ්ල	-11.8273
▁කීප	-11.8275
දුළුවා	-11.8277
දැන්	-11.828
▁බෙදාහැරීම්	-11.8281
▁153	-11.8281
දර්ශන	-11.8284
▁133	-11.8284
▁සංක්රමණිකයන්	-11.8287
▁තනතුරින්	-11.8288
▁වැරදිකරු	-11.8289
▁බ්රසීල	-11.8299
▁හෝටලයට	-11.8301
මන්ත්රී	-11.8303
▁ඩැ	-11.8306
▁ඇරඹී	-11.8311
da	-11.8311
▁අත්තිකාරම්	-11.8311
▁ආසාත්මිකතා	-11.8311
▁ගල්නෑව	-11.8311
▁සජීවී	-11.8312
▁අජන්ත	-11.8312
▁සැදුම්	-11.8312
▁කුලසේකර	-11.8312
▁සම්බන්ධතාවය	-11.8313
▁සමුගැනීම	-11.8314
▁පාඨලි	-11.8315
▁පැවතුන	-11.8317
▁නැවැත්වීම	-11.8322
▁පිහියකින්	-11.8322
▁මාරුවක්	-11.8326
▁ආසන්නයෙන්	-11.8335
all	-11.8339
▁හයකට	-11.8339
▁මුඛය	-11.8343
▁දැක්වුවා	-11.8343
▁ගැටඹ	-11.8343
▁ඇමතිවරුන්ගේ	-11.8344
▁පිළිගැනීමක්	-11.8349
▁සපත්තු	-11.835
▁දැක්වූවා	-11.8352
▁සෙබළ	-11.8353
▁නාට්යය	-11.8354
▁ජයගොඩ	-11.8355
ක්රිෂ්ණ	-11.8356
▁සීමාවේදී	-11.8357
▁සෙල්ව	-11.8362
බෙල්ජියම	-11.8362
වගේම	-11.8365
▁ඉලෙක්ට්රොනික	-11.8369
▁ක්ෂුද්ර	-11.8369
▁බැහැදුටු	-11.8369
▁සෙට්ටිකුලම	-11.8369
▁ඕමල්ප	-11.8369
▁ව්යාකූල	-11.8369
▁සාමාර්ථ	-11.837
▁අධී	-11.837
සෙල්	-11.837
▁කුලරත්න	-11.8371
▁ජනපතිවරණය	-11.8372
▁114	-11.8373
▁ස්ථානවලින්	-11.8378
▁පැවතුණා	-11.8383
▁විසිරී	-11.8385
▁සෑදීම	-11.8387
46ක්	-11.8391
▁වෙළදපොළ	-11.8392
▁දකිනවා	-11.8392
▁සමරනු	-11.8394
▁ඍජුවම	-11.8394
▁144	-11.8396
▁අතීත	-11.8408
ist	-11.841
▁හඳ	-11.8411
▁ගුරුවරුන්ගේ	-11.8414
ගයා	-11.8414
හැම්	-11.8415
▁වන්දනාව	-11.8419
පැදියේ	-11.842
▁යතුරුපැදිකරුවන්	-11.8423
▁පාරිභෝගිකයා	-11.8423
රටේ	-11.8424
ගැසීම	-11.8425
▁පැහැරගැනීමට	-11.8426
අතර	-11.8427
▁එමිරේට්ස්	-11.8427
▁නෙරපා	-11.8427
▁හෙක්ටර්	-11.8427
▁ඉපයීම	-11.8427
▁යුගදනව	-11.8427
▁සේනාධිපති	-11.8427
▁ලිස්සා	-11.8428
▁යනාදී	-11.8428
ශේෂ	-11.8428
▁තියලා	-11.8429
▁280	-11.8429
▁කොටුගොඩ	-11.843
▁කඩකිරීම	-11.8435
සාධක	-11.8436
▁කර්මය	-11.8438
ෂේන්	-11.8438
▁තෙත්	-11.8442
▁ගෙවනු	-11.8444
▁පැමිණිලිකරු	-11.8449
▁ඔප	-11.8453
▁දෑල	-11.8453
▁දෝෂය	-11.8457
▁පිලිපීන	-11.8458
▁කථාව	-11.8459
විණ	-11.8464
කරුවෝ	-11.847
▁මහත්මයා	-11.8472
▁විසඳන්න	-11.8477
කාරිනිය	-11.8478
හෙළ	-11.8478
▁මතකය	-11.8482
▁මලයාසියාවේ	-11.8484
▁බෙංගමුව	-11.8485
▁සේනාධිරාජා	-11.8485
▁සෝදිසියකදී	-11.8485
▁දේශගුණ	-11.8485
▁විජයකලා	-11.8486
▁කුට්ට	-11.8486
▁කළමණාකාර	-11.8487
▁පර්පෙචුවල්	-11.8487
▁නොලබා	-11.8488
▁සැකසූ	-11.8491
▁4045	-11.8492
▁ඇරයුම්	-11.8493
විධානයට	-11.8496
mi	-11.8501
▁පළකිරීම	-11.8502
▁දුපත	-11.8503
▁පාර්ශවයක්	-11.8504
▁විමසු	-11.8516
ාලංකාර	-11.8521
▁ශබ්දය	-11.8521
▁සුලු	-11.8521
▁අපේක්ෂකත්වය	-11.8521
▁නැත්තේ	-11.8522
▁අපවත්වී	-11.8527
▁වැයවන	-11.8527
▁විනාශයක්	-11.8529
▁1980	-11.8532
▁රණවිරුවන්ගේ	-11.8535
පහර	-11.8535
▁132	-11.8536
▁ගබඩාවක	-11.8538
pm	-11.8539
▁අනුදැනුම	-11.8543
▁එජනිස	-11.8543
▁නිෂ්ප්රභ	-11.8543
▁හඟුරන්කෙත	-11.8543
▁කටවුට්	-11.8543
▁නොමඟ	-11.8543
▁අපූරු	-11.8543
▁පිටුදැකීම	-11.8544
▁Sri	-11.8546
▁දැක්වුණා	-11.8548
▁137	-11.8549
▁ධිවරයින්	-11.8551
▁සම්බන්ධයෙනු	-11.8553
[...]
